{"merges": [["e", "</w>"], [".", "</w>"], ["t", "</w>"], ["s", "</w>"], ["t", "h"], ["t", "o"], ["d", "</w>"], ["y", "</w>"], ["i", "n"], ["o", "u"], ["m", "</w>"], ["e", "r"], ["a", "n"], ["to", "m</w>"], ["to", "</w>"], ["o", "n"], ["i", "</w>"], ["a", "r"], ["y", "ou"], ["th", "e</w>"], ["i", "s</w>"], ["e", "d</w>"], ["g", "</w>"], ["e", "n"], ["in", "g</w>"], ["a", "t</w>"], ["a", "</w>"], ["you", "</w>"], ["o", "r"], ["l", "</w>"], ["er", "</w>"], ["o", "</w>"], ["'", "t</w>"], ["?", "</w>"], ["h", "a"], ["r", "e"], ["v", "e</w>"], ["w", "a"], ["m", "e</w>"], ["k", "</w>"], ["l", "l</w>"], ["w", "h"], ["o", "w"], ["f", "</w>"], ["s", "t"], ["l", "i"], ["in", "</w>"], ["th", "at</w>"], ["h", "e</w>"], ["d", "i"], ["c", "h"], ["ow", "</w>"], ["'", "s</w>"], ["l", "e"], ["an", "</w>"], ["on", "</w>"], ["t", "i"], ["w", "i"], [",", "</w>"], ["n", "'t</w>"], ["en", "</w>"], ["a", "l"], ["d", "o</w>"], ["wa", "s</w>"], ["o", "f</w>"], ["f", "or"], ["r", "i"], ["s", "t</w>"], ["i", "t</w>"], ["l", "y</w>"], ["e", "s</w>"], ["l", "d</w>"], ["er", "e</w>"], ["o", "o"], ["i", "'"], ["b", "e"], ["m", "ar"], ["s", "h"], ["l", "a"], ["s", "a"], ["n", "e"], ["g", "h"], ["o", "t</w>"], ["r", "</w>"], ["r", "o"], ["k", "e</w>"], ["th", "is</w>"], ["an", "d</w>"], ["th", "</w>"], ["s", "e</w>"], ["i", "t"], ["mar", "y</w>"], ["s", "e"], ["ha", "ve</w>"], ["p", "</w>"], ["on", "'t</w>"], ["for", "</w>"], ["b", "e</w>"], ["l", "e</w>"], ["a", "t"], ["c", "o"], ["v", "er"], ["ar", "e</w>"], ["d", "o"], ["th", "e"], ["n", "ow</w>"], ["m", "y</w>"], ["w", "e</w>"], ["a", "b"], ["m", "e"], ["h", "e"], ["d", "on't</w>"], ["n", "</w>"], ["w", "an"], ["ou", "t</w>"], ["on", "e</w>"], ["r", "e</w>"], ["wh", "at</w>"], ["gh", "t</w>"], ["m", "a"], ["c", "e</w>"], ["w", "e"], ["ch", "</w>"], ["s", "u"], ["ou", "ld</w>"], ["d", "n't</w>"], ["t", "e"], ["s", "o"], ["h", "is</w>"], ["s", "i"], ["s", "n't</w>"], ["wi", "th</w>"], ["h", "i"], ["n", "ot</w>"], ["i'", "m</w>"], ["r", "a"], ["b", "o"], ["d", "a"], ["e", "t</w>"], ["u", "n"], ["th", "in"], ["b", "u"], ["k", "now</w>"], ["p", "p"], ["a", "c"], ["th", "ing</w>"], ["en", "t</w>"], ["l", "o"], ["s", "p"], ["v", "er</w>"], ["you", "r</w>"], ["d", "e"], ["wan", "t</w>"], ["c", "a"], ["s", "he</w>"], ["th", "er</w>"], ["li", "ke</w>"], ["w", "or"], ["t", "er</w>"], ["g", "o"], ["f", "i"], ["ar", "</w>"], ["m", "i"], ["di", "dn't</w>"], ["s", "to"], ["c", "an</w>"], ["re", "a"], ["h", "er</w>"], ["ver", "y</w>"], ["ha", "s</w>"], ["thin", "k</w>"], ["da", "y</w>"], ["hi", "m</w>"], ["g", "o</w>"], ["di", "d</w>"], ["t", "a"], ["m", "or"], ["i", "d</w>"], ["t", "ed</w>"], ["f", "a"], ["h", "o"], ["w", "</w>"], ["t", "s</w>"], ["m", "o"], ["h", "ow</w>"], ["'", "re</w>"], ["a", "s"], ["u", "st</w>"], ["a", "ll</w>"], ["ab", "out</w>"], ["t", "r"], ["wi", "ll</w>"], ["f", "e"], ["k", "ing</w>"], ["go", "ing</w>"], ["a", "s</w>"], ["s", "ed</w>"], ["al", "ly</w>"], ["a", "g"], ["m", "p"], ["u", "r"], ["s", "s</w>"], ["h", "ere</w>"], ["c", "an"], ["k", "ed</w>"], ["g", "et</w>"], ["th", "ere</w>"], ["d", "s</w>"], ["e", "x"], ["ti", "me</w>"], ["ha", "d</w>"], ["y", "s</w>"], ["oo", "d</w>"], ["d", "y</w>"], ["p", "ro"], ["le", "a"], ["g", "i"], ["the", "y</w>"], ["it", "'s</w>"], ["an", "y</w>"], ["c", "on"], ["an", "y"], ["st", "i"], ["c", "i"], ["v", "i"], ["he", "l"], ["wh", "y</w>"], ["l", "oo"], ["ou", "n"], ["p", "o"], ["ti", "on</w>"], ["so", "me"], ["u", "p</w>"], ["sa", "id</w>"], ["t", "t"], ["q", "u"], ["n", "o"], ["m", "u"], ["k", "s</w>"], ["f", "ro"], ["f", "u"], ["l", "l"], ["d", "e</w>"], ["be", "en</w>"], ["u", "s</w>"], ["or", "</w>"], ["i", "f</w>"], ["fro", "m</w>"], ["ou", "l"], ["e", "a"], ["ha", "pp"], ["w", "ould</w>"], ["w", "ere</w>"], ["te", "ll</w>"], ["j", "ust</w>"], ["p", "ar"], ["r", "y</w>"], ["sh", "</w>"], ["o", "p"], ["m", "on"], ["can", "'t</w>"], ["st", "a"], ["p", "e"], ["y", "e"], ["t", "e</w>"], ["an", "g"], ["n", "o</w>"], ["n", "i"], ["b", "y</w>"], ["in", "d</w>"], ["on", "g</w>"], ["ne", "ed</w>"], ["ou", "ght</w>"], ["g", "ood</w>"], ["p", "la"], ["wh", "en</w>"], ["hel", "p</w>"], ["wh", "o</w>"], ["m", "i</w>"], ["do", "e"], ["doe", "sn't</w>"], ["ne", "ver</w>"], ["o", "f"], ["sa", "mi</w>"], ["mor", "e</w>"], ["to", "ld</w>"], ["i", "sn't</w>"], ["t", "al"], ["a", "l</w>"], ["t", "er"], ["s", "o</w>"], ["sh", "ould</w>"], ["re", "ally</w>"], ["j", "o"], ["you", "'re</w>"], ["co", "me</w>"], ["g", "ot</w>"], ["y", "ing</w>"], ["d", "r"], ["i", "r"], ["the", "m</w>"], ["wh", "ere</w>"], ["e", "ver"], ["c", "u"], ["ever", "y"], ["en", "d</w>"], ["i'", "ll</w>"], ["!", "</w>"], ["p", "re"], ["p", "a"], ["g", "e"], ["i'", "ve</w>"], ["t", "y</w>"], ["re", "e</w>"], ["se", "e</w>"], ["t", "'s</w>"], ["k", "e"], ["sto", "n</w>"], ["bo", "ston</w>"], ["ar", "d</w>"], ["f", "ri"], ["ne", "w</w>"], ["wa", "y</w>"], ["p", "er"], ["i", "c"], ["a", "f"], ["oul", "dn't</w>"], ["bu", "t</w>"], ["ou", "r</w>"], ["d", "ed</w>"], ["g", "u"], ["c", "ould</w>"], ["i", "l"], ["se", "l"], ["f", "r"], ["th", "an</w>"], ["'", "ve</w>"], ["c", "e"], ["st", "u"], ["so", "me</w>"], ["to", "m"], ["d", "er"], ["tom", "'s</w>"], ["m", "b"], ["e", "'s</w>"], ["ac", "k</w>"], ["mu", "ch</w>"], ["m", "an</w>"], ["d", "er</w>"], ["p", "u"], ["ab", "le</w>"], ["wor", "k</w>"], ["'", "ll</w>"], ["ow", "n</w>"], ["gh", "</w>"], ["h", "ou"], ["c", "k</w>"], ["i", "r</w>"], ["g", "s</w>"], ["v", "ed</w>"], ["k", "i"], ["to", "o</w>"], ["some", "thing</w>"], ["er", "s</w>"], ["p", "l"], ["sti", "ll</w>"], ["a", "m</w>"], ["en", "'t</w>"], ["t", "ter</w>"], ["ta", "ke</w>"], ["ar", "s</w>"], ["ri", "ed</w>"], ["f", "e</w>"], ["b", "ack</w>"], ["pro", "b"], ["at", "e</w>"], ["ho", "me</w>"], ["t", "ing</w>"], ["n", "a"], ["ou", "s</w>"], ["oun", "d</w>"], ["do", "ing</w>"], ["sel", "f</w>"], ["p", "lea"], ["th", "at"], ["b", "oo"], ["c", "</w>"], ["a", "d</w>"], ["pe", "op"], ["se", "e"], ["th", "ought</w>"], ["la", "st</w>"], ["sp", "ea"], ["n", "ing</w>"], ["g", "a"], ["peop", "le</w>"], ["co", "mp"], ["le", "t</w>"], ["s", "on</w>"], ["that", "'s</w>"], ["plea", "se</w>"], ["ri", "ght</w>"], ["do", "es</w>"], ["d", "ing</w>"], ["wan", "ted</w>"], ["in", "e</w>"], ["e", "y</w>"], ["m", "any</w>"], ["v", "ing</w>"], ["r", "u"], ["on", "ly</w>"], ["co", "m"], ["v", "es</w>"], ["t", "ra"], ["e", "l"], ["any", "thing</w>"], ["oo", "l</w>"], ["mon", "ey</w>"], ["g", "e</w>"], ["wa", "sn't</w>"], ["t", "u"], ["en", "ch</w>"], ["a", "d"], ["m", "s</w>"], ["r", "ow</w>"], ["ni", "ght</w>"], ["c", "ar</w>"], ["o", "ther</w>"], ["bo", "dy</w>"], ["ag", "a"], ["k", "es</w>"], ["e", "p</w>"], ["th", "ree</w>"], ["l", "ot</w>"], ["su", "re</w>"], ["wa", "ys</w>"], ["fr", "ench</w>"], ["s", "ch"], ["we", "'re</w>"], ["ma", "ke</w>"], ["to", "day</w>"], ["c", "t</w>"], ["w", "on't</w>"], ["sa", "y</w>"], ["l", "u"], ["gi", "ve</w>"], ["fu", "l</w>"], ["tal", "k</w>"], ["t", "en"], ["al", "ways</w>"], ["r", "oo"], ["on", "s</w>"], ["b", "i"], ["w", "ha"], ["s", "in"], ["hou", "se</w>"], ["th", "er"], ["c", "ar"], ["b", "le</w>"], ["w", "ent</w>"], ["f", "t</w>"], ["it", "e</w>"], ["g", "re"], ["e", "ver</w>"], ["f", "in"], ["t", "ur"], ["rea", "dy</w>"], ["ma", "de</w>"], ["l", "ong</w>"], ["s", "s"], ["he", "'s</w>"], ["m", "ent</w>"], ["ou", "gh</w>"], ["la", "y"], ["be", "tter</w>"], ["e", "v"], ["p", "e</w>"], ["a", "u"], ["k", "n"], ["p", "ri"], ["u", "se</w>"], ["sch", "ool</w>"], ["b", "</w>"], ["al", "l"], ["an", "t</w>"], ["roo", "m</w>"], ["r", "ed</w>"], ["e", "l</w>"], ["en", "ed</w>"], ["e", "at</w>"], ["lo", "ve</w>"], ["aga", "in</w>"], ["st", "ar"], ["we", "ll</w>"], ["for", "e</w>"], ["i'", "d</w>"], ["t", "w"], ["tr", "y</w>"], ["be", "fore</w>"], ["s", "si"], ["tr", "u"], ["loo", "k</w>"], ["we", "e"], ["as", "ked</w>"], ["n", "ed</w>"], ["e", "ar"], ["ow", "s</w>"], ["in", "to</w>"], ["wh", "i"], ["to", "mor"], ["f", "ind</w>"], ["en", "ts</w>"], ["l", "t</w>"], ["le", "t's</w>"], ["d", "one</w>"], ["spea", "k</w>"], ["tomor", "row</w>"], ["tt", "le</w>"], ["ag", "e</w>"], ["c", "lo"], ["o", "k</w>"], ["t", "en</w>"], ["li", "e"], ["l", "a</w>"], ["lea", "ve</w>"], ["m", "in"], ["ca", "me</w>"], ["prob", "le"], ["mo", "st</w>"], ["boo", "k</w>"], ["t", "ly</w>"], ["bu", "y</w>"], ["wha", "t's</w>"], ["m", "ust</w>"], ["an", "ce</w>"], ["o", "ver</w>"], ["lay", "la</w>"], ["u", "sed</w>"], ["le", "ft</w>"], ["be", "lie"], ["x", "t</w>"], ["st", "er"], ["i", "mp"], ["of", "f</w>"], ["di", "f"], ["li", "ve</w>"], ["a", "pp"], ["fi", "r"], ["b", "ro"], ["every", "thing</w>"], ["d", "u"], ["in", "ter"], ["ne", "e"], ["en", "g"], ["un", "der"], ["happ", "y</w>"], ["en", "ds</w>"], ["y", "'s</w>"], ["sta", "y</w>"], ["af", "ter</w>"], ["ye", "ars</w>"], ["tw", "o</w>"], ["pl", "an"], ["k", "new</w>"], ["li", "ttle</w>"], ["ne", "xt</w>"], ["e", "very</w>"], ["'", "d</w>"], ["o", "ld</w>"], ["p", "h"], ["sa", "w</w>"], ["en", "ce</w>"], ["la", "te</w>"], ["pu", "t</w>"], ["0", "</w>"], ["an", "s"], ["rea", "d</w>"], ["wa", "l"], ["m", "ed</w>"], ["mb", "er</w>"], ["s", "sed</w>"], ["d", "own</w>"], ["fir", "st</w>"], ["te", "a"], ["st", "and</w>"], ["at", "ed</w>"], ["jo", "b</w>"], ["li", "fe</w>"], ["st", "ed</w>"], ["b", "r"], ["the", "ir</w>"], ["qu", "e"], ["wan", "ts</w>"], ["g", "r"], ["r", "ong</w>"], ["fri", "end</w>"], ["ar", "en't</w>"], ["m", "es</w>"], ["le", "ar"], ["ther", "e's</w>"], ["ch", "il"], ["fa", "ther</w>"], ["p", "i"], ["it", "y</w>"], ["s", "er"], ["an", "d"], ["as", "k</w>"], ["w", "ri"], ["ma", "y</w>"], ["b", "or"], ["kn", "ows</w>"], ["g", "er</w>"], ["x", "</w>"], ["s", "le"], ["c", "ouldn't</w>"], ["sh", "ed</w>"], ["the", "se</w>"], ["happ", "ened</w>"], ["p", "ic"], ["su", "r"], ["f", "er"], ["wa", "t"], ["gi", "r"], ["a", "tion</w>"], ["belie", "ve</w>"], ["ca", "ll</w>"], ["d", "ri"], ["ar", "y</w>"], ["sp", "e"], ["ye", "ster"], ["le", "s</w>"], ["po", "li"], ["to", "ok</w>"], ["\"", "</w>"], ["ch", "ang"], ["yester", "day</w>"], ["ev", "en</w>"], ["dr", "in"], ["thin", "gs</w>"], ["d", "ent</w>"], ["chil", "dr"], ["no", "thing</w>"], ["proble", "m</w>"], ["c", "oun"], ["sto", "p</w>"], ["fri", "ends</w>"], ["al", "ready</w>"], ["b", "a"], ["childr", "en</w>"], ["de", "ci"], ["bo", "th</w>"], ["it", "ed</w>"], ["ga", "ve</w>"], ["a", "way</w>"], ["y", "et</w>"], ["e", "ly</w>"], ["p", "t</w>"], ["s", "y</w>"], ["w", "on"], ["ch", "e"], ["or", "t</w>"], ["o", "l"], ["wh", "o"], ["j", "a"], ["r", "s</w>"], ["mi", "ght</w>"], ["que", "sti"], ["y", "ed</w>"], ["w", "ouldn't</w>"], ["re", "me"], ["wi", "th"], ["mo", "ther</w>"], ["na", "me</w>"], ["ho", "pe</w>"], ["en", "ough</w>"], ["every", "one</w>"], ["i", "de"], ["c", "k"], ["l", "on"], ["he", "ard</w>"], ["under", "stand</w>"], ["loo", "king</w>"], ["oul", "d"], ["li", "sh</w>"], ["pla", "y</w>"], ["w", "rong</w>"], ["ould", "'ve</w>"], ["c", "ed</w>"], ["fe", "el</w>"], ["su", "pp"], ["mar", "y's</w>"], ["at", "ing</w>"], ["of", "ten</w>"], ["sa", "ys</w>"], ["tea", "ch"], ["h", "ard</w>"], ["s", "en"], ["to", "r</w>"], ["c", "la"], ["s", "ing</w>"], ["so", "on</w>"], ["k", "en</w>"], ["h", "un"], ["f", "ound</w>"], ["wee", "k</w>"], ["ca", "use</w>"], ["sh", "o"], ["m", "m"], ["da", "ys</w>"], ["si", "de</w>"], ["c", "all"], ["do", "g</w>"], ["c", "er"], ["s", "c"], ["s", "wi"], ["inter", "e"], ["ye", "ar</w>"], ["b", "ad</w>"], ["with", "out</w>"], ["w", "in"], ["ha", "v"], ["mor", "ning</w>"], ["par", "ty</w>"], ["se", "en</w>"], ["h", "u"], ["hav", "en't</w>"], ["wa", "it</w>"], ["do", "or</w>"], ["ab", "ly</w>"], ["m", "at"], ["c", "ti"], ["to", "ge"], ["toge", "ther</w>"], ["wi", "sh</w>"], ["st", "ra"], ["ans", "w"], ["n", "er</w>"], ["ti", "mes</w>"], ["ll", "ed</w>"], ["t", "ried</w>"], ["bu", "sy</w>"], ["h", "ur"], ["m", "er"], ["m", "an"], ["sa", "me</w>"], ["we", "'ll</w>"], ["g", "ra"], ["tt", "ing</w>"], ["tt", "y</w>"], ["be", "st</w>"], ["eng", "lish</w>"], ["hi", "m"], ["an", "k</w>"], ["t", "ri"], ["al", "one</w>"], ["c", "ted</w>"], ["b", "ought</w>"], ["any", "one</w>"], ["him", "self</w>"], ["st", "er</w>"], ["w", "o"], ["prob", "ably</w>"], ["be", "ing</w>"], ["the", "y"], ["b", "ed</w>"], ["p", "s</w>"], ["b", "rea"], ["ar", "ound</w>"], ["loo", "ks</w>"], ["c", "ou"], ["ke", "ep</w>"], ["loo", "ked</w>"], ["c", "le"], ["you", "n"], ["be", "cause</w>"], ["tu", "re</w>"], ["g", "la"], ["o", "se</w>"], ["pp", "ed</w>"], ["s", "it</w>"], ["pre", "tty</w>"], ["ide", "a</w>"], ["ex", "pe"], ["happ", "en</w>"], ["el", "se</w>"], ["any", "more</w>"], ["co", "l"], ["d", "in"], ["mar", "ried</w>"], ["j", "e"], ["it", "ing</w>"], ["pla", "ce</w>"], ["see", "ms</w>"], ["di", "ed</w>"], ["fin", "i"], ["c", "or"], ["c", "re"], ["lo", "st</w>"], ["k", "ind</w>"], ["t", "es</w>"], ["wa", "ter</w>"], ["an", "i"], ["e", "ss</w>"], ["per", "son</w>"], ["ph", "one</w>"], ["ang", "u"], ["fa", "mi"], ["l", "angu"], ["you", "'ve</w>"], ["m", "ind</w>"], ["whi", "le</w>"], ["some", "one</w>"], ["c", "es</w>"], ["en", "ing</w>"], ["li", "kes</w>"], ["di", "s"], ["fe", "w</w>"], ["s", "es</w>"], ["star", "ted</w>"], ["jo", "h"], ["sh", "e's</w>"], ["ow", "ed</w>"], ["in", "v"], ["gre", "at</w>"], ["bi", "g</w>"], ["ja", "p"], ["pl", "an</w>"], ["be", "g"], ["i", "l</w>"], ["me", "t</w>"], ["nee", "ds</w>"], ["be", "au"], ["mi", "l"], ["u", "gh"], ["ti", "red</w>"], ["d", "re"], ["tr", "ying</w>"], ["reme", "mber</w>"], ["tal", "king</w>"], ["ch", "i"], ["drin", "k</w>"], ["v", "o"], ["he", "ar</w>"], ["ge", "tting</w>"], ["stu", "d"], ["s", "it"], ["ea", "ch</w>"], ["or", "t"], ["st", "r"], ["com", "ing</w>"], ["th", "ir"], ["z", "e</w>"], ["p", "as"], ["dif", "fer"], ["g", "er"], ["ra", "id</w>"], ["c", "are</w>"], ["li", "st"], ["mi", "sta"], ["f", "fe"], ["af", "raid</w>"], ["s", "or"], ["i", "ce</w>"], ["you", "'ll</w>"], ["ll", "ing</w>"], ["teach", "er</w>"], ["we", "'ve</w>"], ["le", "ss</w>"], ["wor", "ld</w>"], ["an", "other</w>"], ["m", "y"], ["sin", "ce</w>"], ["min", "u"], ["call", "ed</w>"], ["al", "most</w>"], ["fa", "st</w>"], ["wor", "king</w>"], ["u", "su"], ["beau", "ti"], ["e", "se</w>"], ["ear", "ly</w>"], ["c", "oo"], ["t", "able</w>"], ["ar", "ri"], ["qu", "ite</w>"], ["f", "l"], ["p", "en"], ["p", "ing</w>"], ["joh", "n</w>"], ["b", "ir"], ["h", "ar"], ["ca", "l</w>"], ["won", "der</w>"], ["of", "fi"], ["beauti", "ful</w>"], ["par", "ents</w>"], ["e", "i"], ["to", "w"], ["w", "in</w>"], ["c", "le</w>"], ["j", "u"], ["in", "ed</w>"], ["p", "ed</w>"], ["con", "t"], ["see", "m</w>"], ["y", "es</w>"], ["ti", "ve</w>"], ["me", "et</w>"], ["f", "ood</w>"], ["sh", "ouldn't</w>"], ["whi", "ch</w>"], ["wa", "iting</w>"], ["dif", "fi"], ["diffi", "cu"], ["fami", "ly</w>"], ["me", "e"], ["chang", "e</w>"], ["tur", "n</w>"], ["sh", "i"], ["com", "m"], ["answ", "er</w>"], ["poli", "ce</w>"], ["e", "st</w>"], ["s", "ent</w>"], ["co", "ld</w>"], ["sur", "pri"], ["h", "an"], ["ti", "ons</w>"], ["n", "u"], ["th", "ose</w>"], ["b", "all</w>"], ["v", "or"], ["un", "ti"], ["they", "'re</w>"], ["ni", "ce</w>"], ["ma", "y"], ["do", "c"], ["si", "on</w>"], ["c", "ha"], ["li", "a</w>"], ["gir", "l</w>"], ["d", "en"], ["boo", "ks</w>"], ["mee", "ting</w>"], ["youn", "g</w>"], ["b", "la"], ["m", "en</w>"], ["my", "self</w>"], ["unti", "l</w>"], ["l", "ar"], ["co", "ffe"], ["s", "on"], ["su", "ch</w>"], ["en", "jo"], ["ch", "ed</w>"], ["f", "o"], ["coffe", "e</w>"], ["sor", "ry</w>"], ["bo", "y</w>"], ["mo", "vi"], ["st", "ing</w>"], ["lear", "n</w>"], ["o", "sed</w>"], ["deci", "ded</w>"], ["me", "di"], ["g", "ar"], ["op", "en</w>"], ["din", "ner</w>"], ["sto", "ry</w>"], ["tru", "th</w>"], ["li", "ke"], ["b", "l"], ["au", "stra"], ["in", "s</w>"], ["as", "y</w>"], ["wat", "ch</w>"], ["tru", "e</w>"], ["pa", "y</w>"], ["stu", "dy</w>"], ["imp", "ort"], ["like", "ly</w>"], ["on", "ce</w>"], ["wi", "fe</w>"], ["mu", "si"], ["ar", "ing</w>"], ["a", "go</w>"], ["to", "night</w>"], ["un", "i"], ["ha", "ving</w>"], ["car", "e"], ["questi", "on</w>"], ["sle", "ep</w>"], ["you", "r"], ["sh", "ould've</w>"], ["st", "s</w>"], ["tra", "in</w>"], ["no", "body</w>"], ["li", "ves</w>"], ["w", "ar"], ["we", "a"], ["b", "it</w>"], ["ne", "w"], ["austra", "lia</w>"], ["v", "e"], ["c", "en"], ["e", "asy</w>"], ["you", "'d</w>"], ["c", "at"], ["p", "r"], ["fa", "di"], ["sh", "ow</w>"], ["difficu", "lt</w>"], ["every", "body</w>"], ["si", "g"], ["wal", "k</w>"], ["v", "en</w>"], ["mon", "day</w>"], ["ha", "sn't</w>"], ["st", "re"], ["z", "ed</w>"], ["pro", "mi"], ["ra", "in</w>"], ["import", "ant</w>"], ["tur", "ned</w>"], ["an", "s</w>"], ["bu", "s</w>"], ["fu", "n</w>"], ["may", "be</w>"], ["hou", "rs</w>"], ["c", "ity</w>"], ["si", "ck</w>"], ["bro", "ther</w>"], ["langu", "age</w>"], ["a", "li"], ["u", "ght</w>"], ["ch", "o"], ["supp", "osed</w>"], ["c", "ked</w>"], ["3", "0</w>"], ["usu", "ally</w>"], ["gir", "l"], ["p", "er</w>"], ["ou", "s"], ["l", "un"], ["sp", "o"], ["nee", "ded</w>"], ["wri", "te</w>"], ["offi", "ce</w>"], ["ou", "t"], ["doc", "tor</w>"], ["ssi", "ble</w>"], ["su", "g"], ["it", "s</w>"], ["coun", "try</w>"], ["t", "re"], ["l", "ed</w>"], ["your", "self</w>"], ["se", "t</w>"], ["fadi", "l</w>"], ["s", "ha"], ["tr", "ou"], ["wor", "d</w>"], ["ti", "on"], ["ad", "vi"], ["tow", "n</w>"], ["th", "r"], ["to", "u"], ["n", "or"], ["hur", "t</w>"], ["ne", "i"], ["fe", "el"], ["s", "mo"], ["tt", "en</w>"], ["ac", "k"], ["ta", "in</w>"], ["no", "on</w>"], ["st", "e"], ["c", "ra"], ["d", "ly</w>"], ["mat", "ter</w>"], ["ac", "ci"], ["win", "d"], ["s", "k"], ["hun", "g"], ["c", "r"], ["dri", "ve</w>"], ["le", "tter</w>"], ["o", "b"], ["f", "ac"], ["he", "a"], ["g", "one</w>"], ["h", "er"], ["ang", "ry</w>"], ["li", "ving</w>"], ["fe", "lt</w>"], ["in", "t</w>"], ["qu", "i"], ["g", "en"], ["f", "er</w>"], ["d", "an</w>"], ["h", "or"], ["for", "get</w>"], ["re", "s</w>"], ["tu", "ally</w>"], ["pla", "ying</w>"], ["see", "med</w>"], ["mm", "er</w>"], ["hung", "ry</w>"], ["ma", "ll</w>"], ["te", "ly</w>"], ["ch", "ing</w>"], ["u", "p"], ["f", "oo"], ["musi", "c</w>"], ["su", "n"], ["st", "an"], ["so", "l"], ["li", "ght</w>"], ["it", "al</w>"], ["al", "s</w>"], ["c", "tion</w>"], ["g", "ed</w>"], ["der", "ed</w>"], ["lun", "ch</w>"], ["cla", "ss</w>"], ["h", "and</w>"], ["si", "ster</w>"], ["he", "ad</w>"], ["e", "le"], ["su", "c"], ["star", "t</w>"], ["lon", "ger</w>"], ["ch", "ance</w>"], ["af", "ter"], ["i", "s"], ["ma", "kes</w>"], ["thin", "ks</w>"], ["ex", "ac"], ["hi", "gh</w>"], ["a", "mer"], ["trou", "ble</w>"], ["vi", "sit</w>"], ["la", "ter</w>"], ["ha", "te</w>"], ["ser", "i"], ["li", "ved</w>"], ["differ", "ent</w>"], ["we", "aring</w>"], ["minu", "tes</w>"], ["fini", "shed</w>"], ["he", "'d</w>"], ["suc", "ce"], ["fa", "ce</w>"], ["b", "er"], ["th", "en</w>"], ["c", "ri"], ["ha", "ir</w>"], ["v", "</w>"], ["s", "mall</w>"], ["sen", "ten"], ["fa", "vor"], ["f", "ar</w>"], ["m", "en"], ["re", "p"], ["chi", "ld</w>"], ["di", "sa"], ["swi", "m</w>"], ["in", "t"], ["fi", "re</w>"], ["par", "k</w>"], ["wo", "man</w>"], ["s", "car"], ["e", "yes</w>"], ["ar", "t</w>"], ["ss", "es</w>"], ["ho", "me"], ["after", "noon</w>"], ["bu", "il"], ["fo", "ll"], ["d", "ang"], ["c", "at</w>"], ["fi", "ve</w>"], ["de", "a"], ["wh", "e"], ["exac", "tly</w>"], ["ki", "lled</w>"], ["t", "we"], ["movi", "e</w>"], [":", "30</w>"], ["intere", "sted</w>"], ["acci", "dent</w>"], ["con", "cer"], ["b", "ri"], ["favor", "ite</w>"], ["e", "ating</w>"], ["sle", "e"], ["un", "der</w>"], ["comp", "le"], ["p", "id</w>"], ["con", "si"], ["thr", "ough</w>"], ["e", "at"], ["can", "not</w>"], ["se", "cre"], ["d", "en</w>"], ["tr", "ust</w>"], ["t", "v</w>"], ["questi", "ons</w>"], ["mon", "th</w>"], ["ll", "s</w>"], ["rea", "ding</w>"], ["con", "v"], ["at", "u"], ["stu", "pid</w>"], ["sta", "tion</w>"], ["in", "ing</w>"], ["pic", "ture</w>"], ["dre", "ss</w>"], ["in", "gs</w>"], ["any", "body</w>"], ["comp", "u"], ["gr", "and"], ["be", "come</w>"], ["d", "ro"], ["at", "t"], ["bro", "ke</w>"], ["d", "rea"], ["th", "ers</w>"], ["qu", "ic"], ["ou", "r"], ["ro", "ad</w>"], ["bor", "n</w>"], ["bu", "sin"], ["surpri", "sed</w>"], ["l", "and</w>"], ["0", "0</w>"], ["s", "y"], ["mista", "ke</w>"], ["ga", "me</w>"], ["ter", "s</w>"], ["ow", "er</w>"], ["bu", "r"], ["he", "al"], ["v", "a"], ["stre", "et</w>"], ["th", "ank</w>"], ["in", "ted</w>"], ["s", "k</w>"], ["l", "in"], ["l", "ly</w>"], ["b", "ab"], ["col", "le"], ["re", "la"], ["tr", "ans"], ["wor", "ks</w>"], ["te", "st</w>"], ["str", "ang"], ["intere", "sting</w>"], ["ke", "y</w>"], ["ch", "ar"], ["h", "and"], ["en", "s</w>"], ["jap", "an"], ["da", "ugh"], ["ta", "king</w>"], ["su", "mmer</w>"], ["plan", "ning</w>"], ["shi", "p</w>"], ["ti", "es</w>"], ["who", "'s</w>"], ["comp", "any</w>"], ["fe", "ll</w>"], ["g", "ing</w>"], ["sug", "ge"], ["ex", "pla"], ["si", "ve</w>"], ["c", "ur"], ["rea", "li"], ["ru", "n</w>"], ["sp", "a"], ["gla", "d</w>"], ["p", "ra"], ["no", "ti"], ["stud", "ents</w>"], ["lo", "ves</w>"], ["hel", "ped</w>"], ["at", "ten"], ["ssi", "on</w>"], ["ho", "sp"], ["ag", "ree</w>"], ["sp", "ent</w>"], ["whe", "ther</w>"], ["te", "am</w>"], ["o", "c"], ["ac", "ce"], ["dea", "th</w>"], ["s", "al"], ["list", "en</w>"], ["y", "er</w>"], ["l", "f</w>"], ["d", "ar"], ["f", "ree</w>"], ["proble", "ms</w>"], ["thir", "ty</w>"], ["2", ":30</w>"], ["f", "un"], ["jap", "an</w>"], ["r", "an</w>"], ["nu", "mber</w>"], ["b", "ar"], ["arri", "ved</w>"], ["be", "twe"], ["ac", "tually</w>"], ["lo", "gi"], ["busin", "ess</w>"], ["y", "cle</w>"], ["betwe", "en</w>"], ["ex", "per"], ["out", "side</w>"], ["di", "e</w>"], ["m", "ine</w>"], ["be", "came</w>"], ["tal", "ked</w>"], ["th", "an"], ["we", "ar</w>"], ["po", "ssible</w>"], ["japan", "ese</w>"], ["i", "ght</w>"], ["gu", "y</w>"], ["h", "ind</w>"], ["me", "an</w>"], ["ma", "king</w>"], ["sp", "end</w>"], ["be", "hind</w>"], ["ci", "al</w>"], ["z", "y</w>"], ["fr", "on"], ["wind", "ow</w>"], ["o", "d</w>"], ["clo", "se</w>"], ["thin", "king</w>"], ["ss", "ing</w>"], ["ca", "ught</w>"], ["sh", "ing</w>"], ["br", "ing</w>"], ["do", "ll"], ["n", "y</w>"], ["kn", "own</w>"], ["go", "es</w>"], ["rea", "son</w>"], ["par", "t"], ["par", "t</w>"], ["at", "ely</w>"], ["f", "re"], ["s", "ci"], ["d", "ge</w>"], ["cu", "t</w>"], ["com", "es</w>"], ["new", "s</w>"], ["tra", "v"], ["for", "got</w>"], ["fi", "sh</w>"], ["ki", "ll</w>"], ["en", "ti"], ["c", "er</w>"], ["ow", "ing</w>"], ["ge", "ts</w>"], ["at", "es</w>"], ["bir", "th"], ["wea", "ther</w>"], ["t", "y"], ["al", "so</w>"], ["ous", "ly</w>"], ["ti", "c</w>"], ["wor", "ried</w>"], ["pa", "id</w>"], ["sta", "yed</w>"], ["h", "on"], ["er", "ed</w>"], ["i", "se</w>"], ["wat", "ching</w>"], ["d", "ou"], ["un", "k</w>"], ["who", "le</w>"], ["wor", "ked</w>"], ["hosp", "ital</w>"], ["li", "ked</w>"], ["w", "ro"], ["fron", "t</w>"], ["e", "g"], ["ag", "es</w>"], ["beg", "an</w>"], ["wro", "te</w>"], ["ri", "ch</w>"], ["la", "ugh"], ["h", "ot</w>"], ["ke", "pt</w>"], ["c", "li"], ["i", "g"], ["some", "times</w>"], ["birth", "day</w>"], ["k", "ly</w>"], ["compu", "ter</w>"], ["home", "work</w>"], ["stud", "ying</w>"], ["a", "ch</w>"], ["o", "ver"], ["c", "y</w>"], ["s", "li"], ["conv", "in"], ["wal", "ked</w>"], ["rea", "l</w>"], ["chang", "ed</w>"], ["aga", "in"], ["s", "at</w>"], ["ch", "in"], ["han", "ds</w>"], ["ch", "ri"], ["ck", "et</w>"], ["sa", "fe</w>"], ["again", "st</w>"], ["c", "ent</w>"], ["re", "st</w>"], ["clo", "th"], ["ir", "s</w>"], ["e", "s"], ["ma", "s</w>"], ["ou", "d</w>"], ["mi", "ss</w>"], ["ti", "c"], ["li", "e</w>"], ["sho", "es</w>"], ["sto", "pped</w>"], ["cloth", "es</w>"], ["ten", "n"], ["th", "s</w>"], ["fu", "sed</w>"], ["ca", "se</w>"], ["it", "'ll</w>"], ["tenn", "is</w>"], ["s", "ong</w>"], ["e", "mp"], ["stu", "dent</w>"], ["i", "m"], ["fu", "lly</w>"], ["a", "w"], ["fini", "sh</w>"], ["ex", "pen"], ["in", "i"], ["wor", "ry</w>"], ["sto", "re</w>"], ["te", "le"], ["wee", "k"], ["mo", "ment</w>"], ["mm", "ing</w>"], ["ce", "i"], ["se", "con"], ["b", "ra"], ["m", "oun"], ["ca", "p"], ["b", "ic"], ["de", "ad</w>"], ["de", "al</w>"], ["expe", "ct</w>"], ["y", "e</w>"], ["care", "ful</w>"], ["brea", "k"], ["ho", "te"], ["enjo", "y</w>"], ["daugh", "ter</w>"], ["ne", "ss</w>"], ["en", "tly</w>"], ["te", "mp"], ["l", "ar</w>"], ["se", "ver"], ["r", "ing</w>"], ["ar", "i"], ["bo", "x</w>"], ["al", "ong</w>"], ["th", "y</w>"], ["ex", "ce"], ["ll", "a</w>"], ["er", "ous</w>"], ["re", "sta"], ["resta", "ur"], ["wor", "ds</w>"], ["d", "ra"], ["w", "ar</w>"], ["nei", "gh"], ["in", "st"], ["lar", "ge</w>"], ["cle", "an</w>"], ["ter", "ri"], ["ki", "ds</w>"], ["comp", "la"], ["t", "ree</w>"], ["c", "rea"], ["n", "er"], ["lo", "ved</w>"], ["h", "our</w>"], ["k", "er</w>"], ["disa", "pp"], ["k", "y"], ["m", "r</w>"], ["n", "s</w>"], ["spe", "ct</w>"], ["vi", "s"], ["ne", "ar</w>"], ["s", "we"], ["quic", "kly</w>"], ["ow", "ers</w>"], ["r", "un"], ["doll", "ars</w>"], ["ck", "y</w>"], ["sp", "on"], ["c", "ro"], ["b", "and</w>"], ["bab", "y</w>"], ["swi", "mming</w>"], ["or", "der</w>"], ["break", "fast</w>"], ["t", "un"], ["pp", "ing</w>"], ["la", "w"], ["scar", "ed</w>"], ["c", "lu"], ["lo", "se</w>"], ["dis", "cu"], ["sti", "c</w>"], ["sp", "i"], ["p", "ho"], ["sel", "ves</w>"], ["hote", "l</w>"], ["li", "ed</w>"], ["v", "en"], ["wh", "er"], ["per", "fe"], ["sa", "ying</w>"], ["c", "ks</w>"], ["fi", "ed</w>"], ["j", "ack"], ["3", "</w>"], ["ev", "ening</w>"], ["qu", "it</w>"], ["ri", "ver</w>"], ["mo", "ve</w>"], ["fu", "ll</w>"], ["th", "re"], ["dar", "k</w>"], ["as", "ed</w>"], ["u", "mb"], ["re", "co"], ["ol", "der</w>"], ["go", "d</w>"], ["advi", "ce</w>"], ["feel", "ing</w>"], ["gu", "ys</w>"], ["re", "spon"], ["spea", "ks</w>"], ["s", "ou"], ["f", "ine</w>"], ["sto", "od</w>"], ["sit", "u"], ["gh", "ts</w>"], ["dou", "b"], ["seri", "ous</w>"], ["ch", "es</w>"], ["la", "'s</w>"], ["smo", "king</w>"], ["w", "ine</w>"], ["br", "ought</w>"], ["cat", "ch</w>"], ["mi", "d"], ["gu", "ess</w>"], ["he", "art</w>"], ["imp", "re"], ["sever", "al</w>"], ["w", "on</w>"], ["b", "lu"], ["lu", "cky</w>"], ["ag", "re"], ["te", "a</w>"], ["h", "it</w>"], ["fin", "ally</w>"], ["a", "po"], ["ki", "ss</w>"], ["than", "ks</w>"], ["sh", "ir"], ["expen", "sive</w>"], ["d", "ur"], ["so", "lu"], ["lea", "st</w>"], ["brea", "k</w>"], ["m", "ous</w>"], ["bic", "ycle</w>"], ["mil", "k</w>"], ["exper", "i"], ["sit", "ting</w>"], ["strang", "e</w>"], ["restaur", "ant</w>"], ["week", "end</w>"], ["lay", "la's</w>"], ["si", "x</w>"], ["c", "ry</w>"], ["ac", "t</w>"], ["as", "le"], ["asle", "ep</w>"], ["ra", "ther</w>"], ["fi", "c</w>"], ["p", "le</w>"], ["c", "ts</w>"], ["b", "er</w>"], ["chri", "st"], ["po", "pu"], ["s", "l"], ["oun", "ds</w>"], ["ba", "se"], ["tri", "p</w>"], ["cont", "in"], ["s", "sa"], ["ea", "si"], ["f", "lo"], ["expe", "cted</w>"], ["mon", "ths</w>"], ["ic", "</w>"], ["christ", "mas</w>"], ["je", "ct</w>"], ["ver", "ed</w>"], ["fl", "owers</w>"], ["mo", "ved</w>"], ["pa", "ti"], ["g", "y</w>"], ["te", "lling</w>"], ["ar", "m</w>"], ["2", "0"], ["ma", "l</w>"], ["ex", "a"], ["pa", "in</w>"], ["secre", "t</w>"], ["l", "ying</w>"], ["s", "mar"], ["pro", "te"], ["amer", "i"], ["dr", "unk</w>"], ["l", "ine</w>"], ["dur", "ing</w>"], ["be", "er</w>"], ["sp", "er"], ["plan", "s</w>"], ["girl", "friend</w>"], ["dang", "erous</w>"], ["k", "et</w>"], ["sen", "se</w>"], ["in", "for"], ["secon", "d</w>"], ["umb", "re"], ["spea", "king</w>"], ["z", "z"], ["ther", "'s</w>"], ["wh", "ite</w>"], ["part", "ment</w>"], ["st", "e</w>"], ["v", "ac"], ["li", "st</w>"], ["senten", "ce</w>"], ["h", "</w>"], ["re", "cei"], ["situ", "ation</w>"], ["lea", "ving</w>"], ["ma", "g"], ["expla", "in</w>"], ["op", "ened</w>"], ["en", "e"], ["s", "now</w>"], ["op", "ini"], ["clo", "ck</w>"], ["ei", "ther</w>"], ["co", "st</w>"], ["sh", "ot</w>"], ["an", "o</w>"], ["a", "ir"], ["w", "er"], ["wa", "ke</w>"], ["b", "li"], ["w", "ard</w>"], ["re", "ma"], ["it", "ted</w>"], ["bla", "ck</w>"], ["il", "ed</w>"], ["fri", "en"], ["a", "ir</w>"], ["ur", "ed</w>"], ["buil", "ding</w>"], ["de", "li"], ["plan", "e</w>"], ["promi", "sed</w>"], ["g", "oo"], ["d", "a</w>"], ["ha", "lf</w>"], ["su", "b"], ["sh", "ort</w>"], ["sig", "n</w>"], ["umbre", "lla</w>"], ["clo", "sed</w>"], ["sh", "owed</w>"], ["wri", "ting</w>"], ["hu", "s"], ["cor", "re"], ["o", "pp"], ["qui", "et</w>"], ["cle", "ar</w>"], ["wri", "tten</w>"], ["wer", "en't</w>"], ["st", "rong</w>"], ["coun", "t</w>"], ["comple", "tely</w>"], ["f", "f</w>"], ["contin", "u"], ["ta", "ken</w>"], ["mi", "'s</w>"], ["gi", "ven</w>"], ["ad", "m"], ["1", "9"], ["h", "at</w>"], ["gu", "it"], ["eat", "en</w>"], ["or", "s</w>"], ["deci", "sion</w>"], ["o", "thers</w>"], ["atten", "tion</w>"], ["f", "our</w>"], ["ear", "th</w>"], ["fi", "ght</w>"], ["tu", "res</w>"], ["pu", "bli"], ["p", "y</w>"], ["sa", "mi's</w>"], ["do", "m</w>"], ["ri", "es</w>"], ["po", "int</w>"], ["c", "up</w>"], ["spo", "ke</w>"], ["pre", "sent</w>"], ["m", "ur"], ["apo", "logi"], ["s", "mi"], ["some", "body</w>"], ["mista", "kes</w>"], ["to", "r"], ["e", "du"], ["ma", "d</w>"], ["de", "ser"], ["tea", "ch</w>"], ["promi", "se</w>"], ["pla", "yed</w>"], ["i", "a</w>"], ["hur", "ry</w>"], ["re", "su"], ["sh", "es</w>"], ["e", "u"], ["po", "or</w>"], ["p", "ur"], ["colle", "ge</w>"], ["k", "it"], ["ar", "gu"], ["ca", "ke</w>"], ["bro", "ken</w>"], ["l", "s</w>"], ["cho", "ice</w>"], ["langu", "ages</w>"], ["shir", "t</w>"], ["c", "al"], ["me", "ssa"], ["go", "tten</w>"], ["te", "en</w>"], ["t", "ball</w>"], ["s", "ound</w>"], ["wo", "men</w>"], ["s", "end</w>"], ["m", "a</w>"], ["di", "st"], ["ar", "re"], ["we", "ight</w>"], ["cou", "r"], ["app", "ro"], ["wher", "e's</w>"], ["in", "side</w>"], ["ex", "c"], ["heal", "th</w>"], ["ex", "t"], ["rep", "ort</w>"], ["sh", "e"], ["l", "li"], ["che", "ck</w>"], ["d", "ance</w>"], ["v", "y</w>"], ["mi", "ssed</w>"], ["ba", "g</w>"], ["ta", "in"], ["th", "ough</w>"], ["cr", "ying</w>"], ["d", "an"], ["fa", "mous</w>"], ["ta", "kes</w>"], ["won", "der"], ["gla", "sses</w>"], ["ta", "to"], ["d", "le</w>"], ["cra", "zy</w>"], ["minu", "te</w>"], ["ce", "ss"], ["lear", "ned</w>"], ["gu", "n</w>"], ["pa", "per</w>"], ["b", "ank</w>"], ["l", "ing</w>"], ["u", "m</w>"], ["girl", "s</w>"], ["m", "ing</w>"], ["cou", "ple</w>"], ["f", "lu"], ["pi", "ano</w>"], ["wee", "ks</w>"], ["opini", "on</w>"], ["drin", "king</w>"], ["cti", "on"], ["he", "'ll</w>"], ["tion", "al</w>"], ["mp", "le</w>"], ["hus", "band</w>"], ["a", "di"], ["pre", "par"], ["f", "la"], ["her", "self</w>"], ["m", "p</w>"], ["stan", "ding</w>"], ["coo", "k</w>"], ["man", "ag"], ["c", "ould've</w>"], ["sh", "u"], ["happ", "ens</w>"], ["u", "lt</w>"], ["b", "read</w>"], ["li", "br"], ["dri", "ving</w>"], ["co", "at</w>"], ["p", "or"], ["ner", "v"], ["cti", "ve</w>"], ["c", "ting</w>"], ["d", "ding</w>"], ["be", "ach</w>"], ["ge", "st</w>"], ["pr", "oud</w>"], ["guit", "ar</w>"], ["for", "tun"], ["tou", "ch</w>"], ["disapp", "o"], ["su", "n</w>"], ["on", "e's</w>"], ["ch", "en</w>"], ["all", "owed</w>"], ["p", "le"], ["lear", "ning</w>"], ["c", "ated</w>"], ["fr", "u"], ["ne", "cess"], ["ar", "ti"], ["inv", "ited</w>"], ["me", "ans</w>"], ["flo", "or</w>"], ["happ", "ening</w>"], ["fu", "ture</w>"], ["bla", "me</w>"], ["gar", "den</w>"], ["eu", "ro"], ["spe", "e"], ["en", "ded</w>"], ["si", "l"], ["in", "ten"], ["up", "set</w>"], ["uni", "ver"], ["sta", "irs</w>"], ["neigh", "bor"], ["j", "an"], ["pri", "son</w>"], ["ca", "tion</w>"], ["ger", "man</w>"], ["fi", "x</w>"], ["atu", "re</w>"], ["t", "wi"], ["s", "me"], ["do", "gs</w>"], ["bo", "y"], ["si", "st"], ["d", "ate</w>"], ["x", "i"], ["libr", "ary</w>"], ["base", "ball</w>"], ["gla", "ss</w>"], ["li", "es</w>"], ["ta", "ll</w>"], ["kit", "chen</w>"], ["li", "ty</w>"], ["g", "le</w>"], ["ti", "ci"], ["some", "where</w>"], ["vis", "ited</w>"], ["fun", "ny</w>"], ["pi", "e"], ["pas", "sed</w>"], ["a", "partment</w>"], ["p", "ted</w>"], ["drea", "m</w>"], ["wa", "ited</w>"], ["pas", "s</w>"], ["blu", "e</w>"], ["slee", "ping</w>"], ["k", "al"], ["im", "medi"], ["ic", "a</w>"], ["pra", "cti"], ["ma", "tion</w>"], ["ig", "nor"], ["ki", "ssed</w>"], ["g", "ni"], ["wha", "te"], ["whate", "ver</w>"], ["an", "g</w>"], ["cer", "tain"], ["trans", "la"], ["perfe", "ct</w>"], ["se", "ll</w>"], ["hel", "ping</w>"], ["bo", "ss</w>"], ["nerv", "ous</w>"], ["k", "ni"], ["wa", "sh</w>"], ["me", "at</w>"], ["doub", "t</w>"], ["ho", "ld</w>"], ["youn", "ger</w>"], ["foll", "ow</w>"], ["ci", "ous</w>"], ["on", "ed</w>"], ["pic", "tures</w>"], ["ei", "g"], ["can", "adi"], ["mu", "st"], ["pa", "st</w>"], ["per", "son"], ["es", "ca"], ["to", "ky"], ["toky", "o</w>"], ["m", "ents</w>"], ["ti", "s"], ["nei", "ther</w>"], ["der", "s</w>"], ["ha", "dn't</w>"], ["w", "ould've</w>"], ["ro", "ss</w>"], ["ex", "cu"], ["an", "ts</w>"], ["c", "ing</w>"], ["differ", "ence</w>"], ["di", "ction"], ["certain", "ly</w>"], ["reco", "gni"], ["cont", "ro"], ["m", "ou"], ["wi", "lling</w>"], ["to", "n</w>"], ["agre", "ed</w>"], ["de", "sk</w>"], ["sho", "pping</w>"], ["ta", "x"], ["for", "eig"], ["you", "rs</w>"], ["il", "s</w>"], ["re", "gre"], ["re", "turn</w>"], ["de", "fin"], ["k", "a"], ["hun", "dr"], ["hundr", "ed</w>"], ["wor", "th</w>"], ["wal", "king</w>"], ["k", "in"], ["medi", "c"], ["se", "ar"], ["amer", "ica</w>"], ["for", "ward</w>"], ["l", "ts</w>"], ["run", "ning</w>"], ["ac", "cu"], ["la", "u"], ["at", "er</w>"], ["sta", "ying</w>"], ["pic", "k</w>"], ["we", "l"], ["ca", "mer"], ["en", "ty</w>"], ["ma", "il</w>"], ["in", "j"], ["pa", "in"], ["la", "w</w>"], ["s", "ki"], ["co", "vered</w>"], ["b", "an"], ["terri", "ble</w>"], ["bi", "ll</w>"], ["s", "ity</w>"], ["pre", "si"], ["respon", "si"], ["hor", "se</w>"], ["lo", "cked</w>"], ["ob", "vi"], ["necess", "ary</w>"], ["win", "ter</w>"], ["infor", "mation</w>"], ["chin", "ese</w>"], ["un", "ited</w>"], ["re", "fused</w>"], ["re", "ci"], ["ac", "ross</w>"], ["a", "live</w>"], ["kal", "man</w>"], ["su", "f"], ["bo", "ys</w>"], ["of", "fer</w>"], ["vi", "e"], ["i", "mag"], ["immedi", "ately</w>"], ["ne", "ar"], ["fa", "ir</w>"], ["b", "as"], ["imp", "o"], ["tra", "f"], ["traf", "fic</w>"], ["mar", "ket</w>"], ["ani", "m"], ["boy", "friend</w>"], ["arri", "ve</w>"], ["pre", "fer</w>"], ["stu", "died</w>"], ["law", "yer</w>"], ["5", "</w>"], ["cer", "tain</w>"], ["ll", "ow</w>"], ["d", "ence</w>"], ["sa", "d</w>"], ["diction", "ary</w>"], ["p", "es</w>"], ["messa", "ge</w>"], ["ra", "ining</w>"], ["pri", "ce</w>"], ["p", "ort</w>"], ["ext", "reme"], ["extreme", "ly</w>"], ["vac", "ation</w>"], ["fi", "gu"], ["arre", "sted</w>"], ["s", "ounds</w>"], ["s", "qu"], ["st", "ri"], ["di", "o</w>"], ["k", "id</w>"], ["oun", "ded</w>"], ["ke", "e"], ["it", "ely</w>"], ["gh", "t"], ["list", "ening</w>"], ["concer", "t</w>"], ["ta", "l</w>"], ["medic", "ine</w>"], ["mb", "</w>"], ["o", "'"], ["o'", "clock</w>"], ["st", "ates</w>"], ["com", "for"], ["su", "d"], ["har", "dly</w>"], ["e", "ye</w>"], ["ke", "ts</w>"], ["for", "d</w>"], ["ho", "li"], ["new", "spa"], ["hea", "vy</w>"], ["d", "es</w>"], ["b", "ru"], ["defin", "itely</w>"], ["sh", "ar"], ["or", "ts</w>"], ["vo", "ice</w>"], ["surpri", "se</w>"], ["as", "king</w>"], ["s", "n"], ["li", "er</w>"], ["fi", "red</w>"], ["en", "ter"], ["goo", "d"], ["anim", "als</w>"], ["no", "ise</w>"], ["v", "al"], ["wa", "ll</w>"], ["cle", "an"], ["to", "p</w>"], ["ti", "cal</w>"], ["cu", "l"], ["e", "f"], ["z", "ing</w>"], ["h", "ood</w>"], ["sa", "ve</w>"], ["e", "mb"], ["su", "it"], ["no", "v"], ["ri", "de</w>"], ["noti", "ced</w>"], ["hi", "gh"], ["sle", "pt</w>"], ["mar", "ry</w>"], ["d", "'s</w>"], ["n", "or</w>"], ["st", "ru"], ["shu", "t</w>"], ["sin", "ging</w>"], ["ameri", "can</w>"], ["bi", "g"], ["trav", "el"], ["ear", "lier</w>"], ["ta", "ught</w>"], ["kni", "fe</w>"], ["fa", "ult</w>"], ["l", "er</w>"], ["see", "ing</w>"], ["to", "rs</w>"], ["go", "ver"], ["st", "y</w>"], ["di", "re"], ["sol", "ve</w>"], ["trav", "el</w>"], ["t", "ally</w>"], ["gra", "du"], ["se", "a</w>"], ["wha", "t"], ["camer", "a</w>"], ["smar", "t</w>"], ["sho", "p</w>"], ["b", "a</w>"], ["sa", "tis"], ["acce", "pt</w>"], ["e", "f</w>"], ["app", "le</w>"], ["popu", "lar</w>"], ["c", "tly</w>"], ["bl", "ood</w>"], ["ke", "ys</w>"], ["publi", "c</w>"], ["to", "ry</w>"], ["sto", "le</w>"], ["c", "l"], ["ru", "les</w>"], ["su", "per"], ["fa", "ll</w>"], ["ch", "ur"], ["l", "la"], ["pr", "in"], ["sk", "y</w>"], ["movi", "es</w>"], ["fer", "ed</w>"], ["cat", "s</w>"], ["corre", "ct</w>"], ["se", "at</w>"], ["ar", "e"], ["e", "sti"], ["spo", "ken</w>"], ["gre", "w</w>"], ["oc", "to"], ["a", "vo"], ["g", "ly</w>"], ["mi", "ssion</w>"], ["wat", "ched</w>"], ["b", "ly</w>"], ["chur", "ch</w>"], ["g", "ent</w>"], ["a", "ma"], ["dre", "ssed</w>"], ["li", "ar</w>"], ["stu", "ff</w>"], ["presi", "dent</w>"], ["v", "ol"], ["ru", "ssi"], ["de", "ta"], ["re", "li"], ["pro", "du"], ["jo", "in</w>"], ["twi", "ce</w>"], ["s", "ons</w>"], ["sc", "ri"], ["fi", "shing</w>"], ["figu", "re</w>"], ["advi", "sed</w>"], ["ex", "am</w>"], ["spee", "ch</w>"], ["ow", "n"], ["cr", "ow"], ["any", "where</w>"], ["we", "'d</w>"], ["wor", "se</w>"], ["on", "es</w>"], ["easi", "ly</w>"], ["e", "ment</w>"], ["enjo", "yed</w>"], ["un", "cle</w>"], ["inj", "ured</w>"], ["cre", "di"], ["x", "ed</w>"], ["cha", "ir</w>"], ["m", "er</w>"], ["s", "mil"], ["g", "'s</w>"], ["20", "1"], ["recei", "ved</w>"], ["beg", "in"], ["fi", "l"], ["app", "reci"], ["eat", "s</w>"], ["tato", "e"], ["an", "n"], ["per", "ha"], ["perha", "ps</w>"], ["ad", "dress</w>"], ["d", "on</w>"], ["re", "cen"], ["recen", "tly</w>"], ["consi", "der</w>"], ["air", "port</w>"], ["gi", "ft</w>"], ["ti", "e</w>"], ["canadi", "an</w>"], ["dri", "ver</w>"], ["all", "ow</w>"], ["i", "es</w>"], ["mil", "li"], ["experi", "ence</w>"], ["octo", "ber</w>"], ["comm", "on</w>"], ["prote", "ct</w>"], ["be", "at</w>"], ["gu", "il"], ["gr", "ou"], ["in", "e"], ["spe", "cial</w>"], ["na", "med</w>"], ["cou", "ra"], ["deci", "de</w>"], ["mp", "ed</w>"], ["wonder", "ful</w>"], ["lin", "da</w>"], ["convin", "ced</w>"], ["sto", "r"], ["su", "spect</w>"], ["en", "ted</w>"], ["qu", "a"], ["sur", "vi"], ["disappo", "inted</w>"], ["s", "and"], ["succe", "ss</w>"], ["sun", "day</w>"], ["f", "it</w>"], ["comp", "e"], ["u", "re</w>"], ["impo", "ssible</w>"], ["af", "ford</w>"], ["apologi", "ze</w>"], ["n", "ment</w>"], ["we", "dding</w>"], ["prepar", "ed</w>"], ["for", "m</w>"], ["pie", "ce</w>"], ["tatoe", "ba</w>"], ["st", "ro"], ["tri", "es</w>"], ["an", "ta"], ["smo", "ke</w>"], ["hon", "est</w>"], ["wa", "ste</w>"], ["contro", "l</w>"], ["excu", "se</w>"], ["app", "e"], ["reali", "zed</w>"], ["ho", "ping</w>"], ["won", "dered</w>"], ["e", "vi"], ["he", "y</w>"], ["l", "en</w>"], ["on", "d</w>"], ["at", "s</w>"], ["imp", "ro"], ["n", "one</w>"], ["ger", "many</w>"], ["usu", "al</w>"], ["ti", "cket</w>"], ["hi", "story</w>"], ["ti", "ll</w>"], ["convin", "ce</w>"], ["pic", "ked</w>"], ["tre", "es</w>"], ["vi", "r"], ["ge", "t"], ["k", "a</w>"], ["a", "mon"], ["ab", "road</w>"], ["g", "es</w>"], ["pho", "to"], ["eg", "gs</w>"], ["su", "a"], ["dr", "ank</w>"], ["na", "tive</w>"], ["lau", "gh</w>"], ["har", "der</w>"], ["care", "fully</w>"], ["po", "si"], ["in", "di"], ["sto", "len</w>"], ["str", "on"], ["l", "an"], ["pre", "ten"], ["b", "s</w>"], ["supp", "ort</w>"], ["laugh", "ed</w>"], ["cour", "se</w>"], ["dang", "er</w>"], ["c", "ars</w>"], ["he", "ld</w>"], ["in", "no"], ["pro", "fe"], ["gre", "e"], ["smi", "le</w>"], ["c", "ru"], ["ab", "solu"], ["dr", "u"], ["as", "su"], ["po", "ssi"], ["per", "sua"], ["aw", "are</w>"], ["c", "lear"], ["sin", "gle</w>"], ["th", "ous"], ["senten", "ces</w>"], ["car", "ry</w>"], ["r", "ent</w>"], ["vi", "sion</w>"], ["hu", "man</w>"], ["den", "ti"], ["who", "se</w>"], ["must", "'ve</w>"], ["pre", "s"], ["ma", "ch"], ["re", "turned</w>"], ["me", "mor"], ["impre", "ssed</w>"], ["d", "own"], ["tru", "ck</w>"], ["bor", "row</w>"], ["fa", "v"], ["mo", "m</w>"], ["ani", "sh</w>"], ["comp", "li"], ["u", "se"], ["exc", "ited</w>"], ["so", "ld</w>"], ["coo", "ki"], ["se", "ven</w>"], ["r", "or</w>"], ["univer", "sity</w>"], ["expe", "cting</w>"], ["foreig", "n</w>"], ["cu", "ri"], ["vi", "ol"], ["par", "is</w>"], ["di", "vor"], ["drin", "ks</w>"], ["p", "ea"], ["tic", "s</w>"], ["s", "er</w>"], ["pati", "ent</w>"], ["be", "t</w>"], ["le", "g"], ["un", "ity</w>"], ["jo", "ke</w>"], ["gi", "ving</w>"], ["mach", "ine</w>"], ["noti", "ce</w>"], ["i", "st</w>"], ["reali", "ze</w>"], ["mi", "ssing</w>"], ["e", "th</w>"], ["jack", "son</w>"], ["fi", "f"], ["da", "d</w>"], ["s", "ite</w>"], ["p", "en</w>"], ["emp", "ty</w>"], ["ra", "l</w>"], ["concer", "ned</w>"], ["pla", "yer</w>"], ["mid", "dle</w>"], ["sand", "wi"], ["fa", "iled</w>"], ["sugge", "st</w>"], ["moun", "tain</w>"], ["ad", "v"], ["pa", "ir</w>"], ["newspa", "per</w>"], ["ch", "ea"], ["regre", "t</w>"], ["f", "ur"], ["u", "sing</w>"], ["pla", "ys</w>"], ["c", "ool</w>"], ["sud", "den"], ["sudden", "ly</w>"], ["0", "00</w>"], ["foo", "t</w>"], ["belie", "ved</w>"], ["con", "ver"], ["f", "le"], ["sug", "ar</w>"], ["seri", "ously</w>"], ["je", "al"], ["discu", "ss</w>"], ["cu", "te</w>"], ["guil", "ty</w>"], ["comfor", "table</w>"], ["gen", "er"], ["vi", "lla"], ["sp", "ort</w>"], ["di", "es</w>"], ["heal", "thy</w>"], ["cla", "ss"], ["h", "ow"], ["buil", "t</w>"], ["grand", "father</w>"], ["slee", "py</w>"], ["ra", "dio</w>"], ["bo", "ttle</w>"], ["re", "s"], ["sha", "ll</w>"], ["wel", "come</w>"], ["d", "on"], ["bu", "l"], ["beg", "in</w>"], ["for", "give</w>"], ["sp", "anish</w>"], ["ea", "d</w>"], ["hi", "de</w>"], ["sh", "oo"], ["si", "mple</w>"], ["exce", "pt</w>"], ["l", "end</w>"], ["ab", "o"], ["gover", "nment</w>"], ["coo", "king</w>"], ["gre", "en</w>"], ["begin", "ning</w>"], ["st", "ea"], ["dro", "ve</w>"], ["mou", "th</w>"], ["al", "e</w>"], ["n", "a</w>"], ["lon", "don</w>"], ["mo", "on</w>"], ["gr", "ound</w>"], ["con", "fi"], ["1", "</w>"], ["f", "all"], ["mur", "der</w>"], ["ve", "lo"], ["le", "tt"], ["trans", "late</w>"], ["tele", "phone</w>"], ["is", "la"], ["si", "ght</w>"], ["wor", "e</w>"], ["be", "lon"], ["ide", "as</w>"], ["or", "g"], ["pu", "lled</w>"], ["mb", "ers</w>"], ["war", "m</w>"], ["satis", "fied</w>"], ["b", "le"], ["ch", "oo"], ["col", "or</w>"], ["ir", "ed</w>"], ["ta", "ins</w>"], ["ei", "ght</w>"], ["absolu", "tely</w>"], ["inst", "ead</w>"], ["di", "r"], ["con", "fused</w>"], ["\"", "i</w>"], ["cont", "act</w>"], ["be", "ha"], ["t", "ary</w>"], ["da", "y's</w>"], ["lo", "gy</w>"], ["i", "sed</w>"], ["re", "spect</w>"], ["i", "ll</w>"], ["che", "ss</w>"], ["'", "</w>"], ["app", "o"], ["ve", "get"], ["in", "te"], ["fac", "t</w>"], ["han", "ded</w>"], ["con", "di"], ["e", "sper"], ["esper", "an"], ["me", "ant</w>"], ["fi", "gh"], ["l", "ow</w>"], ["tax", "i</w>"], ["call", "ing</w>"], ["jeal", "ous</w>"], ["c", "ard</w>"], ["b", "al"], ["p", "lo"], ["sp", "ring</w>"], ["pre", "ssed</w>"], ["i", "m</w>"], ["pro", "po"], ["f", "ly</w>"], ["s", "la"], ["m", "ate</w>"], ["ow", "e</w>"], ["frien", "dly</w>"], ["are", "a</w>"], ["hi", "ding</w>"], ["sh", "or"], ["ma", "j"], ["lo", "ts</w>"], ["tele", "vision</w>"], ["po", "e"], ["sy", "ste"], ["emb", "ar"], ["sp", "orts</w>"], ["sol", "di"], ["bo", "ard</w>"], ["min", "i"], ["bo", "at</w>"], ["op", "er"], ["ha", "tes</w>"], ["pro", "ject</w>"], ["rea", "ched</w>"], ["sci", "ence</w>"], ["bi", "ke</w>"], ["our", "selves</w>"], ["k", "no"], ["b", "ack"], ["v", "ely</w>"], ["cti", "ons</w>"], ["bu", "t"], ["th", "i"], ["6", "</w>"], ["ow", "ly</w>"], ["sme", "ll</w>"], ["dro", "pped</w>"], ["an", "no"], ["c", "t"], ["att", "end</w>"], ["enter", "ed</w>"], ["laugh", "ing</w>"], ["bu", "ying</w>"], ["ca", "mp"], ["re", "ly</w>"], ["answ", "ered</w>"], ["bir", "ds</w>"], ["re", "cor"], ["cu", "sto"], ["k", "ers</w>"], ["sin", "ger</w>"], ["p", "uni"], ["y", "or"], ["cal", "m</w>"], ["o", "h</w>"], ["so", "c"], ["ab", "les</w>"], ["stor", "m</w>"], ["app", "les</w>"], ["sh", "y</w>"], ["responsi", "ble</w>"], ["hand", "le</w>"], ["ja", "il</w>"], ["sugge", "sted</w>"], ["soc", "cer</w>"], ["embar", "ra"], ["thre", "w</w>"], ["un", "happy</w>"], ["el", "s</w>"], ["sc", "rea"], ["ra", "ce</w>"], ["r", "ying</w>"], ["it", "ali"], ["cri", "me</w>"], ["yor", "k</w>"], ["int", "ro"], ["c", "s</w>"], ["te", "eth</w>"], ["fru", "it</w>"], ["su", "it</w>"], ["sig", "ned</w>"], ["euro", "pe</w>"], ["pi", "zz"], ["la", "ke</w>"], ["vi", "de"], ["mu", "sli"], ["exa", "min"], ["isla", "m</w>"], ["ev", "en"], ["spe", "ci"], ["ear", "th"], ["f", "at</w>"], ["wo", "ke</w>"], ["vie", "w</w>"], ["fa", "ster</w>"], ["fa", "ther's</w>"], ["coun", "tries</w>"], ["crea", "m</w>"], ["di", "shes</w>"], ["fr", "ance</w>"], ["c", "king</w>"], ["2", "</w>"], ["hu", "ge</w>"], ["de", "f"], ["ple", "ased</w>"], ["a", "head</w>"], ["ac", "cor"], ["fe", "et</w>"], ["pea", "ce</w>"], ["mo", "ving</w>"], ["ro", "b"], ["li", "ghts</w>"], ["esperan", "to</w>"], ["ar", "ds</w>"], ["inv", "ol"], ["or", "dered</w>"], ["on", "er</w>"], ["201", "3</w>"], ["foo", "tball</w>"], ["lo", "ck</w>"], ["so", "ci"], ["sel", "dom</w>"], ["lea", "ves</w>"], ["cho", "co"], ["char", "ge</w>"], ["f", "ar"], ["wal", "let</w>"], ["bi", "lity</w>"], ["grou", "p</w>"], ["d", "ating</w>"], ["sl", "owly</w>"], ["or", "ang"], ["re", "comm"], ["thin", "g's</w>"], ["l", "o</w>"], ["con", "tra"], ["han", "g</w>"], ["la", "tion</w>"], ["ele", "c"], ["bor", "ed</w>"], ["foll", "owed</w>"], ["u", "ne"], ["ac", "ked</w>"], ["sch", "edu"], ["bir", "d</w>"], ["le", "g</w>"], ["sh", "ower</w>"], ["dir", "ty</w>"], ["gi", "c</w>"], ["so", "oner</w>"], ["de", "st</w>"], ["of", "fered</w>"], ["ear", "ed</w>"], ["dra", "w"], ["choo", "se</w>"], ["grand", "mother</w>"], ["i", "ll"], ["fe", "ar</w>"], ["intro", "du"], ["e", "con"], ["econ", "o"], ["er", "ing</w>"], ["they", "'ll</w>"], ["fre", "e"], ["g", "as</w>"], ["feel", "ings</w>"], ["bo", "d"], ["li", "cen"], ["obvi", "ously</w>"], ["villa", "ge</w>"], ["gu", "e</w>"], ["adm", "it</w>"], ["can", "ce"], ["opp", "ort"], ["e", "-"], ["hi", "d</w>"], ["s", "m</w>"], ["g", "un"], ["en", "er"], ["esca", "pe</w>"], ["son", "gs</w>"], ["de", "b"], ["appreci", "ate</w>"], ["re", "fu"], ["nov", "el</w>"], ["tal", "ler</w>"], ["t", "ch</w>"], ["clu", "b</w>"], ["c", "ried</w>"], ["succe", "ss"], ["en", "ding</w>"], ["oo", "m</w>"], ["ba", "th"], ["bri", "dge</w>"], ["ali", "ty</w>"], ["wi", "se</w>"], ["spa", "ce</w>"], ["to", "n"], ["syste", "m</w>"], ["under", "stood</w>"], ["sa", "tur"], ["succe", "ed</w>"], ["chin", "a</w>"], ["o", "s</w>"], ["f", "an</w>"], ["int", "ment</w>"], ["bor", "ing</w>"], ["inno", "cent</w>"], ["ssi", "ve</w>"], ["a", "wake</w>"], ["8", "</w>"], ["ch", "ic"], ["solu", "tion</w>"], ["poli", "ce"], ["pain", "ting</w>"], ["th", "row</w>"], ["even", "tually</w>"], ["pas", "s"], ["b", "it"], ["te", "ars</w>"], ["tou", "gh</w>"], ["sci", "enti"], ["p", "ower</w>"], ["a", "tions</w>"], ["kee", "ps</w>"], ["rea", "ch</w>"], ["thir", "d</w>"], ["sou", "p</w>"], ["g", "row</w>"], ["pri", "v"], ["int", "end</w>"], ["val", "u"], ["the", "m"], ["lett", "ers</w>"], ["choco", "late</w>"], ["g", "ged</w>"], [":", "</w>"], ["her", "e's</w>"], ["pizz", "a</w>"], ["reli", "gi"], ["adm", "itted</w>"], ["bas", "ke"], ["baske", "tball</w>"], ["g", "g"], ["bo", "ther</w>"], ["f", "f"], ["u", "ses</w>"], ["k", "ar"], ["consi", "dered</w>"], ["supp", "ose</w>"], ["c", "ab"], ["p", "hi"], ["tic", "kets</w>"], ["suit", "case</w>"], ["ene", "my</w>"], ["accor", "ding</w>"], ["w", "oo"], ["continu", "e</w>"], ["cap", "ital</w>"], ["them", "selves</w>"], ["th", "o"], ["licen", "se</w>"], ["stan", "ds</w>"], ["we", "ir"], ["le", "s"], ["i", "di"], ["po", "st</w>"], ["y", "si"], ["b", "ye</w>"], ["ce", "le"], ["lon", "ely</w>"], ["be", "dr"], ["n", "ers</w>"], ["bro", "thers</w>"], ["inte", "lli"], ["wind", "ows</w>"], ["du", "e</w>"], ["resu", "lts</w>"], ["me", "an"], ["fil", "m</w>"], ["br", "own</w>"], ["acce", "pted</w>"], ["g", "ers</w>"], ["lu", "ck</w>"], ["avo", "id</w>"], ["to", "tally</w>"], ["ch", "an"], ["ad", "d</w>"], ["ri", "sk</w>"], ["pa", "int</w>"], ["de", "sper"], ["mu", "se"], ["du", "ty</w>"], ["de", "pen"], ["par", "ti"], ["at", "tra"], ["go", "lf</w>"], ["ba", "th</w>"], ["ex", "er"], ["pa", "inted</w>"], ["po", "se</w>"], ["practi", "ce</w>"], ["ho", "l"], ["mor", "</w>"], ["st", "ate</w>"], ["call", "s</w>"], ["vo", "te</w>"], ["4", "</w>"], ["star", "ting</w>"], ["ama", "zing</w>"], ["recogni", "ze</w>"], ["tal", "ks</w>"], ["me", "al</w>"], ["sear", "ch</w>"], ["sandwi", "ch</w>"], ["e", "ld</w>"], ["au", "th"], ["ga", "mes</w>"], ["preten", "ded</w>"], ["figh", "ting</w>"], ["sh", "are</w>"], ["we", "ars</w>"], ["mar", "s</w>"], ["to", "day's</w>"], ["hi", "red</w>"], ["su", "e</w>"], ["sh", "oul"], ["p", "ool</w>"], ["1", "0</w>"], ["ri", "ce</w>"], ["d", "ry</w>"], ["p", "an"], ["n", "ine</w>"], ["po", "cket</w>"], ["exer", "ci"], ["sl", "ow</w>"], ["ex", "pre"], ["b", "by</w>"], ["s", "an"], ["emp", "lo"], ["clear", "ly</w>"], ["so", "f"], ["b", "ar</w>"], ["e", "tt"], ["deser", "ve</w>"], ["pen", "ci"], ["cli", "mb"], ["de", "ep</w>"], ["list", "ened</w>"], ["mar", "i"], ["w", "ind</w>"], ["se", "as"], ["sub", "ject</w>"], ["for", "gotten</w>"], ["h", "y"], ["dro", "p</w>"], ["ho", "pes</w>"], ["fi", "lled</w>"], ["sa", "ved</w>"], ["smil", "ed</w>"], ["ta", "tion</w>"], ["gre", "at"], ["b", "ad"], ["si", "ons</w>"], ["priv", "ate</w>"], ["a", "un"], ["of", "f"], ["na", "mes</w>"], ["invol", "ved</w>"], ["we", "al"], ["beha", "vi"], ["sa", "l</w>"], ["da", "ma"], ["rela", "tion"], ["ca", "used</w>"], ["do", "cu"], ["milli", "on</w>"], ["o", "be"], ["ci", "r"], ["bod", "y's</w>"], ["ra", "ised</w>"], ["u", "</w>"], ["mi", "c</w>"], ["s", "'</w>"], ["ac", "count</w>"], ["ac", "ted</w>"], ["feel", "s</w>"], ["ty", "-"], ["big", "ger</w>"], ["re", "gi"], ["tw", "enty</w>"], ["ph", "ysi"], ["bar", "ely</w>"], ["expla", "ined</w>"], ["nor", "mal</w>"], ["or", "i"], ["be", "ar</w>"], ["wh", "en"], ["manag", "er</w>"], ["te", "x"], ["hor", "ri"], ["z", "o"], ["ab", "i"], ["go", "ld</w>"], ["thir", "teen</w>"], ["leg", "al</w>"], ["sal", "ary</w>"], ["elec", "tri"], ["kn", "ow"], ["fe", "ed</w>"], ["jan", "e</w>"], ["al", "ger"], ["org", "ani"], ["jack", "et</w>"], ["re", "que"], ["comple", "te</w>"], ["fortun", "ately</w>"], ["ty", "pe</w>"], ["ne", "t</w>"], ["ex", "plan"], ["u", "l"], ["ga", "z"], ["ar", "ms</w>"], ["att", "ack</w>"], ["il", "ing</w>"], ["stra", "ight</w>"], ["f", "y</w>"], ["accu", "sed</w>"], ["weir", "d</w>"], ["fa", "ir"], ["ri", "age</w>"], ["per", "s</w>"], ["thous", "and</w>"], ["success", "ful</w>"], ["bedr", "oom</w>"], ["dri", "ver"], ["st", "ep</w>"], ["al", "co"], ["gh", "ten"], ["in", "ci"], ["z", "en</w>"], ["continu", "ed</w>"], ["cla", "i"], ["in", "crea"], ["swe", "et</w>"], ["s", "na"], ["at", "e"], ["vide", "o</w>"], ["hel", "lo</w>"], ["na", "tional</w>"], ["la", "y</w>"], ["k", "o</w>"], ["f", "ool</w>"], ["en", "ces</w>"], ["k", "ic"], ["d", "ying</w>"], ["mat", "ch</w>"], ["la", "dy</w>"], ["de", "p"], ["fair", "ly</w>"], ["y", "en</w>"], ["c", "he</w>"], ["deli", "cious</w>"], ["ar", "r"], ["posi", "tion</w>"], ["earth", "qua"], ["er", "y</w>"], ["car", "ds</w>"], ["g", "n"], ["satur", "day</w>"], ["re", "pe"], ["ri", "d</w>"], ["m", "ood</w>"], ["neigh", "b"], ["inv", "esti"], ["de", "stro"], ["gen", "t"], ["ir", "re"], ["f", "light</w>"], ["holi", "day</w>"], ["v", "al</w>"], ["belie", "ves</w>"], ["a", "m"], ["deta", "ils</w>"], ["n", "on"], ["dan", "cing</w>"], ["good", "bye</w>"], ["can", "cer</w>"], ["gi", "ves</w>"], ["in", "ess</w>"], ["crow", "d</w>"], ["ci", "an</w>"], ["easi", "er</w>"], ["do", "ors</w>"], ["hea", "da"], ["ju", "mped</w>"], ["in", "y</w>"], ["exce", "ll"], ["enti", "re</w>"], ["teach", "ing</w>"], ["per", "mission</w>"], ["vol", "un"], ["sa", "tion</w>"], ["fre", "sh</w>"], ["abo", "ve</w>"], ["pro", "gra"], ["pri", "ces</w>"], ["russi", "an</w>"], ["ru", "de</w>"], ["he", "aring</w>"], ["den", "i"], ["manag", "ed</w>"], ["gu", "e"], ["police", "man</w>"], ["excell", "ent</w>"], ["ci", "ent</w>"], ["person", "al</w>"], ["or", "ity</w>"], ["le", "gs</w>"], ["sh", "el"], ["we", "t</w>"], ["le", "ss"], ["de", "scri"], ["y", "ard</w>"], ["amon", "g</w>"], ["rep", "ly</w>"], ["f", "li"], ["belon", "gs</w>"], ["jo", "kes</w>"], ["know", "le"], ["schedu", "le</w>"], ["ci", "de</w>"], ["ne", "y</w>"], ["g", "ate</w>"], ["\"", "no</w>"], ["fl", "ower</w>"], ["for", "est</w>"], ["vi", "ce</w>"], ["opport", "unity</w>"], ["pur", "pose</w>"], ["gu", "i"], ["ha", "ted</w>"], ["imag", "ine</w>"], ["n", "atu"], ["ef", "for"], ["a", "do"], ["war", "n</w>"], ["explan", "ation</w>"], ["near", "ly</w>"], ["pl", "enty</w>"], ["ab", "bed</w>"], ["difficu", "l"], ["any", "way</w>"], ["is", "land</w>"], ["ani", "mal</w>"], ["mar", "riage</w>"], ["ab", "sent</w>"], ["an", "xi"], ["wor", "st</w>"], ["ma", "gaz"], ["can", "s</w>"], ["ni", "c</w>"], ["se", "a"], ["sc", "re"], ["sa", "fe"], ["rema", "ined</w>"], ["war", "ned</w>"], ["sti", "ck</w>"], ["ma", "p</w>"], ["ex", "ha"], ["wa", "shed</w>"], ["appo", "intment</w>"], ["de", "ter"], ["ky", "o"], ["ab", "and"], ["ra", "ise</w>"], ["he", "ar"], ["cooki", "es</w>"], ["sist", "ers</w>"], ["p", "tion</w>"], ["li", "m"], ["te", "xt</w>"], ["for", "ced</w>"], ["fi", "xed</w>"], ["b", "ag"], ["hand", "some</w>"], ["au", "di"], ["fav", "or</w>"], ["plan", "ned</w>"], ["chea", "p</w>"], ["la", "tely</w>"], ["t", "-"], ["no", "se</w>"], ["per", "m"], ["as", "sist"], ["soldi", "ers</w>"], ["ob", "je"], ["kyo", "to</w>"], ["neighbor", "hood</w>"], ["w", "ood</w>"], ["eg", "y"], ["bur", "ned</w>"], ["s", "m"], ["for", "ever</w>"], ["su", "spi"], ["resu", "lt</w>"], ["al", "ing</w>"], ["s", "is</w>"], ["a", "th"], ["veget", "ables</w>"], ["natu", "ral</w>"], ["y", "o"], ["mo", "tor"], ["wa", "shing</w>"], ["rema", "in</w>"], ["di", "sh</w>"], ["coura", "ge</w>"], ["si", "x"], ["pa", "ying</w>"], ["stu", "ck</w>"], ["ow", "ned</w>"], ["volun", "te"], ["use", "ful</w>"], ["k", "y</w>"], ["bor", "r"], ["ki", "lo"], ["r", "ar"], ["ti", "mi"], ["deni", "ed</w>"], ["th", "ou"], ["sal", "t</w>"], ["si", "mil"], ["wea", "p"], ["relation", "ship</w>"], ["che", "cked</w>"], ["la", "zy</w>"], ["g", "ree</w>"], ["inst", "ru"], ["l", "ou"], ["pro", "ve</w>"], ["fami", "liar</w>"], ["thre", "at"], ["j", "our"], ["inv", "ite</w>"], ["pre", "di"], ["ar", "my</w>"], ["intere", "st</w>"], ["ru", "le</w>"], ["bl", "ind</w>"], ["a", "tor</w>"], ["cro", "ss</w>"], ["consi", "der"], ["c", "ycle</w>"], ["con", "su"], ["or", "ig"], ["ti", "v"], ["n", "e</w>"], ["tre", "ated</w>"], ["e", "ar</w>"], ["bra", "z"], ["teach", "ers</w>"], ["ir", "o</w>"], ["s", "ang</w>"], ["neighbor", "s</w>"], ["ro", "ck</w>"], ["be", "long</w>"], ["me", "ters</w>"], ["intelli", "gent</w>"], ["ti", "re</w>"], ["car", "ried</w>"], ["lo", "sing</w>"], ["muse", "um</w>"], ["che", "ese</w>"], ["ad", "di"], ["spea", "ker</w>"], ["s", "wa"], ["exha", "u"], ["puni", "shed</w>"], ["man", "'s</w>"], ["fri", "day</w>"], ["sy", "mp"], ["o", "il</w>"], ["what", "'ll</w>"], [";", "</w>"], ["super", "market</w>"], ["quic", "k</w>"], ["bu", "i"], ["bui", "ld</w>"], ["un", "likely</w>"], ["wor", "l"], ["f", "arm</w>"], ["eng", "land</w>"], ["desper", "ate</w>"], ["su", "i"], ["t", "an"], ["pas", "sport</w>"], ["re", "tired</w>"], ["foll", "owing</w>"], ["ta", "ste</w>"], ["ra", "ins</w>"], ["me", "ss</w>"], ["mid", "night</w>"], ["par", "ked</w>"], ["ro", "of</w>"], ["e", "ts</w>"], ["bad", "ly</w>"], ["con", "fe"], ["p", "un"], ["cele", "br"], ["r", "en"], ["de", "velo"], ["contra", "ct</w>"], ["me", "mber</w>"], ["oc", "cur"], ["for", "e"], ["joh", "n"], ["po", "st"], ["eng", "ag"], ["persua", "de</w>"], ["hor", "ses</w>"], ["mi", "r"], ["ac", "ting</w>"], ["bath", "room</w>"], ["compe", "ti"], ["ho", "ped</w>"], ["when", "ever</w>"], ["a", "chi"], ["to", "o"], ["i", "an</w>"], ["compla", "in</w>"], ["aun", "t</w>"], ["rea", "son"], ["rar", "ely</w>"], ["te", "lls</w>"], ["memor", "y</w>"], ["e", "mail</w>"], ["af", "fe"], ["sugge", "sti"], ["o", "ce"], ["wi", "shed</w>"], ["7", "</w>"], ["chic", "ken</w>"], ["a", "st</w>"], ["ser", "ved</w>"], ["lo", "cal</w>"], ["har", "v"], ["ill", "ness</w>"], ["or", "din"], ["happ", "iness</w>"], ["behavi", "or</w>"], ["up", "stairs</w>"], ["ser", "ve</w>"], ["drea", "ms</w>"], ["c", "a</w>"], ["parti", "cu"], ["idi", "ot</w>"], ["every", "where</w>"], ["mi", "les</w>"], ["a", "va"], ["wri", "ter</w>"], ["ssi", "on"], ["h", "ang"], ["heada", "che</w>"], ["pre", "gn"], ["en", "ter</w>"], ["man", "s</w>"], ["gar", "age</w>"], ["examin", "ation</w>"], ["assu", "me</w>"], ["gra", "ph"], ["te", "en"], ["co", "ver</w>"], ["ex", "plo"], ["gre", "ss</w>"], ["mo", "ther's</w>"], ["we", "b"], ["simil", "ar</w>"], ["ar", "ab"], ["lo", "a"], ["they", "'ve</w>"], ["pic", "nic</w>"], ["pho", "to</w>"], ["sol", "ved</w>"], ["t", "ent</w>"], ["ye", "ar"], ["ca", "sh</w>"], ["re", "spe"], ["but", "ton</w>"], ["propo", "sal</w>"], ["sui", "cide</w>"], ["sto", "ma"], ["horri", "ble</w>"], ["st", "ars</w>"], ["zo", "o</w>"], ["go", "al</w>"], ["fa", "i"], ["itali", "an</w>"], ["sp", "ends</w>"], ["popu", "lation</w>"], ["musli", "m</w>"], ["exerci", "se</w>"], ["un", "fortunately</w>"], ["e", "ty</w>"], ["fi", "eld</w>"], ["penci", "l</w>"], ["ad", "a</w>"], ["fi", "g"], ["po", "i"], ["j", "im</w>"], ["ener", "gy</w>"], ["y", "le</w>"], ["sil", "ent</w>"], ["sp", "ite</w>"], ["arti", "st</w>"], ["temp", "er"], ["st", "le</w>"], ["tur", "key</w>"], ["chang", "es</w>"], ["res", "cu"], ["inter", "net</w>"], ["pro", "per"], ["e", "qu"], ["dis", "covered</w>"], ["ava", "i"], ["avai", "la"], ["it", "ting</w>"], ["travel", "ing</w>"], ["a", "i"], ["swe", "ater</w>"], ["that", "'ll</w>"], ["compla", "ining</w>"], ["earthqua", "ke</w>"], ["in", "k</w>"], ["fa", "il"], ["lar", "gest</w>"], ["embarra", "ssed</w>"], ["ma", "th</w>"], ["sto", "ries</w>"], ["in", "su"], ["ce", "ss</w>"], ["ber", "t</w>"], ["with", "in</w>"], ["class", "room</w>"], ["un", "able</w>"], ["vi", "si"], ["sho", "cked</w>"], ["app", "ar"], ["o", "sa"], ["the", "or"], ["si", "mp"], ["li", "fe"], ["possi", "bly</w>"], ["b", "att"], ["perfe", "ctly</w>"], ["ye", "llow</w>"], ["ghten", "ed</w>"], ["in", "ts</w>"], ["n", "ur"], ["la", "ted</w>"], ["a", "fri"], ["it", "al"], ["cor", "ner</w>"], ["a", "mb"], ["pro", "vi"], ["e", "ffe"], ["availa", "ble</w>"], ["mean", "ing</w>"], ["che", "e"], ["g", "ging</w>"], ["hel", "p"], ["fac", "tory</w>"], ["tici", "p"], ["b", "lo"], ["credi", "t</w>"], ["brea", "th</w>"], ["d", "-"], ["rela", "x</w>"], ["f", "-"], ["r", "ang</w>"], ["le", "v"], ["li", "t</w>"], ["wea", "k</w>"], ["ag", "er</w>"], ["sp", "ending</w>"], ["st", "ar</w>"], ["gh", "tly</w>"], ["wor", "kers</w>"], ["a", "moun"], ["pre", "t"], ["kin", "ds</w>"], ["p", "age</w>"], ["ali", "ce</w>"], ["esca", "ped</w>"], ["gradu", "ated</w>"], ["ou", "red</w>"], ["hi", "re</w>"], ["ski", "ing</w>"], ["driver", "'s</w>"], ["conver", "sation</w>"], ["c", "ally</w>"], ["alger", "ia</w>"], ["clean", "ing</w>"], ["recomm", "end</w>"], ["ton", "gue</w>"], ["bo", "b</w>"], ["li", "ft</w>"], ["an", "ti"], ["dist", "ance</w>"], ["in", "ation</w>"], ["orang", "e</w>"], ["recogni", "zed</w>"], ["te", "ch"], ["f", "ol"], ["ab", "ri"], ["re", "min"], ["l", "oud</w>"], ["fail", "ure</w>"], ["he", "sit"], ["de", "pressed</w>"], ["exhau", "sted</w>"], ["mu", "m</w>"], ["tu", "al</w>"], ["can", "ada</w>"], ["ac", "tion</w>"], ["u", "gly</w>"], ["clean", "ed</w>"], ["pri", "ze</w>"], ["fac", "e"], ["fl", "ying</w>"], ["ital", "y</w>"], ["gh", "o"], ["in", "si"], ["thir", "sty</w>"], ["mo", "der"], ["j", "un"], ["e", "st"], ["k", "ne"], ["anxi", "ous</w>"], ["mi", "es</w>"], ["con", "ne"], ["compli", "cated</w>"], ["star", "ing</w>"], ["se", "par"], ["borr", "owed</w>"], ["s", "co"], ["tru", "sted</w>"], ["exa", "mple</w>"], ["jo", "bs</w>"], ["star", "ed</w>"], ["li", "ter"], ["fac", "ts</w>"], ["fi", "re"], ["ju", "ice</w>"], ["t", "ar"], ["at", "ter"], ["all", "er"], ["bo", "ther"], ["fin", "ding</w>"], ["b", "right</w>"], ["sc", "en"], ["arti", "cle</w>"], ["m", "ers</w>"], ["cou", "ch</w>"], ["no", "i"], ["ll", "er</w>"], ["op", "timi"], ["ci", "gar"], ["cigar", "ett"], ["he", "at</w>"], ["tri", "bu"], ["vi", "cti"], ["bir", "th</w>"], ["the", "ater</w>"], ["obvi", "ous</w>"], ["conv", "en"], ["fig", "ured</w>"], ["f", "ence</w>"], ["inter", "ru"], ["le", "st</w>"], ["recor", "d</w>"], ["ele", "cted</w>"], ["divor", "ce</w>"], ["face", "book</w>"], ["fl", "at</w>"], ["ene", "mies</w>"], ["ra", "ined</w>"], ["d", "den</w>"], ["gue", "sts</w>"], ["di", "et</w>"], ["plan", "et</w>"], ["si", "ze</w>"], ["f", "ers</w>"], ["reason", "able</w>"], ["edu", "cation</w>"], ["sou", "th</w>"], ["up", "on</w>"], ["wi", "t"], ["l", "er"], ["ser", "v"], ["dist", "ur"], ["e", "mer"], ["s", "in</w>"], ["ad", "mi"], ["fa", "il</w>"], ["2", "0</w>"], ["ameri", "cans</w>"], ["appar", "ently</w>"], ["de", "e"], ["c", "ow"], ["ex", "ist</w>"], ["n", "ature</w>"], ["en", "vir"], ["envir", "on"], ["answ", "ers</w>"], ["curi", "ous</w>"], ["fer", "ence</w>"], ["no", "te"], ["how", "'s</w>"], ["ma", "in</w>"], ["re", "gu"], ["knowle", "dge</w>"], ["tou", "ri"], ["mir", "ror</w>"], ["woo", "ds</w>"], ["tion", "ed</w>"], ["pu", "shed</w>"], ["chil", "d"], ["in", "credi"], ["re", "si"], ["some", "day</w>"], ["atten", "ded</w>"], ["ple", "as"], ["p", "ack"], ["happ", "i"], ["ro", "bert</w>"], ["dri", "ves</w>"], ["con", "sci"], ["f", "ed</w>"], ["wa", "ter"], ["fi", "ll</w>"], ["oce", "an</w>"], ["or", "ted</w>"], ["fa", "shi"], ["adv", "anta"], ["ser", "vice</w>"], ["re", "qui"], ["divor", "ced</w>"], ["vo", "ted</w>"], ["les", "son</w>"], ["ag", "u"], ["pr", "on"], ["ang", "er</w>"], ["poli", "tics</w>"], ["no", "te</w>"], ["men", "tion</w>"], ["le", "ased</w>"], ["stu", "dies</w>"], ["my", "ster"], ["p", "et</w>"], ["s", "ort</w>"], ["fortun", "e</w>"], ["for", "ce</w>"], ["frien", "d"], ["sil", "ence</w>"], ["comm", "itted</w>"], ["en", "ced</w>"], ["ju", "dge</w>"], ["cla", "sses</w>"], ["alco", "ho"], ["alcoho", "l</w>"], ["ti", "sh</w>"], ["re", "pa"], ["che", "st</w>"], ["fr", "an"], ["op", "tions</w>"], ["char", "ac"], ["stoma", "ch</w>"], ["p", "sy"], ["maj", "or</w>"], ["profe", "ss"], ["abi", "lity</w>"], ["g", "y"], ["un", "less</w>"], ["p", "it"], ["bra", "ve</w>"], ["discu", "ssed</w>"], ["in", "es</w>"], ["mat", "es</w>"], ["j", "ack</w>"], ["be", "tra"], ["hun", "g</w>"], ["la", "p"], ["we", "i"], ["c", "ture</w>"], ["motor", "cycle</w>"], ["ignor", "ed</w>"], ["gu", "ard</w>"], ["per", "for"], ["he", "ll</w>"], ["be", "ll</w>"], ["d", "are</w>"], ["cl", "ou"], ["y", "ers</w>"], ["pri", "son"], ["p", "oured</w>"], ["kar", "l</w>"], ["pla", "ces</w>"], ["run", "s</w>"], ["bi", "o"], ["-", "</w>"], ["par", "king</w>"], ["so", "cial</w>"], ["o", "d"], ["exper", "t</w>"], ["mo", "de"], ["re", "lu"], ["relu", "ct"], ["j", "er"], ["bru", "sh</w>"], ["at", "temp"], ["shoul", "der</w>"], ["nor", "th</w>"], ["9", "</w>"], ["qui", "e"], ["profe", "ssion"], ["de", "te"], ["pl", "u"], ["a", "ti"], ["tur", "ning</w>"], ["survi", "ve</w>"], ["fur", "ther</w>"], ["er", "t</w>"], ["car", "rying</w>"], ["pregn", "ant</w>"], ["c", "y"], ["bl", "an"], ["boo", "k"], ["sal", "e</w>"], ["ber", "to</w>"], ["harv", "ard</w>"], ["y", "ann"], ["yann", "i</w>"], ["c", "tor</w>"], ["egy", "pt</w>"], ["l", "or"], ["cri", "min"], ["evi", "dence</w>"], ["r", "ab"], ["l", "'s</w>"], ["thi", "ef</w>"], ["ro", "pe</w>"], ["pro", "gress</w>"], ["transla", "ted</w>"], ["big", "gest</w>"], ["e", "ded</w>"], ["hol", "ding</w>"], ["beau", "ty</w>"], ["to", "es</w>"], ["st", "yle</w>"], ["co", "sts</w>"], ["moun", "tains</w>"], ["coo", "ked</w>"], ["gr", "ate"], ["tal", "ented</w>"], ["argu", "ing</w>"], ["eng", "ine"], ["g", "loves</w>"], ["mista", "ken</w>"], ["lea", "der</w>"], ["dre", "w</w>"], ["poli", "te</w>"], ["squ", "irre"], ["hou", "ses</w>"], ["ti", "ous</w>"], ["web", "site</w>"], ["cli", "mb</w>"], ["ha", "bit</w>"], ["cha", "ll"], ["temper", "ature</w>"], ["lea", "d</w>"], ["pati", "ence</w>"], ["ce", "ll"], ["batt", "le</w>"], ["ge", "or"], ["suspi", "cious</w>"], ["lo", "vely</w>"], ["mi", "li"], ["grate", "ful</w>"], ["plea", "sure</w>"], ["pre", "p"], ["de", "si"], ["occur", "red</w>"], ["p", "ow"], ["aband", "oned</w>"], ["fi", "le</w>"], ["pu", "zz"], ["compu", "ters</w>"], ["euro", "pe"], ["so", "cks</w>"], ["g", "abri"], ["gabri", "el</w>"], ["mi", "ke</w>"], ["magaz", "ine</w>"], ["argu", "ment</w>"], ["smar", "ter</w>"], ["deter", "min"], ["hu", "g</w>"], ["ordin", "ary</w>"], ["confi", "dent</w>"], ["reque", "st</w>"], ["e", "mi"], ["exc", "iting</w>"], ["b", "re"], ["ver", "s</w>"], ["f", "anta"], ["orig", "in"], ["st", "age</w>"], ["arr", "ang"], ["t", "a</w>"], ["refu", "se</w>"], ["me", "l"], ["ignor", "e</w>"], ["er", "i"], ["ma", "the"], ["mathe", "ma"], ["ch", "ose</w>"], ["pa", "u"], ["ki", "d"], ["arab", "ic</w>"], ["tur", "ed</w>"], ["pres", "sure</w>"], ["en", "t"], ["prep", "are</w>"], ["fer", "ing</w>"], ["v", "ari"], ["ca", "iro</w>"], ["cu", "re</w>"], ["hel", "ps</w>"], ["e", "mo"], ["ti", "ves</w>"], ["ci", "ti"], ["fin", "ger</w>"], ["smi", "th</w>"], ["1", "00</w>"], ["fri", "ghtened</w>"], ["gen", "cy</w>"], ["oun", "ced</w>"], ["n", "it"], ["stron", "ger</w>"], ["spe", "ed</w>"], ["cro", "ssed</w>"], ["under", "stands</w>"], ["p", "ly</w>"], ["e", "ars</w>"], ["r", "an"], ["pack", "age</w>"], ["or", "ed</w>"], ["ou", "rs</w>"], ["c", "ate</w>"], ["b", "ite</w>"], ["medi", "cal</w>"], ["be", "coming</w>"], ["pass", "eng"], ["ri", "s"], ["al", "berto</w>"], ["is", "sue</w>"], ["ur", "y</w>"], ["clo", "ser</w>"], ["al", "a"], ["achi", "e"], ["ado", "pted</w>"], ["la", "un"], ["conven", "i"], ["some", "time</w>"], ["m", "ale</w>"], ["ka", "y</w>"], ["doc", "tors</w>"], ["climb", "ed</w>"], ["star", "ts</w>"], ["shoo", "t</w>"], ["oc", "cu"], ["ele", "va"], ["chi", "ca"], ["chica", "go</w>"], ["or", "e</w>"], ["engag", "ed</w>"], ["ex", "i"], ["argu", "e</w>"], ["con", "cen"], ["mar", "ia</w>"], ["ro", "man"], ["de", "fe"], ["to", "ler"], ["ti", "ed</w>"], ["seas", "on</w>"], ["ban", "an"], ["hi", "ll</w>"], ["b", "its</w>"], ["con", "tribu"], ["qu", "ar"], ["child", "hood</w>"], ["de", "man"], ["coo", "per"], ["theor", "y</w>"], ["nur", "se</w>"], ["ju", "d"], ["it", "ation</w>"], ["ni", "fi"], ["moder", "n</w>"], ["ci", "ties</w>"], ["audi", "ence</w>"], ["to", "ma"], ["kic", "ked</w>"], ["gr", "owing</w>"], ["h", "i</w>"], ["reme", "mb"], ["sel", "f-"], ["musi", "cian</w>"], ["introdu", "ce</w>"], ["5", "0</w>"], ["r", "in"], ["help", "ful</w>"], ["wri", "tes</w>"], ["m", "n</w>"], ["ha", "med</w>"], ["hea", "ded</w>"], ["st", "ry</w>"], ["gent", "le"], ["att", "acked</w>"], ["n", "ar"], ["condi", "tion</w>"], ["rema", "ins</w>"], ["il", "legal</w>"], ["sk", "in</w>"], ["impro", "ve</w>"], ["pro", "of</w>"], ["be", "ard</w>"], ["rea", "sons</w>"], ["j", "i</w>"], ["er", "'s</w>"], ["ne", "ck</w>"], ["shar", "p</w>"], ["ba", "ked</w>"], ["ble", "w</w>"], ["mp", "s</w>"], ["her", "o</w>"], ["c", "les</w>"], ["wa", "it"], ["b", "ench</w>"], ["un", "usual</w>"], ["braz", "il</w>"], ["po", "tato"], ["potato", "es</w>"], ["per", "cent</w>"], ["di", "sea"], ["disea", "se</w>"], ["obe", "y</w>"], ["jan", "os</w>"], ["afri", "ca</w>"], ["ac", "cent</w>"], ["m", "t</w>"], ["econo", "my</w>"], ["o", "kay</w>"], ["as", "hamed</w>"], ["smil", "ing</w>"], ["dama", "ge</w>"], ["qu", "ired</w>"], [":", "00</w>"], ["apologi", "zed</w>"], ["great", "est</w>"], ["te", "e</w>"], ["roo", "ms</w>"], ["transla", "tion</w>"], ["destro", "yed</w>"], ["supp", "er</w>"], ["ow", "ns</w>"], ["poe", "m</w>"], ["qu", "e</w>"], ["amoun", "t</w>"], ["bu", "tter</w>"], ["\"", "yes</w>"], ["pre", "v"], ["men", "tal</w>"], ["shel", "f</w>"], ["di", "sp"], ["safe", "ty</w>"], ["hur", "ts</w>"], ["cen", "ter</w>"], ["ho", "le</w>"], ["profess", "or</w>"], ["amb", "i"], ["ro", "g"], ["enjo", "ying</w>"], ["advanta", "ge</w>"], ["a", "part</w>"], ["ac", "tive</w>"], ["dra", "w</w>"], ["k", "o"], ["a", "mu"], ["pre", "ven"], ["to", "i"], ["sal", "ad</w>"], ["an", "cy</w>"], ["ne", "l</w>"], ["cle", "ver</w>"], ["mat", "ters</w>"], ["se", "ly</w>"], ["aw", "ful</w>"], ["ha", "ll</w>"], ["attra", "ctive</w>"], ["sen", "si"], ["p", "ack</w>"], ["tur", "ki"], ["turki", "sh</w>"], ["co", "py</w>"], ["gi", "f"], ["bri", "tish</w>"], ["al", "ed</w>"], ["tow", "ard</w>"], ["lo", "ss</w>"], ["base", "ment</w>"], ["stan", "tly</w>"], ["photo", "s</w>"], ["ca", "stle</w>"], ["clo", "set</w>"], ["gra", "ss</w>"], ["profession", "al</w>"], ["man", "age</w>"], ["cri", "tici"], ["pleas", "ant</w>"], ["weal", "thy</w>"], ["g", "on"], ["simp", "ly</w>"], ["eng", "ine</w>"], ["optimi", "stic</w>"], ["threat", "ened</w>"], ["down", "stairs</w>"], ["ser", "va"], ["fin", "gers</w>"], ["ti", "tu"], ["ro", "me</w>"], ["compla", "ined</w>"], ["dis", "gu"], ["con", "ference</w>"], ["high", "ly</w>"], ["p", "ac"], ["na", "ked</w>"], ["f", "ra"], ["every", "one's</w>"], ["cap", "tain</w>"], ["app", "eared</w>"], ["poli", "tici"], ["vis", "iting</w>"], ["ho", "pe"], ["tre", "at"], ["pur", "se</w>"], ["lo", "cated</w>"], ["crow", "ded</w>"], ["cha", "mp"], ["che", "mi"], ["s", "our"], ["bo", "x"], ["fall", "ing</w>"], ["s", "ke"], ["sur", "ger"], ["difficul", "ty</w>"], ["er", "al</w>"], ["sha", "pe</w>"], ["determin", "ed</w>"], ["w", "s</w>"], ["tur", "ns</w>"], ["wi", "de</w>"], ["lar", "ly</w>"], ["er", "ful</w>"], ["wal", "ks</w>"], ["hang", "ing</w>"], ["appe", "ars</w>"], ["john", "'s</w>"], ["win", "ning</w>"], ["fe", "ver</w>"], ["-", "looking</w>"], ["cli", "mate</w>"], ["ca", "ses</w>"], ["religi", "on</w>"], ["uni", "on</w>"], ["sk", "ir"], ["eng", "th</w>"], ["travel", "ed</w>"], ["neighb", "or</w>"], ["emer", "gency</w>"], ["mi", "sun"], ["misun", "der"], ["u", "tion</w>"], ["cou", "sin</w>"], ["b", "il"], ["jo", "king</w>"], ["anno", "yed</w>"], ["fre", "qu"], ["re", "mind</w>"], ["hea", "vi"], ["sp", "read</w>"], ["disapp", "eared</w>"], ["en", "coura"], ["secre", "ts</w>"], ["bu", "ried</w>"], ["ri", "ous</w>"], ["c", "lar"], ["in", "flu"], ["nu", "ts</w>"], ["t", "in</w>"], ["camp", "ing</w>"], ["sto", "ne</w>"], ["stu", "b"], ["na", "tion</w>"], ["in", "depen"], ["wonder", "ing</w>"], ["poli", "tical</w>"], ["foo", "lish</w>"], ["opp", "o"], ["sou", "l</w>"], ["sof", "a</w>"], ["%", "</w>"], ["ele", "ction</w>"], ["aller", "gic</w>"], ["deser", "ves</w>"], ["quie", "tly</w>"], ["ab", "</w>"], ["w", "ol"], ["surger", "y</w>"], ["ro", "se</w>"], ["se", "x"], ["ar", "ed</w>"], ["your", "selves</w>"], ["t", "ro"], ["nov", "els</w>"], ["denti", "st</w>"], ["in", "du"], ["ga", "tion</w>"], ["in", "g"], ["pi", "e</w>"], ["ou", "gh"], ["twe", "l"], ["twel", "ve</w>"], ["scen", "e</w>"], ["b", "ac"], ["teach", "es</w>"], ["progra", "m</w>"], ["rela", "ted</w>"], ["li", "on</w>"], ["cul", "ous</w>"], ["osa", "ka</w>"], ["friend", "ship</w>"], ["evi", "l</w>"], ["fin", "an"], ["less", "ons</w>"], ["experi", "enced</w>"], ["enjo", "ys</w>"], ["ei", "gh"], ["su", "spe"], ["p", "ants</w>"], ["an", "ed</w>"], ["i", "denti"], ["what", "'re</w>"], ["sur", "r"], ["she", "'ll</w>"], ["co", "ach</w>"], ["st", "es</w>"], ["di", "vi"], ["toi", "let</w>"], ["al", "though</w>"], ["re", "search</w>"], ["stea", "l</w>"], ["sin", "s</w>"], ["bag", "s</w>"], ["cul", "ture</w>"], ["it", "e"], ["russi", "a</w>"], ["titu", "de</w>"], ["logi", "cal</w>"], ["enti", "rely</w>"], ["n", "al</w>"], ["jo", "ined</w>"], ["ri", "di"], ["re", "lie"], ["w", "ing</w>"], ["offi", "cer</w>"], ["in", "clu"], ["impre", "ss</w>"], ["sch", "oo"], ["kno", "cked</w>"], ["re", "fri"], ["refri", "ger"], ["plan", "ts</w>"], ["can", "dy</w>"], ["stub", "born</w>"], ["avo", "i"], ["concen", "tr"], ["mur", "dered</w>"], ["z", "er"], ["ha", "ll"], ["u", "lts</w>"], ["free", "dom</w>"], ["tr", "an"], ["ga", "in</w>"], ["fif", "ty</w>"], ["s", "day</w>"], ["cla", "ssi"], ["be", "at"], ["worl", "d's</w>"], ["to", "we"], ["fur", "nit"], ["furnit", "ure</w>"], ["assist", "ant</w>"], ["comm", "it"], ["di", "amon"], ["ci", "vi"], ["ki", "ssing</w>"], ["tre", "ss</w>"], ["gy", "m</w>"], ["de", "mo"], ["expre", "ss</w>"], ["sme", "lls</w>"], ["ste", "fan</w>"], ["soci", "ety</w>"], ["pu", "tting</w>"], ["eg", "g</w>"], ["eleva", "tor</w>"], ["pro", "mo"], ["kid", "na"], ["r", "ound</w>"], ["de", "partment</w>"], ["prev", "ent</w>"], ["emplo", "ye"], ["refriger", "ator</w>"], ["t", "le</w>"], ["rea", "ds</w>"], ["cir", "cu"], ["succe", "eded</w>"], ["inten", "tion</w>"], ["wi", "ld</w>"], ["ca", "st</w>"], ["ha", "m"], ["t", "ted</w>"], ["e", "ss"], ["sn", "ow"], ["confi", "dence</w>"], ["ber", "ber</w>"], ["b", "ow"], ["gr", "abbed</w>"], ["la", "id</w>"], ["bu", "d"], ["ur", "gent</w>"], ["me", "mbers</w>"], ["st", "at"], ["th", "ic"], ["inv", "itation</w>"], ["no", "where</w>"], ["re", "gar"], ["fall", "en</w>"], ["-", "time</w>"], ["g", "ri"], ["ro", "ses</w>"], ["th", "in</w>"], ["un", "comfortable</w>"], ["d", "ents</w>"], ["cur", "r"], ["note", "book</w>"], ["li", "ties</w>"], ["con", "stru"], ["wa", "sting</w>"], ["da", "l</w>"], ["fir", "m</w>"], ["tt", "er"], ["br", "an"], ["viol", "ence</w>"], ["responsi", "bility</w>"], ["cla", "u"], ["b", "atter"], ["se", "ven"], ["ou", "ri"], ["ani", "a</w>"], ["sear", "ched</w>"], ["chang", "ing</w>"], ["ath", "le"], ["re", "leased</w>"], ["noi", "sy</w>"], ["se", "curi"], ["securi", "ty</w>"], ["dru", "gs</w>"], ["reli", "able</w>"], ["s", "and</w>"], ["ex", "tr"], ["x", "ic"], ["sp", "are</w>"], ["ha", "ir"], ["mon", "days</w>"], ["mar", "k</w>"], ["app", "li"], ["m", "on</w>"], ["ta", "stes</w>"], ["th", "u"], ["symp", "a"], ["bu", "sh</w>"], ["class", "mates</w>"], ["pa", "pers</w>"], ["cooki", "e</w>"], ["imp", "ati"], ["ac", "tor</w>"], ["mode", "l</w>"], ["the", "tic</w>"], ["tre", "at</w>"], ["deci", "sions</w>"], ["m", "ance</w>"], ["z", "ir"], ["zir", "i</w>"], ["photo", "graph"], ["je", "ans</w>"], ["concer", "n</w>"], ["mathema", "tics</w>"], ["b", "i</w>"], ["ju", "sti"], ["on", "line</w>"], ["geor", "ge</w>"], ["possi", "bility</w>"], ["con", "st"], ["scar", "y</w>"], ["passeng", "ers</w>"], ["cen", "tur"], ["centur", "y</w>"], ["ri", "ma</w>"], ["la", "ck</w>"], ["go", "ti"], ["app", "ly</w>"], ["ic", "es</w>"], ["si", "des</w>"], ["a", "da"], ["or", "ders</w>"], ["crimin", "al</w>"], ["kee", "ping</w>"], ["e", "di"], ["s", "wee"], ["ridi", "culous</w>"], ["3", "00</w>"], ["i", "ous</w>"], ["vi", "c"], ["suggesti", "on</w>"], ["cap", "able</w>"], ["dru", "g</w>"], ["tou", "ched</w>"], ["f", "al"], ["ver", "age</w>"], ["organi", "zed</w>"], ["in", "se"], ["secre", "tary</w>"], ["ni", "ght"], ["a", "'s</w>"], ["beg", "ins</w>"], ["comp", "ani"], ["u", "k"], ["a", "si"], ["mo", "bi"], ["b", "age</w>"], ["me", "als</w>"], ["dep", "ends</w>"], ["ra", "iny</w>"], ["an", "cient</w>"], ["e", "ding</w>"], ["bur", "n</w>"], ["pl", "ant</w>"], ["screa", "ming</w>"], ["loa", "ded</w>"], ["ari", "an</w>"], ["de", "vi"], ["drea", "med</w>"], ["con", "clu"], ["st", "in"], ["mini", "mum</w>"], ["bo", "t"], ["survi", "ved</w>"], ["comm", "uni"], ["de", "ss"], ["cre", "ated</w>"], ["ju", "mp</w>"], ["p", "il"], ["fin", "al</w>"], ["curr", "ently</w>"], ["d", "les</w>"], ["m", "med</w>"], ["ta", "sk</w>"], ["pp", "er</w>"], ["daugh", "ters</w>"], ["q", "ur"], ["se", "x</w>"], ["cance", "led</w>"], ["doll", "ar</w>"], ["si", "on"], ["environ", "ment</w>"], ["be", "y"], ["c", "us</w>"], ["al", "arm</w>"], ["ac", "tions</w>"], ["or", "e"], ["pie", "ces</w>"], ["thou", "ghts</w>"], ["pla", "ced</w>"], ["sin", "gs</w>"], ["w", "ed</w>"], ["fun", "eral</w>"], ["he", "ad"], ["din", "gs</w>"], ["son", "'s</w>"], ["d", "ge"], ["li", "c</w>"], ["s", "wear</w>"], ["so", "ft</w>"], ["jer", "k</w>"], ["clai", "med</w>"], ["tru", "ly</w>"], ["ri", "se</w>"], ["st", "and"], ["ir", "ri"], ["we", "st</w>"], ["recei", "ve</w>"], ["ste", "pped</w>"], ["in", "sur"], ["par", "ticip"], ["per", "i"], ["ga", "ined</w>"], ["gener", "al</w>"], ["ar", "rest</w>"], ["en", "velo"], ["ac", "he</w>"], ["persua", "ded</w>"], ["bey", "ond</w>"], ["sc", "are</w>"], ["down", "town</w>"], ["ne", "goti"], ["dee", "ply</w>"], ["w", "ra"], ["particu", "lar</w>"], ["prin", "ci"], ["discu", "ssion</w>"], ["inter", "pre"], ["bother", "ing</w>"], ["ac", "qua"], ["sun", "days</w>"], ["sh", "ou"], ["emi", "ly</w>"], ["frien", "d's</w>"], ["pret", "end</w>"], ["appro", "pri"], ["comp", "o"], ["l", "ower</w>"], ["r", "ate</w>"], ["how", "ever</w>"], ["ag", "ger"], ["ex", "-"], ["who", "m</w>"], ["swi", "t"], ["ste", "ps</w>"], ["su", "s</w>"], ["p", "her</w>"], ["con", "fu"], ["fadi", "l's</w>"], ["r", "at"], ["hu", "mor</w>"], ["draw", "er</w>"], ["viol", "in</w>"], ["com", "ment</w>"], ["lo", "an</w>"], ["z", "i"], ["def", "en"], ["consci", "ous</w>"], ["pres", "ents</w>"], ["inten", "ded</w>"], ["l", "ted</w>"], ["inter", "national</w>"], ["r", "are</w>"], ["ti", "ght</w>"], ["har", "m</w>"], ["ea", "st</w>"], ["dess", "ert</w>"], ["t", "at"], ["se", "lling</w>"], ["ev", "ent</w>"], ["sta", "ys</w>"], ["shor", "ter</w>"], ["p", "ale</w>"], ["’", "s</w>"], ["ag", "gre"], ["tow", "ards</w>"], ["str", "ated</w>"], ["extr", "a</w>"], ["re", "sign</w>"], ["th", "ro"], ["shi", "ps</w>"], ["w", "ounded</w>"], ["introdu", "ced</w>"], ["pla", "te</w>"], ["s", "ounded</w>"], ["ss", "y</w>"], ["care", "less</w>"], ["univer", "se</w>"], ["por", "tu"], ["gener", "ally</w>"], ["holi", "days</w>"], ["post", "p"], ["fif", "teen</w>"], ["ch", "er</w>"], ["di", "ary</w>"], ["a", "stron"], ["clai", "ms</w>"], ["ex", "tra"], ["envelo", "pe</w>"], ["suf", "fered</w>"], ["repe", "at</w>"], ["acce", "p"], ["suf", "fering</w>"], ["ti", "al</w>"], ["p", "at"], ["gr", "an"], ["sun", "glasses</w>"], ["ac", "e"], ["agre", "ement</w>"], ["la", "sted</w>"], ["thous", "an"], ["thousan", "ds</w>"], ["ol", "dest</w>"], ["le", "'s</w>"], ["qur", "an</w>"], ["hu", "gged</w>"], ["oper", "ation</w>"], ["sk", "i</w>"], ["prepar", "ing</w>"], ["insi", "sted</w>"], ["bri", "ef"], ["under", "esti"], ["as", "sa"], ["mou", "se</w>"], ["posi", "tive</w>"], ["co", "ps</w>"], ["d", "ated</w>"], ["arri", "ving</w>"], ["ru", "mor</w>"], ["indi", "a</w>"], ["equ", "al</w>"], ["she", "ep</w>"], ["re", "pair</w>"], ["boo", "ts</w>"], ["gentle", "man</w>"], ["ma", "ster</w>"], ["une", "x"], ["comm", "ents</w>"], ["preven", "ted</w>"], ["spi", "ri"], ["bab", "y"], ["gree", "k</w>"], ["bur", "st</w>"], ["mi", "s"], ["do", "or"], ["ta", "x</w>"], ["k", "en"], ["19", "9"], ["ro", "a"], ["se", "mb"], ["s", "en</w>"], ["mobi", "le</w>"], ["air", "plane</w>"], ["b", "un"], ["flu", "ently</w>"], ["f", "ond</w>"], ["insur", "ance</w>"], ["fanta", "stic</w>"], ["touri", "sts</w>"], ["de", "cei"], ["b", "rain</w>"], ["se", "v"], ["ste", "aling</w>"], ["pil", "ot</w>"], ["messa", "ges</w>"], ["pu", "ll</w>"], ["appro", "a"], ["pre", "ss</w>"], ["men", "tioned</w>"], ["sour", "ce</w>"], ["z", "e"], ["weap", "on</w>"], ["app", "ear"], ["b", "loo"], ["gra", "m"], ["desi", "re</w>"], ["hu", "mans</w>"], ["mu", "l"], ["near", "by</w>"], ["fa", "st"], ["20", "0"], ["impati", "ent</w>"], ["gar", "bage</w>"], ["re", "moved</w>"], ["ac", "compli"], ["cab", "</w>"], ["ch", "u"], ["pre", "sen"], ["wor", "thy</w>"], ["strang", "er</w>"], ["car", "es</w>"], ["fa", "sc"], ["re", "quired</w>"], ["sto", "ni"], ["ter", "ms</w>"], ["poli", "cy</w>"], ["fin", "ds</w>"], ["se", "qu"], ["effor", "ts</w>"], ["anno", "ying</w>"], ["la", "tions</w>"], ["ri", "ding</w>"], ["i", "z"], ["in", "de"], ["p", "ond</w>"], ["k", "ore"], ["produ", "ct</w>"], ["pi", "llow</w>"], ["que", "en</w>"], ["hon", "e"], ["sm", "all"], ["ad", "ded</w>"], ["gon", "na</w>"], ["irri", "t"], ["da", "i"], ["disa", "gree</w>"], ["europe", "an</w>"], ["pau", "l</w>"], ["on", "i"], ["she", "'d</w>"], ["re", "pu"], ["tax", "es</w>"], ["me", "a"], ["ca", "ve</w>"], ["person", "ally</w>"], ["pra", "y</w>"], ["i", "or</w>"], ["squ", "are</w>"], ["wi", "shes</w>"], ["par", "ts</w>"], ["at", "a</w>"], ["inci", "dent</w>"], ["le", "y</w>"], ["ga", "mb"], ["l", "ent</w>"], ["lar", "ger</w>"], ["zz", "</w>"], ["dete", "ctive</w>"], ["promi", "ses</w>"], ["sp", "ot</w>"], ["mi", "ser"], ["gen", "i"], ["poi", "son"], ["high", "er</w>"], ["fla", "g</w>"], ["li", "d</w>"], ["p", "ounds</w>"], ["wor", "n</w>"], ["sh", "ows</w>"], ["bla", "med</w>"], ["bur", "ning</w>"], ["li", "z"], ["descri", "be</w>"], ["we", "ll"], ["re", "tire</w>"], ["r", "ough</w>"], ["temp", "er</w>"], ["po", "ta"], ["ce", "ll</w>"], ["stre", "ets</w>"], ["effor", "t</w>"], ["be", "lt</w>"], ["roman", "tic</w>"], ["ga", "ther"], ["dire", "ction</w>"], ["k", "ate</w>"], ["tw", "en"], ["jun", "e</w>"], ["g", "ro"], ["fashi", "on</w>"], ["i", "i</w>"], ["ele", "ph"], ["inv", "ented</w>"], ["orang", "es</w>"], ["ru", "ined</w>"], ["a", "verage</w>"], ["hea", "ven</w>"], ["fa", "ke</w>"], ["mo", "tiv"], ["spa", "in</w>"], ["po", "ll"], ["se", "es</w>"], ["c", "ta"], ["i", "sa"], ["clou", "ds</w>"], ["m", "bo"], ["di", "sc"], ["commit", "tee</w>"], ["sa", "u"], ["pass", "word</w>"], ["shoo", "k</w>"], ["reali", "ty</w>"], ["wat", "ches</w>"], ["sta", "mps</w>"], ["se", "lls</w>"], ["kn", "owing</w>"], ["s", "a</w>"], ["confe", "ssed</w>"], ["fav", "ouri"], ["favouri", "te</w>"], ["af", "fair</w>"], ["use", "less</w>"], ["de", "cor"], ["adv", "ance</w>"], ["ne", "ck"], ["valu", "able</w>"], ["remin", "ds</w>"], ["appropri", "ate</w>"], ["con", "ce"], ["deb", "t</w>"], ["towe", "l</w>"], ["every", "thing's</w>"], ["foo", "t"], ["slee", "ps</w>"], ["ster", "ed</w>"], ["se", "tt"], ["a", "pri"], ["p", "ment</w>"], ["suf", "fer</w>"], ["lu", "k"], ["ster", "'s</w>"], ["bu", "m</w>"], ["charac", "ter</w>"], ["sit", "s</w>"], ["gra", "de</w>"], ["le", "aned</w>"], ["bo", "mb</w>"], ["gradu", "ate</w>"], ["n", "t</w>"], ["je", "cted</w>"], ["ho", "bby</w>"], ["non", "sense</w>"], ["hon", "ey</w>"], ["fe", "li"], ["fasc", "in"], ["fortun", "ate</w>"], ["d", "ness</w>"], ["proper", "ty</w>"], ["con", "vi"], ["a", "tive</w>"], ["near", "est</w>"], ["li", "ght"], ["chall", "en"], ["challen", "ge</w>"], ["po", "inted</w>"], ["wor", "ker</w>"], ["ta", "ge</w>"], ["s", "nor"], ["impre", "ssion</w>"], ["char", "ged</w>"], ["ki", "dding</w>"], ["1", "8"], ["be", "low</w>"], ["sig", "nifi"], ["si", "tion</w>"], ["do", "ll</w>"], ["fle", "w</w>"], ["a", "h</w>"], ["ma", "tic</w>"], ["rememb", "ered</w>"], ["st", "ers</w>"], ["un", "locked</w>"], ["to", "ny</w>"], ["di", "plo"], ["hou", "se"], ["competi", "tion</w>"], ["valu", "e</w>"], ["luk", "as</w>"], ["ja", "zz</w>"], ["logi", "st</w>"], ["reluct", "ant</w>"], ["oc", "ca"], ["beg", "ged</w>"], ["cance", "l</w>"], ["origin", "al</w>"], ["mi", "ght"], ["might", "'ve</w>"], ["cru", "sh</w>"], ["war", "ds</w>"], ["mat", "eri"], ["ta", "il</w>"], ["un", "ic"], ["po", "c"], ["repa", "ired</w>"], ["tra", "di"], ["rob", "bed</w>"], ["fi", "cient</w>"], ["pu", "sh</w>"], ["serv", "ation</w>"], ["ir", "on</w>"], ["ri", "ghts</w>"], ["un", "lucky</w>"], ["may", "or</w>"], ["li", "an</w>"], ["va", "se</w>"], ["gen", "erous</w>"], ["blan", "ket</w>"], ["con", "gr"], ["ea", "l</w>"], ["ki", "lling</w>"], ["e", "d"], ["docu", "ment</w>"], ["sha", "ke</w>"], ["thic", "k</w>"], ["signifi", "can"], ["comm", "unity</w>"], ["to", "bi"], ["li", "ps</w>"], ["cha", "sed</w>"], ["sc", "rat"], ["z", "es</w>"], ["than", "ked</w>"], ["advi", "se</w>"], ["sp", "here</w>"], ["some", "thing's</w>"], ["lou", "dly</w>"], ["so", "a"], ["app", "lied</w>"], ["gho", "st</w>"], ["je", "sus</w>"], ["jour", "ney</w>"], ["co", "inci"], ["thro", "at</w>"], ["man", "u"], ["mon", "y</w>"], ["fu", "ji</w>"], ["vo", "lu"], ["draw", "ing</w>"], ["gr", "own</w>"], ["religi", "ous</w>"], ["cour", "t</w>"], ["sli", "ghtly</w>"], ["surr", "ounded</w>"], ["con", "serva"], ["musli", "ms</w>"], ["sho", "ck</w>"], ["stru", "ck</w>"], ["dan", "ced</w>"], ["for", "ty</w>"], ["de", "gree</w>"], ["rescu", "e</w>"], ["cri", "sis</w>"], ["b", "an</w>"], ["congr", "atu"], ["sa", "ving</w>"], ["electri", "c</w>"], ["ther", "n</w>"], ["brea", "king</w>"], ["to", "y</w>"], ["hall", "ow"], ["hallow", "e"], ["home", "less</w>"], ["une", "mp"], ["unemp", "lo"], ["cor", "n</w>"], ["ac", "tress</w>"], ["b", "ow</w>"], ["cal", "cu"], ["lo", "bby</w>"], ["swi", "mmer</w>"], ["ba", "si"], ["peop", "le's</w>"], ["la", "ce</w>"], ["r", "ings</w>"], ["unex", "pe"], ["op", "ening</w>"], ["dea", "f</w>"], ["hun", "ting</w>"], ["ye", "lling</w>"], ["weap", "ons</w>"], ["sto", "ck</w>"], ["docu", "ments</w>"], ["betra", "yed</w>"], ["ce", "iling</w>"], ["ten", "se</w>"], ["prison", "er</w>"], ["con", "du"], ["wei", "gh"], ["frequ", "ently</w>"], ["bl", "in"], ["who", "ever</w>"], ["be", "have</w>"], ["law", "s</w>"], ["au", "to"], ["finan", "cial</w>"], ["lin", "es</w>"], ["suit", "cases</w>"], ["no", "body's</w>"], ["f", "rea"], ["enti", "al</w>"], ["at", "titude</w>"], ["o", "ther"], ["imag", "ination</w>"], ["cigarett", "e</w>"], ["har", "d"], ["it", "self</w>"], ["am", "bul"], ["ambul", "ance</w>"], ["gif", "ts</w>"], ["k", "able</w>"], ["la", "tin</w>"], ["ow", "es</w>"], ["who", "'ll</w>"], ["fu", "rious</w>"], ["qu", "arre"], ["ru", "b"], ["instru", "ctions</w>"], ["small", "er</w>"], ["perm", "itted</w>"], ["lo", "b"], ["deta", "il</w>"], ["p", "ot</w>"], ["de", "m"], ["senten", "ced</w>"], ["cou", "sins</w>"], ["ari", "ly</w>"], ["dr", "owned</w>"], ["tobi", "as</w>"], ["me", "th"], ["hallowe", "en</w>"], ["sud", "den</w>"], ["chri", "sti"], ["ar", "rog"], ["ad", "ver"], ["to", "tal</w>"], ["in", "san"], ["ge", "ous</w>"], ["lan", "ds</w>"], ["fli", "r"], ["pa", "th</w>"], ["climb", "ing</w>"], ["electri", "city</w>"], ["in", "come</w>"], ["isa", "be"], ["prin", "cess</w>"], ["def", "end</w>"], ["re", "st"], ["ma", "gic</w>"], ["vi", "o"], ["assu", "med</w>"], ["e", "qui"], ["na", "p</w>"], ["ex", "agger"], ["de", "ad"], ["ther", "e"], ["good", "-looking</w>"], ["wi", "lli"], ["princi", "p"], ["cra", "sh</w>"], ["answ", "ering</w>"], ["p", "ter</w>"], ["f", "ought</w>"], ["s", "ar"], ["di", "stra"], ["po", "et</w>"], ["p", "he"], ["d", "der</w>"], ["sli", "pped</w>"], ["den", "y</w>"], ["al", "ter"], ["appe", "ar</w>"], ["hun", "dre"], ["bl", "ed</w>"], ["well", "-"], ["j", "am</w>"], ["condi", "tions</w>"], ["off", "ended</w>"], ["as", "ks</w>"], ["che", "ating</w>"], ["employe", "es</w>"], ["tra", "ins</w>"], ["aggre", "ssive</w>"], ["publi", "shed</w>"], ["oppo", "site</w>"], ["po", "s"], ["che", "ated</w>"], ["re", "ti"], ["t", "rea"], ["gre", "es</w>"], ["sh", "i</w>"], ["suspe", "cted</w>"], ["fri", "dge</w>"], ["back", "yard</w>"], ["th", "ful</w>"], ["chea", "per</w>"], ["x", "ing</w>"], ["pi", "cal</w>"], ["di", "a"], ["si", "lly</w>"], ["r", "ow"], ["go", "l"], ["bla", "ck"], ["appro", "ve</w>"], ["stre", "ss</w>"], ["tech", "ni"], ["dou", "ble</w>"], ["canadi", "ans</w>"], ["v", "an</w>"], ["provi", "de</w>"], ["mo", "squ"], ["corre", "ctly</w>"], ["ca", "kes</w>"], ["con", "sequ"], ["y", "u"], ["ro", "le</w>"], ["soldi", "er</w>"], ["myster", "y</w>"], ["e", "ye"], ["ear", "n</w>"], ["politici", "an</w>"], ["ari", "es</w>"], ["encoura", "ged</w>"], ["chan", "ces</w>"], ["qu", "ali"], ["tic", "ally</w>"], ["ph", "oned</w>"], ["be", "gun</w>"], ["m", "rs</w>"], ["cho", "sen</w>"], ["res", "our"], ["stan", "ces</w>"], ["bi", "lls</w>"], ["weal", "th</w>"], ["geni", "us</w>"], ["sel", "fish</w>"], ["cer", "e"], ["\"", "i'm</w>"], ["lor", "d</w>"], ["ma", "in"], ["squirre", "l</w>"], ["differ", "ently</w>"], ["in", "-"], ["w", "n</w>"], ["portu", "gu"], ["portugu", "ese</w>"], ["na", "i"], ["p", "ity</w>"], ["b", "lon"], ["victi", "m</w>"], ["lay", "ed</w>"], ["e", "ager</w>"], ["cha", "ir"], ["s", "can"], ["de", "le"], ["par", "ties</w>"], ["hy", "po"], ["man", "i"], ["custo", "mers</w>"], ["an", "tly</w>"], ["apri", "l</w>"], ["e", "cu"], ["b", "ased</w>"], ["engine", "er</w>"], ["circu", "m"], ["bot", "tom</w>"], ["chi", "ef</w>"], ["op", "tion</w>"], ["in", "ju"], ["a", "we"], ["awe", "some</w>"], ["accu", "sto"], ["accusto", "med</w>"], ["shar", "ed</w>"], ["ske", "p"], ["wor", "rying</w>"], ["hi", "dden</w>"], ["y", "ment</w>"], ["tw", "ins</w>"], ["celebr", "ate</w>"], ["co", "ins</w>"], ["a", "stoni"], ["f", "lies</w>"], ["ra", "w</w>"], ["chee", "k</w>"], ["nu", "mbers</w>"], ["wait", "er</w>"], ["ar", "med</w>"], ["al", "y"], ["plan", "ted</w>"], ["p", "acked</w>"], ["no", "tes</w>"], ["wher", "ever</w>"], ["col", "ors</w>"], ["ra", "in"], ["pun", "c"], ["bo", "tt"], ["phi", "lo"], ["philo", "so"], ["b", "ing</w>"], ["acci", "den"], ["ci", "st</w>"], ["dai", "ly</w>"], ["sensi", "tive</w>"], ["tal", "lest</w>"], ["sn", "owing</w>"], ["ster", "n</w>"], ["on", "ing</w>"], ["ber", "ries</w>"], ["un", "fair</w>"], ["conserva", "tive</w>"], ["fer", "red</w>"], ["diamon", "d</w>"], ["for", "mer</w>"], ["con", "stantly</w>"], ["some", "one's</w>"], ["li", "ber"], ["st", "abbed</w>"], ["da", "'s</w>"], ["od", "d</w>"], ["stru", "gg"], ["car", "pet</w>"], ["d", "able</w>"], ["qu", "ality</w>"], ["pp", "ers</w>"], ["dist", "in"], ["tion", "ally</w>"], ["fl", "ed</w>"], ["conveni", "ent</w>"], ["ic", "y</w>"], ["stra", "w"], ["box", "es</w>"], ["va", "in</w>"], ["c", "ows</w>"], ["ff", "ed</w>"], ["ar", "ch"], ["ti", "p</w>"], ["an", "u"], ["cru", "el</w>"], ["ann", "ounced</w>"], ["speci", "ally</w>"], ["justi", "ce</w>"], ["tri", "al</w>"], ["ca", "u"], ["secon", "ds</w>"], ["st", "un"], ["mi", "cro"], ["lu", "c"], ["newspa", "pers</w>"], ["er", "ror</w>"], ["pow", "erful</w>"], ["s", "col"], ["ro", "ts</w>"], ["agu", "e</w>"], ["pro", "ce"], ["ou", "se</w>"], ["impro", "ved</w>"], ["gran", "ted</w>"], ["perfor", "mance</w>"], ["su", "sp"], ["m", "'s</w>"], ["skir", "t</w>"], ["la", "bor"], ["rela", "xed</w>"], ["auth", "or</w>"], ["comple", "x</w>"], ["fai", "th</w>"], ["lin", "da's</w>"], ["’", "t</w>"], ["crea", "tive</w>"], ["f", "ate</w>"], ["light", "ning</w>"], ["hon", "or</w>"], ["sy", "mbo"], ["ex", "change</w>"], ["y", "a</w>"], ["bi", "ble</w>"], ["stri", "ke</w>"], ["reco", "vered</w>"], ["too", "th"], ["ki", "ller</w>"], ["cl", "ined</w>"], ["laun", "dry</w>"], ["gun", "s</w>"], ["ea", "se</w>"], ["b", "all"], ["other", "wise</w>"], ["li", "f"], ["str", "ength</w>"], ["constru", "ction</w>"], ["war", "ning</w>"], ["gra", "des</w>"], ["hundre", "ds</w>"], ["ad", "ven"], ["neck", "lace</w>"], ["f", "our"], ["f", "its</w>"], ["ta", "ined</w>"], ["re", "mar"], ["beat", "en</w>"], ["ent", "s'</w>"], ["e", "specially</w>"], ["ow", "ner</w>"], ["volunte", "er</w>"], ["admi", "re</w>"], ["incredi", "ble</w>"], ["ve", "ment</w>"], ["pp", "y</w>"], ["scienti", "st</w>"], ["sex", "u"], ["l", "in</w>"], ["m", "ally</w>"], ["dem", "and</w>"], ["al", "bum</w>"], ["lev", "el</w>"], ["le", "cture</w>"], ["high", "est</w>"], ["colle", "ction</w>"], ["ac", "coun"], ["m", "ated</w>"], ["fe", "male</w>"], ["fo", "g</w>"], ["cu", "ps</w>"], ["sandwi", "ches</w>"], ["peri", "od</w>"], ["au", "tu"], ["autu", "mn</w>"], ["tech", "no"], ["sol", "ar</w>"], ["year", "'s</w>"], ["g", "on</w>"], ["preten", "ding</w>"], ["offi", "cial</w>"], ["d", "ania</w>"], ["pe", "anu"], ["person", "ality</w>"], ["re", "place</w>"], ["un", "be"], ["ris", "ks</w>"], ["indepen", "dent</w>"], ["gh", "ted</w>"], ["divi", "ded</w>"], ["drea", "ming</w>"], ["cap", "tured</w>"], ["prin", "ts</w>"], ["la", "test</w>"], ["-", "in-"], ["wa", "sh"], ["o", "ven</w>"], ["foo", "led</w>"], ["flu", "ent</w>"], ["s", "an</w>"], ["tow", "er</w>"], ["ca", "uses</w>"], ["an", "ni"], ["pla", "stic</w>"], ["jo", "y</w>"], ["gather", "ed</w>"], ["meth", "od</w>"], ["wit", "ness</w>"], ["mini", "ster</w>"], ["terri", "fied</w>"], ["sub", "way</w>"], ["c", "ine"], ["cine", "ma</w>"], ["under", "standing</w>"], ["er", "r"], ["classi", "cal</w>"], ["citi", "zen</w>"], ["twen", "ty-"], ["no", "wa"], ["nowa", "days</w>"], ["repu", "tation</w>"], ["compla", "ints</w>"], ["si", "r</w>"], ["d", "ant</w>"], ["vic", "tory</w>"], ["dire", "ctly</w>"], ["g", "ru"], ["be", "comes</w>"], ["t-", "shirt</w>"], ["de", "spite</w>"], ["de", "al"], ["consider", "ing</w>"], ["hand", "writing</w>"], ["rep", "orted</w>"], ["wan", "na</w>"], ["20", "th</w>"], ["de", "di"], ["mul", "ti"], ["t", "ings</w>"], ["ge", "on</w>"], ["tr", "ance</w>"], ["sh", "it</w>"], ["en", "d"], ["to", "pic"], ["de", "grees</w>"], ["de", "st"], ["coinci", "dence</w>"], ["to", "ys</w>"], ["concentr", "ate</w>"], ["willi", "am</w>"], ["b", "ene"], ["gu", "ar"], ["scar", "f</w>"], ["me", "xic"], ["mexic", "o</w>"], ["wi", "ped</w>"], ["acci", "dents</w>"], ["re", "jected</w>"], ["shir", "ts</w>"], ["feli", "x</w>"], ["skep", "tical</w>"], ["n", "ine"], ["sha", "me</w>"], ["appe", "ti"], ["kilo", "meters</w>"], ["lo", "ad</w>"], ["perm", "it</w>"], ["tra", "ck</w>"], ["fol", "ded</w>"], ["mosqu", "e</w>"], ["f", "oun"], ["sna", "kes</w>"], ["con", "test</w>"], ["sna", "ke</w>"], ["p", "ink</w>"], ["lu", "gg"], ["lugg", "age</w>"], ["assist", "ance</w>"], ["shoul", "ders</w>"], ["si", "ster's</w>"], ["min", "or</w>"], ["car", "rots</w>"], ["miser", "able</w>"], ["bu", "tter"], ["se", "ats</w>"], ["teen", "ager</w>"], ["ba", "k"], ["ju", "mp"], ["si", "bl"], ["explo", "sion</w>"], ["ye", "lled</w>"], ["ra", "il"], ["sev", "ere</w>"], ["da", "wn</w>"], ["as", "si"], ["poc", "kets</w>"], ["h", "it"], ["sk", "in"], ["bo", "ar"], ["z", "</w>"], ["respon", "se</w>"], ["cont", "ent</w>"], ["col", "our</w>"], ["experi", "ment</w>"], ["poi", "son</w>"], ["l", "en"], ["sp", "lit</w>"], ["physi", "cs</w>"], ["-in-", "law</w>"], ["ju", "ly</w>"], ["produ", "cts</w>"], ["terri", "bly</w>"], ["dama", "ged</w>"], ["ja", "mal</w>"], ["schoo", "ls</w>"], ["yo", "g"], ["h", "oo"], ["d", "ata</w>"], ["d", "ded</w>"], ["luc", "ki"], ["scienti", "sts</w>"], ["c", "ence</w>"], ["co", "ck"], ["on", "ai"], ["fru", "strated</w>"], ["c", "ow</w>"], ["m", "al"], ["than", "k"], ["respon", "d</w>"], ["comm", "it</w>"], ["deli", "vered</w>"], ["es", "say</w>"], ["co", "lon"], ["he", "li"], ["k", "ab"], ["1", "0"], ["ca", "mp</w>"], ["tt", "ery</w>"], ["ter", "m</w>"], ["rela", "tives</w>"], ["co", "t"], ["increa", "se</w>"], ["mi", "ra"], ["k", "ness</w>"], ["ne", "a"], ["d", "ates</w>"], ["care", "er</w>"], ["treat", "ment</w>"], ["medi", "cation</w>"], ["ph", "ones</w>"], ["appli", "cation</w>"], ["incredi", "bly</w>"], ["pre", "fers</w>"], ["th", "or"], ["ele", "ven</w>"], ["cre", "e"], ["tal", "ent</w>"], ["ol", "s</w>"], ["accep", "table</w>"], ["sin", "k</w>"], ["pi", "lls</w>"], ["d", "dy</w>"], ["u", "r</w>"], ["requi", "res</w>"], ["a", "side</w>"], ["gun", "ter</w>"], ["gra", "y</w>"], ["he", "dge"], ["hedge", "ho"], ["pos", "se"], ["opini", "ons</w>"], ["la", "mp</w>"], ["fac", "es</w>"], ["comp", "ared</w>"], ["en", "trance</w>"], ["rob", "ber"], ["ru", "sh</w>"], ["brief", "case</w>"], ["hear", "t"], ["auth", "ority</w>"], ["investi", "gation</w>"], ["ac", "u"], ["col", "lap"], ["strang", "ers</w>"], ["win", "ner</w>"], ["du", "mb</w>"], ["pa", "int"], ["week", "ends</w>"], ["p", "in"], ["tu", "es"], ["th", "ur"], ["nai", "ve</w>"], ["e", "li"], ["fe", "sti"], ["in", "fe"], ["comm", "unic"], ["c", "o</w>"], ["jo", "gging</w>"], ["sk", "ating</w>"], ["\"", "it's</w>"], ["happi", "er</w>"], ["difficul", "ties</w>"], ["po", "ker</w>"], ["brea", "the</w>"], ["y", "mp"], ["li", "shed</w>"], ["disa", "ster</w>"], ["g", "en</w>"], ["w", "ound</w>"], ["en", "thu"], ["enthu", "si"], ["s", "lo"], ["ch", "er"], ["ex", "ecu"], ["de", "pre"], ["i", "zed</w>"], ["over", "weight</w>"], ["mari", "ka</w>"], ["roo", "mm"], ["d", "ust</w>"], ["can", "e</w>"], ["demo", "cra"], ["champ", "i"], ["clau", "dio</w>"], ["im", "mi"], ["re", "servation</w>"], ["ex", "hi"], ["tra", "sh</w>"], ["motiv", "ated</w>"], ["regi", "on</w>"], ["gu", "ards</w>"], ["pla", "yers</w>"], ["l", "y"], ["scol", "ded</w>"], ["e-", "mail</w>"], ["men", "tary</w>"], ["rescu", "ed</w>"], ["heavi", "ly</w>"], ["1", "5</w>"], ["supp", "or"], ["tex", "t"], ["d", "r</w>"], ["particu", "larly</w>"], ["tra", "ined</w>"], ["fla", "sh"], ["opp", "osed</w>"], ["proper", "ly</w>"], ["rin", "ging</w>"], ["fl", "ood</w>"], ["sh", "ine</w>"], ["batter", "y</w>"], ["wa", "sted</w>"], ["we", "d"], ["pain", "ful</w>"], ["tran", "sp"], ["vi", "a</w>"], ["insan", "e</w>"], ["can", "dles</w>"], ["wa", "lls</w>"], ["fal", "se</w>"], ["gho", "sts</w>"], ["de", "layed</w>"], ["poe", "ms</w>"], ["vi", "ous</w>"], ["appear", "ance</w>"], ["ol", "ymp"], ["ni", "ghts</w>"], ["cou", "gh"], ["ac", "cur"], ["i", "re</w>"], ["pu", "ts</w>"], ["ob", "ject</w>"], ["pota", "to</w>"], ["sco", "pe</w>"], ["h", "en"], ["do", "zen</w>"], ["doub", "ts</w>"], ["dep", "end</w>"], ["achie", "ved</w>"], ["screa", "med</w>"], ["che", "er</w>"], ["pron", "oun"], ["tri", "ck</w>"], ["pro", "cess</w>"], ["accompli", "shed</w>"], ["stat", "ement</w>"], ["acciden", "tally</w>"], ["ob", "se"], ["clo", "se"], ["y", "a"], ["v", "id</w>"], ["sh", "ment</w>"], ["la", "dder</w>"], ["k", "er"], ["tra", "ining</w>"], ["interru", "pt</w>"], ["di", "sh"], ["co", "stu"], ["th", "a"], ["mur", "der"], ["sco", "t"], ["swe", "at</w>"], ["bit", "ten</w>"], ["l", "and"], ["night", "mar"], ["whe", "el</w>"], ["expe", "cta"], ["expecta", "tions</w>"], ["cra", "shed</w>"], ["1", "1</w>"], ["tra", "l</w>"], ["sho", "e</w>"], ["sto", "ps</w>"], ["ski", "lls</w>"], ["re", "ce"], ["screa", "m</w>"], ["buil", "dings</w>"], ["hur", "ried</w>"], ["ver", "ing</w>"], ["cigarett", "es</w>"], ["supp", "lies</w>"], ["na", "tions</w>"], ["appro", "ach</w>"], ["bre", "w</w>"], ["as", "s</w>"], ["temp", "or"], ["cere", "mony</w>"], ["flash", "light</w>"], ["tal", "ka"], ["talka", "tive</w>"], ["\"", "what</w>"], ["ad", "ult</w>"], ["pri", "vac"], ["privac", "y</w>"], ["est", "ab"], ["s", "word</w>"], ["gar", "ian</w>"], ["tat", "too</w>"], ["p", "ha"], ["fast", "est</w>"], ["gui", "de</w>"], ["banan", "as</w>"], ["de", "aling</w>"], ["bow", "l</w>"], ["ka", "i"], ["part", "-time</w>"], ["fin", "ger"], ["de", "va"], ["paint", "ings</w>"], ["ab", "s"], ["nu", "clear</w>"], ["recomm", "ended</w>"], ["a", "id</w>"], ["consi", "sts</w>"], ["spo", "on</w>"], ["bur", "g"], ["for", "ms</w>"], ["inse", "cts</w>"], ["wol", "f</w>"], ["at", "mo"], ["infor", "med</w>"], ["con", "tains</w>"], ["cow", "ard</w>"], ["pri", "me</w>"], ["visi", "tors</w>"], ["inter", "view</w>"], ["lap", "top</w>"], ["wor", "ries</w>"], ["clo", "thing</w>"], ["veget", "arian</w>"], ["brea", "thing</w>"], ["bor", "der</w>"], ["ob", "li"], ["re", "ven"], ["goo", "ds</w>"], ["aw", "fully</w>"], ["tra", "p</w>"], ["r", "ented</w>"], ["ck", "er</w>"], ["to", "re</w>"], ["tr", "unk</w>"], ["custo", "mer</w>"], ["n", "at"], ["susp", "ended</w>"], ["hi", "sto"], ["histo", "ri"], ["hu", "mili"], ["s", "ca"], ["nar", "row</w>"], ["appreci", "ated</w>"], ["be", "side</w>"], ["effe", "ct</w>"], ["bul", "let</w>"], ["har", "m"], ["swa", "m</w>"], ["accur", "ate</w>"], ["re", "signed</w>"], ["resi", "st</w>"], ["on", "to</w>"], ["sil", "ver</w>"], ["adver", "ti"], ["po", "ints</w>"], ["laugh", "ter</w>"], ["disc", "ou"], ["discou", "ra"], ["tun", "e</w>"], ["n", "ancy</w>"], ["robber", "y</w>"], ["ma", "ssa"], ["mp", "les</w>"], ["bar", "n</w>"], ["significan", "t</w>"], ["ha", "mmer</w>"], ["sig", "ns</w>"], ["bar", "king</w>"], ["cur", "rent</w>"], ["mar", "ch</w>"], ["ex", "pl"], ["ear", "ns</w>"], ["wi", "fe"], ["dis", "count</w>"], ["tiv", "ity</w>"], ["ori", "ties</w>"], ["rab", "bit</w>"], ["ac", "</w>"], ["import", "ance</w>"], ["is", "su"], ["ho", "k"], ["hu", "man"], ["coun", "ter</w>"], ["arrog", "ant</w>"], ["ex", "tre"], ["deva", "st"], ["jour", "na"], ["suggesti", "ons</w>"], ["abs", "ence</w>"], ["b", "ited</w>"], ["youn", "gest</w>"], ["-", "old</w>"], ["unexpe", "cted</w>"], ["re", "du"], ["ther", "a"], ["extra", "ordinary</w>"], ["atmo", "sphere</w>"], ["ca", "tho"], ["mi", "se</w>"], ["ha", "wa"], ["ter", "'s</w>"], ["dan", "'s</w>"], ["ill", "u"], ["ti", "vely</w>"], ["surpri", "sing</w>"], ["na", "il</w>"], ["de", "cent</w>"], ["kno", "ck</w>"], ["nor", "mally</w>"], ["expe", "cts</w>"], ["scre", "en</w>"], ["inde", "ed</w>"], ["d", "ow</w>"], ["tom", "s</w>"], ["bott", "les</w>"], ["heli", "co"], ["char", "ming</w>"], ["mar", "th"], ["lo", "ser</w>"], ["de", "par"], ["z", "ens</w>"], ["ch", "at</w>"], ["techno", "logy</w>"], ["atu", "res</w>"], ["spi", "ders</w>"], ["festi", "val</w>"], ["g", "or"], ["maj", "ority</w>"], ["reque", "sted</w>"], ["emo", "tional</w>"], ["in", "a</w>"], ["banan", "a</w>"], ["requi", "re</w>"], ["pe", "ssi"], ["pessi", "mi"], ["al", "i</w>"], ["por", "k</w>"], ["ac", "ts</w>"], ["consequ", "ences</w>"], ["fami", "lies</w>"], ["inv", "en"], ["ear", "ned</w>"], ["coun", "ting</w>"], ["comp", "ro"], ["isabe", "lla</w>"], ["rep", "or"], ["dan", "cer</w>"], ["kne", "e</w>"], ["o", "x"], ["ble", "eding</w>"], ["stea", "k</w>"], ["arri", "ves</w>"], ["inter", "f"], ["interf", "ere</w>"], ["19", "6"], ["coun", "tr"], ["bas", "ket</w>"], ["every", "body's</w>"], ["se", "ction</w>"], ["gra", "ve</w>"], ["liter", "ature</w>"], ["acce", "ss</w>"], ["in", "gly</w>"], ["co", "mb"], ["me", "ter</w>"], ["deser", "t</w>"], ["unemplo", "yed</w>"], ["pe", "ace"], ["attemp", "ted</w>"], ["ty", "pical</w>"], ["inju", "ries</w>"], ["car", "pen"], ["ro", "lled</w>"], ["vis", "a</w>"], ["re", "fle"], ["be", "l</w>"], ["lo", "ttery</w>"], ["tues", "day</w>"], ["econo", "mic</w>"], ["mili", "tary</w>"], ["holi", "c</w>"], ["ru", "shed</w>"], ["vari", "ous</w>"], ["kai", "do</w>"], ["hi", "king</w>"], ["dis", "co"], ["bu", "cket</w>"], ["skin", "ny</w>"], ["gu", "est</w>"], ["de", "clar"], ["pu", "l"], ["they", "'d</w>"], ["hesit", "ate</w>"], ["bl", "ow</w>"], ["pan", "ic</w>"], ["ani", "st</w>"], ["psy", "cho"], ["flu", "</w>"], ["le", "ts</w>"], ["convi", "cted</w>"], ["g", "ence</w>"], ["bi", "lities</w>"], ["exa", "ms</w>"], ["restaur", "ants</w>"], ["swi", "tch</w>"], ["deman", "ded</w>"], ["ty", "pho"], ["pi", "es</w>"], ["me", "tal</w>"], ["quali", "fied</w>"], ["thre", "e-"], ["can", "dle</w>"], ["re", "cent</w>"], ["tor", "'s</w>"], ["conver", "ted</w>"], ["na", "me"], ["ad", "ults</w>"], ["gra", "pher</w>"], ["g", "lan"], ["some", "what</w>"], ["increa", "sed</w>"], ["embarra", "ssing</w>"], ["regu", "lar</w>"], ["b", "les</w>"], ["arch", "ite"], ["appeti", "te</w>"], ["lim", "ited</w>"], ["for", "given</w>"], ["dr", "ow"], ["li", "ons</w>"], ["fre", "sh"], ["to", "ols</w>"], ["st", "atu"], ["poli", "sh</w>"], ["tw", "in</w>"], ["co", "de</w>"], ["amu", "sed</w>"], ["s", "qui"], ["sa", "v"], ["an", "ced</w>"], ["te", "sti"], ["con", "ten"], ["ca", "ge</w>"], ["no", "dded</w>"], ["no", "ve"], ["wor", "th"], ["mar", "</w>"], ["any", "time</w>"], ["sa", "les"], ["circum", "stances</w>"], ["spa", "gh"], ["spagh", "ett"], ["spaghett", "i</w>"], ["speci", "es</w>"], ["vol", "le"], ["volle", "y"], ["volley", "ball</w>"], ["1", "3</w>"], ["close", "st</w>"], ["wife", "'s</w>"], ["exce", "p"], ["stra", "tion</w>"], ["relie", "ved</w>"], ["z", "zy</w>"], ["th", "ri"], ["char", "ges</w>"], ["in", "ti"], ["ch", "op"], ["bri", "tain</w>"], ["achie", "ve</w>"], ["de", "ce"], ["tu", "be</w>"], ["year", "-old</w>"], ["sa", "ge</w>"], ["competi", "tive</w>"], ["ru", "in</w>"], ["i", "stan"], ["istan", "bu"], ["ha", "l"], ["defe", "at</w>"], ["pu", "re</w>"], ["sp", "in"], ["i", "d"], ["you", "th</w>"], ["tra", "ve"], ["win", "s</w>"], ["far", "mer</w>"], ["bit", "ter</w>"], ["ali", "st</w>"], ["ner", "ves</w>"], ["exac", "t</w>"], ["develo", "ped</w>"], ["err", "ors</w>"], ["hor", "ror</w>"], ["co", "in</w>"], ["fo", "cus</w>"], ["re", "semb"], ["gree", "ted</w>"], ["un", "known</w>"], ["5", "00</w>"], ["he", "brew</w>"], ["ma", "ke"], ["foo", "ds</w>"], ["expre", "ssion</w>"], ["stri", "ct</w>"], ["re", "ck"], ["sear", "ching</w>"], ["sin", "c"], ["sinc", "ere</w>"], ["tra", "de</w>"], ["lucki", "ly</w>"], ["gro", "cer"], ["g", "age</w>"], ["thur", "sday</w>"], ["f", "ing</w>"], ["u", "te</w>"], ["hok", "kaido</w>"], ["sof", "tw"], ["softw", "are</w>"], ["lan", "ded</w>"], ["b", "on</w>"], ["shou", "ted</w>"], ["discu", "ssing</w>"], ["quar", "ter</w>"], ["por", "ch</w>"], ["physi", "cal</w>"], ["apo", "logy</w>"], ["na", "ils</w>"], ["pati", "ents</w>"], ["wh", "eat</w>"], ["thre", "at</w>"], ["reme", "mbers</w>"], ["sti", "cks</w>"], ["chair", "man</w>"], ["sh", "owing</w>"], ["pro", "hi"], ["no", "thing's</w>"], ["can", "di"], ["dist", "ri"], ["defen", "se</w>"], ["gr", "ab</w>"], ["su", "res</w>"], ["t", "an</w>"], ["fi", "cial</w>"], ["ambi", "tious</w>"], ["puzz", "led</w>"], ["be", "ans</w>"], ["br", "ings</w>"], ["investi", "g"], ["symbo", "l</w>"], ["pr", "int</w>"], ["f", "at"], ["mu", "sh"], ["milli", "onai"], ["i", "ze</w>"], ["cha", "irs</w>"], ["st", "an</w>"], ["for", "med</w>"], ["ph", "y</w>"], ["uni", "form</w>"], ["go", "als</w>"], ["po", "p"], ["pop", "corn</w>"], ["toma", "toes</w>"], ["min", "ded</w>"], ["effe", "ctive</w>"], ["ni", "a</w>"], ["respe", "ct"], ["st", "al"], ["le", "tting</w>"], ["whi", "sp"], ["i", "mm"], ["el", "se"], ["book", "store</w>"], ["sen", "ding</w>"], ["fro", "zen</w>"], ["occu", "r</w>"], ["st", "it"], ["emb", "as"], ["embas", "sy</w>"], ["be", "ating</w>"], ["part", "ner</w>"], ["istanbu", "l</w>"], ["t", "led</w>"], ["her", "o"], ["b", "at</w>"], ["grand", "parents</w>"], ["dire", "ct</w>"], ["exi", "sts</w>"], ["pe", "ter</w>"], ["cra", "ft</w>"], ["an", "ces</w>"], ["pain", "ter</w>"], ["f", "ounded</w>"], ["an", "n</w>"], ["sun", "ny</w>"], ["a", "me"], ["man", "ners</w>"], ["pa", "ys</w>"], ["4", "0</w>"], ["sun", "g</w>"], ["ph", "ra"], ["kilo", "gra"], ["lo", "ver</w>"], ["wra", "pped</w>"], ["comple", "ted</w>"], ["expen", "ses</w>"], ["sc", "ra"], ["scienti", "fic</w>"], ["qu", "o"], ["sor", "e</w>"], ["ph", "ar"], ["war", "mer</w>"], ["tar", "o</w>"], ["topic", "</w>"], ["an", "a</w>"], ["bro", "ther's</w>"], ["f", "loo"], ["san", "ta</w>"], ["p", "on"], ["glan", "ced</w>"], ["provi", "ded</w>"], ["wed", "ne"], ["shi", "ft</w>"], ["influ", "ence</w>"], ["bu", "ys</w>"], ["postp", "oned</w>"], ["sur", "ren"], ["a", "sp"], ["to", "ast</w>"], ["costu", "me</w>"], ["astron", "o"], ["trea", "sure</w>"], ["roa", "ds</w>"], ["b", "locked</w>"], ["deser", "ved</w>"], ["di", "zzy</w>"], ["addi", "cted</w>"], ["men", "na"], ["par", "ents'</w>"], ["mi", "sses</w>"], ["p", "ti"], ["an", "aly"], ["mo", "squi"], ["compro", "mise</w>"], ["ter", "ia</w>"], ["wi", "s"], ["poll", "ution</w>"], ["hawa", "ii</w>"], ["wor", "k"], ["po", "ver"], ["pover", "ty</w>"], ["g", "ger</w>"], ["inno", "cence</w>"], ["di", "ag"], ["to", "ns</w>"], ["gram", "mar</w>"], ["cho", "ices</w>"], ["pra", "yed</w>"], ["tho", "mas</w>"], ["list", "ens</w>"], ["an", "ticip"], ["b", "ound</w>"], ["si", "ck"], ["is", "ra"], ["jump", "ing</w>"], ["in", "et</w>"], ["irrit", "ated</w>"], ["ter", "r"], ["devi", "l</w>"], ["ra", "i"], ["photograph", "</w>"], ["cell", "phone</w>"], ["l", "ow"], ["tomor", "row"], ["p", "ages</w>"], ["co", "p</w>"], ["ga", "tive</w>"], ["ca", "p</w>"], ["acqua", "inted</w>"], ["fo", "x</w>"], ["s", "nea"], ["sch", "ol"], ["to", "ri"], ["immi", "gr"], ["ough", "ly</w>"], ["wh", "y's</w>"], ["un", "conscious</w>"], ["statu", "e</w>"], ["de", "ar</w>"], ["conne", "ction</w>"], ["oper", "a</w>"], ["sympa", "thetic</w>"], ["wit", "ne"], ["e", "dge</w>"], ["ca", "tions</w>"], ["v", "ani"], ["pi", "pe</w>"], ["cra", "w"], ["deb", "ate</w>"], ["so", "phi"], ["soa", "p</w>"], ["cla", "im</w>"], ["m", "un"], ["1", "8</w>"], ["cri", "tical</w>"], ["z", "a"], ["shor", "tly</w>"], ["helico", "pter</w>"], ["a", "de</w>"], ["compe", "tent</w>"], ["neighbor", "'s</w>"], ["hel", "met</w>"], ["ni", "gh"], ["fru", "its</w>"], ["tou", "r</w>"], ["sugge", "sting</w>"], ["pi", "ed</w>"], ["comp", "are</w>"], ["for", "ces</w>"], ["cha", "se</w>"], ["viol", "ent</w>"], ["thr", "own</w>"], ["edu", "cated</w>"], ["li", "ev"], ["i", "j"], ["ha", "m</w>"], ["si", "de"], ["volunte", "ers</w>"], ["econo", "mi"], ["pi", "anist</w>"], ["pas", "sion"], ["catho", "lic</w>"], ["wis", "dom</w>"], ["bi", "ased</w>"], ["sti", "cs</w>"], ["s", "have</w>"], ["indi", "vi"], ["indivi", "du"], ["en", "cy</w>"], ["na", "tion"], ["regre", "ts</w>"], ["visi", "ble</w>"], ["lin", "col"], ["arrang", "ed</w>"], ["transla", "ting</w>"], ["e", "ds</w>"], ["m", "ly</w>"], ["j", "unk</w>"], ["st", "ly</w>"], ["typho", "on</w>"], ["le", "f"], ["c", "ough</w>"], ["law", "n</w>"], ["lo", "ving</w>"], ["memor", "ies</w>"], ["te", "dly</w>"], ["i", "ri"], ["clo", "sely</w>"], ["ra", "pi"], ["foreig", "ners</w>"], ["pe", "ts</w>"], ["wi", "l"], ["cor", "ru"], ["thr", "ough"], ["mon", "key</w>"], ["wedne", "sday</w>"], ["gr", "ow"], ["tomorrow", "'s</w>"], ["clo", "th</w>"], ["bri", "lli"], ["ve", "hi"], ["separ", "ate</w>"], ["ste", "p"], ["declar", "ed</w>"], ["lea", "ding</w>"], ["ra", "di"], ["al", "le"], ["hun", "ger</w>"], ["tar", "get</w>"], ["y", "al</w>"], ["impre", "ssive</w>"], ["lim", "it</w>"], ["tic", "les</w>"], ["victi", "ms</w>"], ["kin", "dness</w>"], ["ha", "un"], ["respe", "cted</w>"], ["predi", "cted</w>"], ["sto", "ve</w>"], ["indu", "stry</w>"], ["sp", "y</w>"], ["eigh", "teen</w>"], ["celebr", "ating</w>"], ["d", "ried</w>"], ["in", "ging</w>"], ["const", "ant</w>"], ["i", "ma"], ["men", "u</w>"], ["se", "ttle</w>"], ["r", "ot</w>"], ["fif", "th</w>"], ["flir", "ting</w>"], ["spiri", "t</w>"], ["t", "ful</w>"], ["wa", "ved</w>"], ["sa", "ble</w>"], ["ta", "pe</w>"], ["g", "ar</w>"], ["uk", "ra"], ["ignor", "ance</w>"], ["de", "lay</w>"], ["comfor", "t</w>"], ["q", "</w>"], ["doc", "tor's</w>"], ["ri", "sky</w>"], ["punc", "tual</w>"], ["swit", "zer"], ["switzer", "land</w>"], ["clear", "ed</w>"], ["blo", "g</w>"], ["princip", "al</w>"], ["fe", "bru"], ["febru", "ary</w>"], ["al", "ty</w>"], ["custo", "dy</w>"], ["guar", "an"], ["destro", "y</w>"], ["suit", "able</w>"], ["cr", "an"], ["cro", "ssing</w>"], ["pla", "in</w>"], ["chemi", "stry</w>"], ["ni", "sh</w>"], ["ch", "y</w>"], ["magaz", "ines</w>"], ["be", "ef</w>"], ["spi", "der</w>"], ["basi", "c</w>"], ["safe", "ly</w>"], ["hone", "sty</w>"], ["colle", "ct</w>"], ["attra", "cted</w>"], ["for", "k</w>"], ["co", "ast</w>"], ["disgu", "sting</w>"], ["v", "it"], ["offi", "ci"], ["aw", "k"], ["k", "le</w>"], ["ta", "sted</w>"], ["disappo", "int</w>"], ["six", "ty</w>"], ["prison", "ers</w>"], ["be", "a"], ["cen", "tral</w>"], ["lon", "gest</w>"], ["sales", "man</w>"], ["twi", "tter</w>"], ["underesti", "mate</w>"], ["cur", "tains</w>"], ["squirre", "ls</w>"], ["plan", "es</w>"], ["attemp", "t</w>"], ["su", "rely</w>"], ["examin", "ed</w>"], ["misunder", "standing</w>"], ["in", "her"], ["alter", "native</w>"], ["sexu", "al</w>"], ["remin", "ded</w>"], ["k", "i</w>"], ["t", "end</w>"], ["cher", "ry</w>"], ["ac", "comp"], ["dire", "ctions</w>"], ["g", "ust</w>"], ["r", "on"], ["reven", "ge</w>"], ["chan", "nel</w>"], ["weigh", "s</w>"], ["win", "dy</w>"], ["cho", "pped</w>"], ["consu", "lt</w>"], ["de", "voted</w>"], ["ann", "oun"], ["bu", "si"], ["stron", "gly</w>"], ["z", "ation</w>"], ["6", ":30</w>"], ["busin", "ess"], ["en", "'s</w>"], ["ru", "mor"], ["through", "out</w>"], ["cre", "ate</w>"], ["fi", "sh"], ["nigh", "t's</w>"], ["al", "pha"], ["ce", "ly</w>"], ["respect", "ful</w>"], ["bl", "owing</w>"], ["ne", "gative</w>"], ["mb", "le</w>"], ["s", "wore</w>"], ["communic", "ate</w>"], ["prin", "ce</w>"], ["hon", "est"], ["honest", "ly</w>"], ["ni", "ck"], ["g", "ang</w>"], ["fa", "ults</w>"], ["brilli", "ant</w>"], ["inst", "in"], ["remar", "kable</w>"], ["ke", "y"], ["tun", "nel</w>"], ["di", "li"], ["re", "fer"], ["menna", "d</w>"], ["milli", "ons</w>"], ["de", "sign</w>"], ["c", "lin"], ["obje", "ction</w>"], ["fu", "l"], ["nightmar", "e</w>"], ["is", "m</w>"], ["v", "el"], ["ro", "de</w>"], ["car", "ed</w>"], ["con", "ta"], ["t", "ched</w>"], ["br", "inging</w>"], ["shor", "e</w>"], ["too", "th</w>"], ["spi", "lled</w>"], ["t", "iny</w>"], ["insu", "lt</w>"], ["g", "lob"], ["b", "on"], ["b", "one</w>"], ["sp", "icy</w>"], ["ama", "zed</w>"], ["regu", "larly</w>"], ["mee", "tings</w>"], ["s", "ary</w>"], ["any", "'s</w>"], ["hor", "iz"], ["fun", "d</w>"], ["vir", "us</w>"], ["gra", "pes</w>"], ["bo", "mb"], ["p", "ir"], ["for", "gave</w>"], ["19", "8"], ["y", "ea"], ["yea", "h</w>"], ["hun", "garian</w>"], ["pri", "de</w>"], ["fin", "nish</w>"], ["for", "getting</w>"], ["li", "gh"], ["affe", "cted</w>"], ["shoo", "ting</w>"], ["pret", "ti"], ["ca", "me"], ["fe", "llow</w>"], ["you", "tube</w>"], ["be", "ars</w>"], ["pi", "er"], ["sh", "own</w>"], ["awk", "ward</w>"], ["dri", "ven</w>"], ["prohi", "bited</w>"], ["sho", "ts</w>"], ["contra", "di"], ["sta", "ff</w>"], ["appo", "inted</w>"], ["deli", "ver</w>"], ["rapi", "dly</w>"], ["19", "7"], ["inten", "ds</w>"], ["kic", "k</w>"], ["pic", "king</w>"], ["m", "at</w>"], ["brea", "ks</w>"], ["athle", "te</w>"], ["lincol", "n</w>"], ["sta", "mp</w>"], ["val", "ent"], ["mu", "d</w>"], ["reluct", "antly</w>"], ["c", "d</w>"], ["kore", "an</w>"], ["s", "our</w>"], ["ali", "d</w>"], ["suf", "fers</w>"], ["bil", "lion</w>"], ["accomp", "lish</w>"], ["hur", "ting</w>"], ["equi", "pment</w>"], ["ma", "id</w>"], ["condi", "tion"], ["make", "up</w>"], ["cri", "mes</w>"], ["pic", "k"], ["cont", "acted</w>"], ["ma", "il"], ["teach", "er's</w>"], ["tempor", "ary</w>"], ["de", "clined</w>"], ["li", "sh"], ["bal", "d</w>"], ["laugh", "s</w>"], ["bur", "nt</w>"], ["bag", "gage</w>"], ["roomm", "ate</w>"], ["ss", "er</w>"], ["fo", "cu"], ["conveni", "ence</w>"], ["ssi", "ons</w>"], ["ro", "cks</w>"], ["spe", "ll</w>"], ["mari", "e</w>"], ["de", "sig"], ["bri", "ef</w>"], ["sur", "fing</w>"], ["pres", "ence</w>"], ["hand", "ker"], ["ca", "li"], ["op", "h"], ["disco", "very</w>"], ["f", "le</w>"], ["ali", "ens</w>"], ["aband", "on</w>"], ["bother", "ed</w>"], ["1", "2</w>"], ["some", "how</w>"], ["lu", "cy</w>"], ["re", "act</w>"], ["distur", "bed</w>"], ["oni", "ons</w>"], ["lea", "ther</w>"], ["ab", "sor"], ["dis", "like</w>"], ["sc", "ore</w>"], ["min", "ds</w>"], ["con", "tain</w>"], ["gr", "ows</w>"], ["woo", "den</w>"], ["ther", "-in-law</w>"], ["particip", "ate</w>"], ["pe", "el"], ["sci", "ss"], ["sciss", "ors</w>"], ["s", "light</w>"], ["o", "li"], ["medi", "a</w>"], ["ca", "using</w>"], ["confe", "ss</w>"], ["swi", "ms</w>"], ["spea", "kers</w>"], ["hair", "cut</w>"], ["tu", "b</w>"], ["ber", "lin</w>"], ["co", "mic</w>"], ["pi", "g</w>"], ["as", "y"], ["d", "dle</w>"], ["it", "'d</w>"], ["anni", "ver"], ["anniver", "sary</w>"], ["po", "ten"], ["sa", "ke</w>"], ["ignor", "ing</w>"], ["sur", "face</w>"], ["st", "able</w>"], ["phar", "ma"], ["puzz", "le</w>"], ["practi", "cal</w>"], ["plan", "ets</w>"], ["custo", "ms</w>"], ["hope", "fully</w>"], ["poe", "try</w>"], ["d", "less</w>"], ["straw", "berries</w>"], ["ig", "n</w>"], ["e", "t"], ["vir", "tu"], ["rab", "bits</w>"], ["inti", "mid"], ["che", "cking</w>"], ["hu", "mi"], ["sla", "mmed</w>"], ["mat", "ely</w>"], ["eleph", "ant</w>"], ["fle", "xi"], ["ma", "sk</w>"], ["dar", "kness</w>"], ["d", "or</w>"], ["pessimi", "stic</w>"], ["ri", "sing</w>"], ["cur", "tain</w>"], ["ski", "pped</w>"], ["de", "mon"], ["re", "sig"], ["deli", "ghted</w>"], ["be", "d"], ["je", "wel"], ["compla", "int</w>"], ["re", "action</w>"], ["compo", "sition</w>"], ["it", "able</w>"], ["ex", "ten"], ["suspi", "ci"], ["sm", "oo"], ["ic", "s</w>"], ["lu", "x"], ["gree", "ce</w>"], ["loo", "se</w>"], ["so", "vi"], ["sovi", "et</w>"], ["enthusi", "a"], ["ali", "bi</w>"], ["pu", "ppy</w>"], ["schedu", "led</w>"], ["ext", "in"], ["ne", "g"], ["ti", "res</w>"], ["j", "ury</w>"], ["compani", "es</w>"], ["s", "cu"], ["bru", "shed</w>"], ["foreig", "ner</w>"], ["sur", "geon</w>"], ["asi", "a</w>"], ["j", "ar</w>"], ["for", "bi"], ["exa", "mples</w>"], ["ce", "ment</w>"], ["hope", "less</w>"], ["un", "cle"], ["uncle", "'s</w>"], ["compla", "ins</w>"], ["sibl", "ings</w>"], ["sto", "pping</w>"], ["marth", "a</w>"], ["ball", "s</w>"], ["sa", "cri"], ["sacri", "fi"], ["rumor", "s</w>"], ["wa", "ve</w>"], ["ten", "der</w>"], ["ci", "es</w>"], ["at", "ri"], ["lif", "ted</w>"], ["ba", "ke</w>"], ["me", "xi"], ["distur", "b</w>"], ["su", "its</w>"], ["ne", "u"], ["hea", "ding</w>"], ["off", "en"], ["misunder", "stood</w>"], ["\"", "the</w>"], ["ro", "ll</w>"], ["cre", "ature</w>"], ["ur", "s</w>"], ["ex", "it</w>"], ["jan", "u"], ["janu", "ary</w>"], ["oo", "ps</w>"], ["clo", "sing</w>"], ["dre", "sses</w>"], ["depar", "ture</w>"], ["excu", "ses</w>"], ["bal", "ance</w>"], ["op", "en"], ["ti", "le</w>"], ["scrat", "ch</w>"], ["dele", "ted</w>"], ["lea", "se</w>"], ["bud", "get</w>"], ["mi", "ld</w>"], ["glob", "al</w>"], ["cl", "oud</w>"], ["d", "or"], ["c", "key</w>"], ["re", "move</w>"], ["ti", "ck"], ["na", "sty</w>"], ["belon", "ged</w>"], ["der", "ly</w>"], ["dedi", "cated</w>"], ["spi", "ra"], ["swit", "ched</w>"], ["ja", "mas</w>"], ["wa", "ge</w>"], ["sto", "res</w>"], ["be", "sides</w>"], ["a", "like</w>"], ["pre", "cious</w>"], ["com", "man"], ["gar", "den"], ["idi", "o"], ["hosp", "itali"], ["da", "y"], ["fran", "kly</w>"], ["k", "u"], ["champ", "ag"], ["champag", "ne</w>"], ["at", "tic</w>"], ["w", "are</w>"], ["le", "-"], ["materi", "al</w>"], ["the", "ft</w>"], ["argu", "ed</w>"], ["alco", "holic</w>"], ["issu", "es</w>"], ["human", "ity</w>"], ["co", "lu"], ["blon", "de</w>"], ["ha", "bits</w>"], ["temp", "le</w>"], ["lin", "k</w>"], ["a", "de"], ["fascin", "ating</w>"], ["me", "tho"], ["ef", "ficient</w>"], ["re", "ment</w>"], ["b", "ent</w>"], ["bio", "logy</w>"], ["r", "ene"], ["kne", "es</w>"], ["six", "teen</w>"], ["murder", "er</w>"], ["de", "spi"], ["foll", "ows</w>"], ["fil", "ms</w>"], ["af", "fa"], ["affa", "irs</w>"], ["haun", "ted</w>"], ["s", "lu"], ["si", "an</w>"], ["ju", "pit"], ["at", "ta"], ["pre", "va"], ["strugg", "led</w>"], ["reco", "ver</w>"], ["colle", "cted</w>"], ["discoura", "ged</w>"], ["lev", "ant</w>"], ["d", "v"], ["de", "ca"], ["enter", "ing</w>"], ["quar", "ters</w>"], ["men", "tally</w>"], ["g", "ala"], ["je", "we"], ["distin", "gui"], ["conne", "cted</w>"], ["be", "tty</w>"], ["st", "a</w>"], ["ro", "tten</w>"], ["investig", "ating</w>"], ["we", "b</w>"], ["ho", "st"], ["gamb", "ling</w>"], ["ti", "ger</w>"], ["pre", "vious</w>"], ["ne", "phe"], ["fall", "s</w>"], ["lo", "ses</w>"], ["millionai", "re</w>"], ["s", "nee"], ["conclu", "sion</w>"], ["ur", "a</w>"], ["sou", "thern</w>"], ["defe", "ated</w>"], ["opp", "on"], ["bran", "ch</w>"], ["treat", "y</w>"], ["penci", "ls</w>"], ["emo", "tions</w>"], ["c", "ers</w>"], ["chu", "ck"], ["tra", "ge"], ["fai", "thful</w>"], ["e", "ve</w>"], ["lea", "ds</w>"], ["tra", "pped</w>"], ["carpen", "ter</w>"], ["pic", "ky</w>"], ["vol", "can"], ["inj", "ury</w>"], ["th", "umb"], ["se", "p"], ["sep", "te"], ["septe", "mber</w>"], ["approa", "ched</w>"], ["bu", "ll"], ["tru", "st"], ["trust", "worthy</w>"], ["heavi", "er</w>"], ["kidna", "pped</w>"], ["gor", "geous</w>"], ["o", "sity</w>"], ["dish", "on"], ["ri", "fle</w>"], ["lou", "der</w>"], ["$", "300</w>"], ["ri", "chest</w>"], ["peanu", "ts</w>"], ["travel", "s</w>"], ["du", "g</w>"], ["deb", "ts</w>"], ["unbe", "liev"], ["or", "es</w>"], ["ac", "ti"], ["acti", "vi"], ["wei", "gh</w>"], ["te", "ar</w>"], ["ar", "ticles</w>"], ["cra", "ck</w>"], ["jewel", "ry</w>"], ["regi", "stered</w>"], ["mon", "ster</w>"], ["wash", "ing"], ["o", "id</w>"], ["c", "table</w>"], ["do", "l"], ["be", "g</w>"], ["ima", "ge</w>"], ["men", "'s</w>"], ["ab", "sur"], ["absur", "d</w>"], ["sett", "led</w>"], ["bun", "ch</w>"], ["v", "in"], ["de", "er</w>"], ["al", "o"], ["win", "gs</w>"], ["concer", "ns</w>"], ["amu", "sing</w>"], ["care", "less"], ["differ", "ences</w>"], ["fore", "head</w>"], ["co", "al</w>"], ["resour", "ces</w>"], ["cu", "s"], ["cus", "tom</w>"], ["u", "ko</w>"], ["cha", "in</w>"], ["as", "soci"], ["forbi", "dden</w>"], ["far", "id</w>"], ["sa", "les</w>"], ["toler", "ate</w>"], ["oper", "ate</w>"], ["tt", "ered</w>"], ["p", "a</w>"], ["ham", "bur"], ["ser", "ving</w>"], ["seri", "es</w>"], ["wa", "ves</w>"], ["childr", "en's</w>"], ["confu", "sing</w>"], ["photo", "grapher</w>"], ["hard", "working</w>"], ["alpha", "bet</w>"], ["fi", "xing</w>"], ["pac", "i"], ["cir", "cle</w>"], ["mexi", "can</w>"], ["occu", "pied</w>"], ["wi", "ves</w>"], ["re", "ve"], ["cy", "c"], ["pe", "di"], ["f", "bi</w>"], ["pla", "y"], ["whisp", "ered</w>"], ["sar", "ca"], ["adven", "ture</w>"], ["fi", "les</w>"], ["re", "g"], ["imag", "ined</w>"], ["chall", "eng"], ["fini", "shing</w>"], ["arri", "val</w>"], ["vo", "ices</w>"], ["fi", "ction</w>"], ["decei", "ved</w>"], ["great", "-"], ["drow", "ning</w>"], ["an", "kle</w>"], ["gree", "dy</w>"], ["be", "ij"], ["beij", "ing</w>"], ["ver", "sion</w>"], ["chi", "ps</w>"], ["quarre", "l</w>"], ["affe", "ct</w>"], ["cree", "py</w>"], ["cough", "ing</w>"], ["au", "stri"], ["well-", "known</w>"], ["ex", "p"], ["din", "ing</w>"], ["dra", "gon</w>"], ["sli", "ce</w>"], ["sla", "ve</w>"], ["re", "placed</w>"], ["re", "ss</w>"], ["far", "mers</w>"], ["wher", "e"], ["li", "qu"], ["fu", "ck</w>"], ["braz", "i"], ["ff", "ing</w>"], ["bab", "ies</w>"], ["democra", "cy</w>"], ["un", "ci"], ["w", "ow</w>"], ["swee", "ts</w>"], ["clou", "dy</w>"], ["sav", "ings</w>"], ["rep", "orts</w>"], ["pac", "king</w>"], ["wol", "ves</w>"], ["inv", "e"], ["ti", "me"], ["pra", "yer</w>"], ["lo", "cation</w>"], ["en", "or"], ["secre", "tly</w>"], ["f", "an"], ["pa", "jamas</w>"], ["civi", "l</w>"], ["pronoun", "ce</w>"], ["descri", "bed</w>"], ["ver", "b</w>"], ["poison", "ed</w>"], ["ous", "ness</w>"], ["ga", "y</w>"], ["opport", "uni"], ["regre", "tted</w>"], ["collap", "sed</w>"], ["mb", "led</w>"], ["car", "ries</w>"], ["con", "fir"], ["par", "don</w>"], ["vi", "sits</w>"], ["appro", "ved</w>"], ["handker", "chief</w>"], ["contribu", "te</w>"], ["cali", "for"], ["califor", "nia</w>"], ["nat", "ur"], ["over", "night</w>"], ["as", "sig"], ["sh", "out</w>"], ["reci", "pe</w>"], ["flexi", "ble</w>"], ["on", "ic</w>"], ["ski", "p</w>"], ["sh", "op"], ["astoni", "shed</w>"], ["tru", "sts</w>"], ["g", "-"], ["hi", "ke</w>"], ["st", "rea"], ["e", "ments</w>"], ["gu", "lli"], ["home", "town</w>"], ["devast", "ated</w>"], ["scan", "dal</w>"], ["convin", "cing</w>"], ["gr", "in"], ["bro", "ad"], ["fin", "ed</w>"], ["min", "ated</w>"], ["b", "and"], ["ox", "y"], ["propo", "sed</w>"], ["b", "ars</w>"], ["beha", "ved</w>"], ["cre", "w</w>"], ["g", "lu"], ["enthusia", "stic</w>"], ["stun", "ned</w>"], ["it", "es</w>"], ["puni", "shment</w>"], ["pla", "t"], ["business", "man</w>"], ["stu", "pi"], ["must", "ache</w>"], ["ye", "ll</w>"], ["intelli", "gence</w>"], ["diag", "no"], ["p", "y"], ["ste", "w</w>"], ["avoi", "ding</w>"], ["snor", "ing</w>"], ["guit", "ari"], ["ed", "mun"], ["poten", "tial</w>"], ["me", "chan"], ["reali", "stic</w>"], ["e", "c"], ["philoso", "phy</w>"], ["su", "shi</w>"], ["occa", "sion</w>"], ["sa", "il"], ["a", "im</w>"], ["cri", "es</w>"], ["communi", "cation</w>"], ["di", "ent</w>"], ["go", "ds</w>"], ["ra", "cist</w>"], ["perfor", "med</w>"], ["la", "dies</w>"], ["as", "se"], ["he", "ight</w>"], ["trou", "bles</w>"], ["ch", "el"], ["di", "ty</w>"], ["char", "ity</w>"], ["organi", "zation</w>"], ["promo", "tion</w>"], ["tradi", "tional</w>"], ["coun", "ted</w>"], ["prote", "ction</w>"], ["te", "as"], ["ac", "ks</w>"], ["du", "mped</w>"], ["key", "board</w>"], ["di", "um</w>"], ["or", "able</w>"], ["deman", "ds</w>"], ["grand", "children</w>"], ["mb", "ling</w>"], ["ph", "</w>"], ["inven", "tion</w>"], ["musi", "cal</w>"], ["stre", "ssed</w>"], ["driver", "s</w>"], ["f", "are</w>"], ["me", "g</w>"], ["u", "e</w>"], ["lau", "ri"], ["acqua", "int"], ["a", "stro"], ["ber", "ry</w>"], ["fri", "ed</w>"], ["interpre", "ter</w>"], ["fr", "ank</w>"], ["admi", "red</w>"], ["a", "the"], ["practi", "cing</w>"], ["extre", "me</w>"], ["surren", "der</w>"], ["in", "correct</w>"], ["coo", "ks</w>"], ["ter", "ed</w>"], ["sha", "king</w>"], ["pun", "ched</w>"], ["rela", "tively</w>"], ["mani", "pu"], ["dire", "ctor</w>"], ["happi", "est</w>"], ["ame", "lia</w>"], ["s", "car</w>"], ["c", "able</w>"], ["lim", "its</w>"], ["in", "e's</w>"], ["co", "pe</w>"], ["sa", "fer</w>"], ["vie", "ws</w>"], ["be", "ings</w>"], ["un", "willing</w>"], ["pron", "unci"], ["pronunci", "ation</w>"], ["ban", "ks</w>"], ["ann", "e</w>"], ["mar", "ath"], ["terri", "fic</w>"], ["swa", "ll"], ["touri", "st</w>"], ["li", "te</w>"], ["t", "ank</w>"], ["consider", "ation</w>"], ["go", "ssi"], ["conver", "t</w>"], ["engag", "ement</w>"], ["obse", "ssed</w>"], ["predi", "ct</w>"], ["2", "00</w>"], ["p", "ting</w>"], ["t", "les</w>"], ["con", "firm</w>"], ["must", "n't</w>"], ["che", "erful</w>"], ["bic", "y"], ["par", "an"], ["identi", "ty</w>"], ["appro", "xi"], ["approxi", "mately</w>"], ["decor", "ated</w>"], ["b", "or</w>"], ["se", "cu"], ["asp", "ir"], ["sha", "ved</w>"], ["reti", "rement</w>"], ["wa", "shes</w>"], ["ea", "ster</w>"], ["mi", "le</w>"], ["gulli", "ble</w>"], ["\"", "you</w>"], ["home", "sick</w>"], ["at", "tor"], ["me", "dal</w>"], ["tr", "oops</w>"], ["pu", "lling</w>"], ["su", "m</w>"], ["estab", "lished</w>"], ["thr", "owing</w>"], ["gen", "tly</w>"], ["interru", "pted</w>"], ["mon", "o"], ["sto", "n"], ["rela", "tions</w>"], ["pi", "st</w>"], ["gre", "ed</w>"], ["predi", "ctable</w>"], ["agre", "es</w>"], ["w", "er</w>"], ["depen", "dable</w>"], ["pul", "se</w>"], ["ex", "pressed</w>"], ["ge", "o"], ["fac", "ed</w>"], ["depen", "dent</w>"], ["blu", "ffing</w>"], ["denti", "al</w>"], ["cooper", "ate</w>"], ["ze", "al"], ["or", "ph"], ["respe", "cts</w>"], ["nephe", "w</w>"], ["mp", "y</w>"], ["po", "sed</w>"], ["hedgeho", "g</w>"], ["guitari", "st</w>"], ["edmun", "do</w>"], ["ag", "ent</w>"], ["butter", "fly</w>"], ["j", "ones</w>"], ["symp", "toms</w>"], ["text", "book</w>"], ["wi", "ll"], ["ste", "el</w>"], ["pe", "st</w>"], ["sk", "y"], ["stand", "ard</w>"], ["swe", "dish</w>"], ["sn", "ows</w>"], ["t", "ch"], ["blo", "cks</w>"], ["hi", "l"], ["lea", "ders</w>"], ["pri", "est</w>"], ["ta", "p</w>"], ["ban", "ned</w>"], ["over", "wh"], ["overwh", "el"], ["shi", "eld</w>"], ["m", "my</w>"], ["exi", "st"], ["uni", "que</w>"], ["i", "tor</w>"], ["bar", "gain</w>"], ["non", "-"], ["prote", "cted</w>"], ["astron", "au"], ["jud", "g"], ["shel", "ter</w>"], ["hea", "ds</w>"], ["ra", "cket</w>"], ["de", "signed</w>"], ["gra", "phi"], ["pro", "m</w>"], ["approa", "ching</w>"], ["ma", "shed</w>"], ["distra", "cted</w>"], ["explo", "ded</w>"], ["pa", "d</w>"], ["s", "que"], ["jupit", "er</w>"], ["gen", "u"], ["app", "lau"], ["re", "volu"], ["washing", "ton</w>"], ["propo", "se</w>"], ["individu", "al</w>"], ["ll", "ar</w>"], ["k", "u</w>"], ["cal", "end"], ["calend", "ar</w>"], ["er", "a</w>"], ["mu", "sc"], ["po", "or"], ["valent", "ine's</w>"], ["chemi", "cal</w>"], ["pit", "ch</w>"], ["ur", "t</w>"], ["neg", "le"], ["g", "gle</w>"], ["avoi", "ded</w>"], ["pa", "y"], ["pro", "ved</w>"], ["nu", "mer"], ["recor", "ds</w>"], ["shar", "k</w>"], ["re", "mo"], ["congratu", "lations</w>"], ["grou", "ps</w>"], ["sophi", "sti"], ["sophisti", "cated</w>"], ["war", "ming</w>"], ["sol", "ving</w>"], ["enor", "mous</w>"], ["p", "ala"], ["pala", "ce</w>"], ["euro", "s</w>"], ["j", "uni"], ["juni", "or</w>"], ["kore", "a</w>"], ["v", "ity</w>"], ["in", "to"], ["re", "turning</w>"], ["hone", "y"], ["underesti", "mated</w>"], ["re", "vi"], ["sick", "ness</w>"], ["are", "as</w>"], ["isra", "el</w>"], ["per", "man"], ["con", "qu"], ["wi", "de"], ["citi", "zens</w>"], ["g", "l"], ["relie", "f</w>"], ["focu", "sed</w>"], ["develo", "p</w>"], ["la", "ting</w>"], ["pur", "chased</w>"], ["e", "ag"], ["com", "mo"], ["in", "ting</w>"], ["ang", "el</w>"], ["ger", "mans</w>"], ["con", "fli"], ["hand", "cu"], ["natur", "ally</w>"], ["promo", "ted</w>"], ["else", "where</w>"], ["journa", "list</w>"], ["is", "lands</w>"], ["t", "re</w>"], ["pra", "ise</w>"], ["bar", "k</w>"], ["gol", "den</w>"], ["ag", "ra"], ["boar", "ding</w>"], ["pre", "ju"], ["preju", "di"], ["\"", "they</w>"], ["v", "or</w>"], ["aw", "ard</w>"], ["scot", "land</w>"], ["inten", "tions</w>"], ["rep", "lied</w>"], ["je", "cts</w>"], ["indi", "an</w>"], ["cul", "tu"], ["cultu", "ral</w>"], ["ma", "ster"], ["addi", "ct</w>"], ["-", "up</w>"], ["myster", "ious</w>"], ["egy", "pti"], ["vo", "cab"], ["vocab", "ul"], ["vocabul", "ary</w>"], ["lun", "g</w>"], ["sa", "x"], ["fe", "wer</w>"], ["busi", "er</w>"], ["gi", "ous</w>"], ["h", "itting</w>"], ["nation", "ality</w>"], ["expe", "lled</w>"], ["sau", "ce</w>"], ["assi", "st</w>"], ["ho", "ckey</w>"], ["pre", "ci"], ["kni", "ves</w>"], ["le", "an</w>"], ["cro", "ps</w>"], ["plat", "form</w>"], ["b", "bi"], ["b", "ang"], ["da", "tion</w>"], ["el", "derly</w>"], ["chic", "k"], ["gi", "an</w>"], ["betra", "y</w>"], ["su", "san</w>"], ["critici", "zed</w>"], ["au", "gust</w>"], ["r", "ou"], ["kilogra", "ms</w>"], ["may", "uko</w>"], ["separ", "ated</w>"], ["corre", "cted</w>"], ["tex", "ting</w>"], ["name", "'s</w>"], ["for", "gi"], ["d", "yed</w>"], ["star", "ving</w>"], ["opportuni", "ties</w>"], ["su", "bur"], ["tw", "o"], ["flu", "te</w>"], ["he", "ater</w>"], ["water", "mel"], ["mon", "th"], ["be", "l"], ["thri", "lled</w>"], ["questi", "oning</w>"], ["v", "ul"], ["a", "to"], ["ce", "ful</w>"], ["inv", "a"], ["compe", "te</w>"], ["descri", "ption</w>"], ["nick", "name</w>"], ["b", "lock</w>"], ["h", "ers</w>"], ["teas", "ing</w>"], ["serv", "ant</w>"], ["qu", "itting</w>"], ["sin", "gly</w>"], ["indepen", "dence</w>"], ["ty", "pes</w>"], ["le", "mon</w>"], ["le", "c"], ["u", "t"], ["co", "a"], ["b", "es</w>"], ["execu", "ted</w>"], ["ex", "changed</w>"], ["comp", "osed</w>"], ["hesit", "ant</w>"], ["mo", "dest</w>"], ["a", "le"], ["di", "ck</w>"], ["sp", "ar"], ["emp", "ire</w>"], ["passion", "ate</w>"], ["baby", "sit</w>"], ["bo", "il</w>"], ["s", "so"], ["bal", "con"], ["balcon", "y</w>"], ["i", "’"], ["refu", "ge"], ["deal", "t</w>"], ["fl", "ows</w>"], ["oxy", "gen</w>"], ["pas", "sing</w>"], ["str", "at"], ["strat", "eg"], ["strateg", "y</w>"], ["inclu", "ded</w>"], ["achi", "ev"], ["regar", "ds</w>"], ["cat", "tle</w>"], ["eleph", "ants</w>"], ["s", "ank</w>"], ["toma", "to</w>"], ["cooper", "ative</w>"], ["vor", "s</w>"], ["fa", "inted</w>"], ["e", "pi"], ["lear", "nt</w>"], ["sympa", "thy</w>"], ["politici", "ans</w>"], ["trou", "bled</w>"], ["in", "stantly</w>"], ["redu", "ce</w>"], ["2", "4</w>"], ["ma", "ker</w>"], ["doub", "tful</w>"], ["colle", "cting</w>"], ["bath", "tub</w>"], ["see", "k</w>"], ["p", "owers</w>"], ["l", "ength</w>"], ["0", "%</w>"], ["remo", "te</w>"], ["impo", "lite</w>"], ["run", "ner</w>"], ["ini", "ti"], ["produ", "ction</w>"], ["de", "als</w>"], ["impro", "ving</w>"], ["suppor", "tive</w>"], ["volunte", "ered</w>"], ["noti", "fied</w>"], ["regi", "ster</w>"], ["tra", "cks</w>"], ["ev", "ents</w>"], ["ess", "ential</w>"], ["mor", "al</w>"], ["high", "way</w>"], ["ambi", "tion</w>"], ["se", "tting</w>"], ["consci", "ousness</w>"], ["sta", "in</w>"], ["m", "it</w>"], ["g", "gy</w>"], ["gi", "ant</w>"], ["p", "se</w>"], ["psy", "chi"], ["psychi", "atri"], ["be", "having</w>"], ["w", "re"], ["ac", "compani"], ["vie", "t"], ["disappo", "intment</w>"], ["gener", "ation</w>"], ["pla", "tes</w>"], ["mira", "cle</w>"], ["elec", "tr"], ["reg", "ard</w>"], ["rememb", "ering</w>"], ["pe", "el</w>"], ["intere", "sts</w>"], ["exist", "ence</w>"], ["teen", "th</w>"], ["im", "it"], ["un", "married</w>"], ["din", "osa"], ["mi", "xed</w>"], ["dili", "gent</w>"], ["g", "in</w>"], ["thor", "oughly</w>"], ["x", "es</w>"], ["free", "zing</w>"], ["mag", "nifi"], ["magnifi", "cent</w>"], ["br", "and</w>"], ["see", "ds</w>"], ["sex", "y</w>"], ["fac", "ing</w>"], ["le", "gi"], ["toler", "ant</w>"], ["foot", "steps</w>"], ["harm", "ful</w>"], ["o", "ther's</w>"], ["band", "'s</w>"], ["daugh", "ter's</w>"], ["adv", "anced</w>"], ["d", "ged</w>"], ["over", "come</w>"], ["re", "public</w>"], ["nor", "thern</w>"], ["n", "arr"], ["ic", "el"], ["cance", "lled</w>"], ["jun", "gle</w>"], ["brazi", "lian</w>"], ["ac", "tivity</w>"], ["gradu", "ally</w>"], ["ti", "p"], ["dri", "ve"], ["drive", "way</w>"], ["trage", "dy</w>"], ["pa", "sta</w>"], ["sh", "ining</w>"], ["ha", "ts</w>"], ["transla", "tor</w>"], ["back", "wards</w>"], ["grand", "ma</w>"], ["v", "alid</w>"], ["re", "sted</w>"], ["tri", "cks</w>"], ["noi", "ses</w>"], ["ko", "be</w>"], ["é", "</w>"], ["skir", "ts</w>"], ["sn", "owed</w>"], ["nove", "mber</w>"], ["phra", "se</w>"], ["life", "'s</w>"], ["re", "be"], ["some", "body's</w>"], ["nu", "t</w>"], ["de", "sp"], ["questi", "oned</w>"], ["di", "ving</w>"], ["necess", "arily</w>"], ["bit", "ch</w>"], ["bo", "iling</w>"], ["pro", "vo"], ["some", "place</w>"], ["out", "doors</w>"], ["hi", "j"], ["be", "th</w>"], ["en", "ch"], ["regar", "ded</w>"], ["ter", "y</w>"], ["cab", "in</w>"], ["volu", "me</w>"], ["ad", "ding</w>"], ["da", "mn</w>"], ["mer", "cy</w>"], ["ten", "ds</w>"], ["great", "ly</w>"], ["behavi", "our</w>"], ["grow", "th</w>"], ["je", "wish</w>"], ["gre", "y</w>"], ["celebr", "ated</w>"], ["u", "sa</w>"], ["bicy", "cles</w>"], ["back", "ground</w>"], ["insu", "lted</w>"], ["ri", "cher</w>"], ["ri", "ly</w>"], ["sarca", "stic</w>"], ["sensi", "ble</w>"], ["be", "es</w>"], ["vehi", "cle</w>"], ["ga", "sol"], ["gasol", "ine</w>"], ["distur", "bing</w>"], ["bra", "ce"], ["brace", "let</w>"], ["ba", "king</w>"], ["produ", "ce</w>"], ["condu", "ct</w>"], ["strea", "m</w>"], ["o", "o</w>"], ["gh", "ten</w>"], ["ve", "ter"], ["grand", "father's</w>"], ["di", "seas"], ["diseas", "es</w>"], ["ri", "pped</w>"], ["tru", "mp"], ["austri", "a</w>"], ["dis", "cover</w>"], ["we", "stern</w>"], ["fun", "ction</w>"], ["ener", "y</w>"], ["in", "ev"], ["imag", "in"], ["bak", "ery</w>"], ["sha", "dow</w>"], ["e", "ter"], ["19", "5"], ["re", "lease</w>"], ["depre", "ssion</w>"], ["possi", "bilities</w>"], ["tele", "scope</w>"], ["satis", "factory</w>"], ["man", "sion</w>"], ["sa", "iling</w>"], ["gif", "ted</w>"], ["pas", "sion</w>"], ["se", "le"], ["spin", "ach</w>"], ["yog", "urt</w>"], ["u", "c"], ["g", "li"], ["du", "tch</w>"], ["se", "ated</w>"], ["zer", "o</w>"], ["baby", "sit"], ["marath", "on</w>"], ["camp", "us</w>"], ["r", "is</w>"], ["co", "pies</w>"], ["gram", "ma"], ["who", "'d</w>"], ["fu", "el</w>"], ["ad", "dressed</w>"], ["w", "ounds</w>"], ["mechan", "ic</w>"], ["ad", "mission</w>"], ["con", "science</w>"], ["bu", "ses</w>"], ["fore", "cast</w>"], ["pe", "ar"], ["honey", "moon</w>"], ["su", "m"], ["gre", "ater</w>"], ["kno", "cking</w>"], ["lin", "gu"], ["bal", "lo"], ["wa", "ters</w>"], ["en", "o"], ["he", "i"], ["wi", "g</w>"], ["bar", "e"], ["liter", "ate</w>"], ["che", "ck"], ["confu", "se</w>"], ["edi", "ble</w>"], ["al", "ert</w>"], ["accompani", "ed</w>"], ["19", "</w>"], ["colu", "m"], ["recei", "ving</w>"], ["an", "der"], ["assig", "nment</w>"], ["archite", "ct</w>"], ["cli", "ck</w>"], ["go", "at</w>"], ["comp", "any's</w>"], ["a", "in"], ["and", "a</w>"], ["cro", "ss"], ["shou", "ting</w>"], ["kee", "per</w>"], ["bu", "mped</w>"], ["ter", "min"], ["attor", "ney</w>"], ["re", "c"], ["bed", "time</w>"], ["ni", "cer</w>"], ["sa", "id"], ["said", ":</w>"], ["const", "it"], ["sque", "e"], ["increa", "sing</w>"], ["sla", "pped</w>"], ["hi", "ro"], ["ignor", "ant</w>"], ["gun", "shot</w>"], ["revolu", "tion</w>"], ["law", "yers</w>"], ["pen", "s</w>"], ["ear", "rings</w>"], ["ho", "les</w>"], ["el", "ds</w>"], ["ado", "pt</w>"], ["obje", "ctive</w>"], ["z", "ar"], ["che", "cks</w>"], ["police", "men</w>"], ["chop", "sticks</w>"], ["tou", "ching</w>"], ["e", "sc"], ["thi", "e"], ["si", "p</w>"], ["free", "ze</w>"], ["se", "as</w>"], ["in", "sp"], ["cot", "ton</w>"], ["eye", "sight</w>"], ["ce", "l"], ["desper", "ately</w>"], ["en", "t's</w>"], ["fi", "st</w>"], ["sha", "de</w>"], ["ai", "med</w>"], ["pro", "fit</w>"], ["mi", "x</w>"], ["g", "an</w>"], ["sun", "set</w>"], ["o", "tic</w>"], ["charac", "ters</w>"], ["girl", "'s</w>"], ["sh", "ort"], ["sho", "cking</w>"], ["diagno", "sed</w>"], ["sk", "ate</w>"], ["deser", "ted</w>"], ["thir", "ty-"], ["ob", "serve</w>"], ["i", "so"], ["into", "xic"], ["dest", "ination</w>"], ["mi", "sto"], ["misto", "ok</w>"], ["pra", "ised</w>"], ["heart", "broken</w>"], ["du", "re</w>"], ["tex", "as</w>"], ["sor", "row</w>"], ["in", "spe"], ["recei", "pt</w>"], ["fr", "ench"], ["peace", "ful</w>"], ["kab", "y"], ["swe", "den</w>"], ["a", "pt</w>"], ["back", "pack</w>"], ["re", "presen"], ["earthqua", "kes</w>"], ["an", "ce"], ["un", "necessary</w>"], ["g", "all"], ["sc", "ored</w>"], ["orig", "in</w>"], ["all", "ed</w>"], ["infor", "m</w>"], ["vi", "ces</w>"], ["pi", "gs</w>"], ["19", "4"], ["han", "dy</w>"], ["trans", "ferred</w>"], ["obje", "cted</w>"], ["pa", "yment</w>"], ["com", "mer"], ["ma", "chin"], ["spo", "iled</w>"], ["y", "mous</w>"], ["goo", "gle</w>"], ["cat", "ching</w>"], ["fa", "me</w>"], ["me", "te"], ["sub", "scri"], ["critici", "sm</w>"], ["japan", "'s</w>"], ["bo", "iled</w>"], ["candi", "date</w>"], ["kin", "g"], ["sit", "es</w>"], ["trump", "et</w>"], ["liber", "ty</w>"], ["in", "fla"], ["2", "5</w>"], ["pur", "ple</w>"], ["four", "th</w>"], ["earth", "'s</w>"], ["lauri", "e</w>"], ["jack", "sons</w>"], ["reco", "very</w>"], ["gh", "test</w>"], ["di", "ly</w>"], ["sc", "enery</w>"], ["inev", "itable</w>"], ["v", "el</w>"], ["s", "ks</w>"], ["a", "mat"], ["cu", "tting</w>"], ["sur", "v"], ["smi", "les</w>"], ["vani", "shed</w>"], ["at", "lan"], ["bar", "tender</w>"], ["investi", "ga"], ["abo", "ard</w>"], ["b", "ones</w>"], ["testi", "fy</w>"], ["mo", "vement</w>"], ["sp", "ace"], ["sen", "ior</w>"], ["ev", "acu"], ["mp", "tion</w>"], ["curi", "osity</w>"], ["draw", "n</w>"], ["burg", "lar</w>"], ["deli", "ber"], ["tal", "e</w>"], ["fascin", "ated</w>"], ["oli", "via</w>"], ["in", "doors</w>"], ["good", "-"], ["st", "-"], ["sla", "very</w>"], ["ag", "ed</w>"], ["careless", "ness</w>"], ["ho", "bbi"], ["hobbi", "es</w>"], ["bloo", "m</w>"], ["ta", "g</w>"], ["graph", "y</w>"], ["fro", "g</w>"], ["hun", "ter</w>"], ["babysit", "ter</w>"], ["sever", "ely</w>"], ["develo", "pment</w>"], ["un", "pleasant</w>"], ["resemb", "les</w>"], ["mi", "cha"], ["micha", "el</w>"], ["aw", "a</w>"], ["re", "call</w>"], ["a", "ka</w>"], ["bl", "ouse</w>"], ["continu", "es</w>"], ["hun", "t</w>"], ["offi", "cers</w>"], ["sun", "rise</w>"], ["ma", "ssive</w>"], ["mo", "sc"], ["mosc", "ow</w>"], ["di", "so"], ["diso", "be"], ["threat", "ening</w>"], ["wo", "man's</w>"], ["6", "0</w>"], ["bare", "foot</w>"], ["lo", "s</w>"], ["confir", "med</w>"], ["re", "stra"], ["smo", "ked</w>"], ["low", "ered</w>"], ["christi", "an</w>"], ["yester", "day's</w>"], ["hol", "ds</w>"], ["fin", "land</w>"], ["brea", "th"], ["don", "ate</w>"], ["hij", "ab</w>"], ["hur", "ri"], ["f", "o</w>"], ["ain", "'t</w>"], ["pri", "mary</w>"], ["le", "mon"], ["refu", "ses</w>"], ["tha", "i</w>"], ["ma", "iled</w>"], ["su", "mm"], ["olymp", "ic</w>"], ["e", "state</w>"], ["une", "asy</w>"], ["la", "cks</w>"], ["he", "els</w>"], ["thera", "py</w>"], ["atten", "ding</w>"], ["yu", "mi</w>"], ["1", "4</w>"], ["or", "ing</w>"], ["on", "e"], ["r", "ang"], ["ir", "ing</w>"], ["trave", "lling</w>"], ["perman", "ent</w>"], ["bo", "y's</w>"], ["mat", "ches</w>"], ["ca", "fe"], ["cafe", "teria</w>"], ["roo", "f"], ["blo", "sso"], ["in", "ches</w>"], ["ho", "mes</w>"], ["dis", "missed</w>"], ["ar", "gent"], ["sn", "ack</w>"], ["sha", "ke"], ["fi", "elds</w>"], ["door", "bell</w>"], ["when", "'s</w>"], ["dru", "ms</w>"], ["v", "a</w>"], ["wait", "ress</w>"], ["excu", "sed</w>"], ["stea", "dy</w>"], ["lux", "ury</w>"], ["thie", "ves</w>"], ["aspir", "in</w>"], ["te", "sts</w>"], ["champi", "on"], ["wind", "shield</w>"], ["co", "ca"], ["host", "ages</w>"], ["chee", "ks</w>"], ["o", "l</w>"], ["pan", "ic"], ["mi", "ce</w>"], ["vide", "os</w>"], ["belie", "f</w>"], ["zeal", "and</w>"], ["ugh", "ty</w>"], ["en", "a</w>"], ["an", "on"], ["eng", "lish"], ["ght", "ful</w>"], ["y", "aw"], ["x", "y</w>"], ["post", "card</w>"], ["whi", "stle</w>"], ["t", "ables</w>"], ["horiz", "on</w>"], ["diamon", "ds</w>"], ["pl", "us</w>"], ["intoxic", "ated</w>"], ["desp", "ise</w>"], ["en", "vy</w>"], ["cab", "inet</w>"], ["star", "ve</w>"], ["du", "ll</w>"], ["identi", "fy</w>"], ["condition", "er</w>"], ["tex", "ted</w>"], ["a", "woke</w>"], ["ur", "ged</w>"], ["pu", "p"], ["pup", "ils</w>"], ["too", "l</w>"], ["supp", "orted</w>"], ["ru", "g</w>"], ["li", "a"], ["tri", "cked</w>"], ["decei", "ve</w>"], ["ba", "chel"], ["abi", "lities</w>"], ["so", "li"], ["ru", "led</w>"], ["dece", "mber</w>"], ["metho", "ds</w>"], ["contribu", "ted</w>"], ["off", "end</w>"], ["sha", "llow</w>"], ["sm", "al"], ["smal", "lest</w>"], ["in", "ha"], ["pi", "sto"], ["mat", "ure</w>"], ["s", "ers</w>"], ["a", "k</w>"], ["judg", "ment</w>"], ["activi", "ties</w>"], ["min", "ation</w>"], ["as", "semb"], ["foun", "tain</w>"], ["lea", "k</w>"], ["king", "dom</w>"], ["t", "ant</w>"], ["emplo", "yed</w>"], ["pe", "e"], ["resig", "nation</w>"], ["humili", "ated</w>"], ["inv", "est"], ["side", "walk</w>"], ["har", "dest</w>"], ["ang", "le</w>"], ["exce", "ption</w>"], ["noti", "fy</w>"], ["two", "-"], ["n", "ings</w>"], ["colum", "bus</w>"], ["finger", "prints</w>"], ["i", "den"], ["iden", "tical</w>"], ["b", "ers</w>"], ["mosqui", "toes</w>"], ["po", "p</w>"], ["influ", "ential</w>"], ["tea", "ms</w>"], ["atten", "tive</w>"], ["ca", "s"], ["bo", "thers</w>"], ["appro", "val</w>"], ["egypti", "an</w>"], ["worl", "d"], ["ci", "ans</w>"], ["poli", "tely</w>"], ["fai", "ry</w>"], ["sax", "oph"], ["saxoph", "one</w>"], ["for", "th</w>"], ["dol", "ph"], ["ti", "ghtly</w>"], ["mar", "ks</w>"], ["ban", "k"], ["f", "ying</w>"], ["po", "sted</w>"], ["survi", "vors</w>"], ["repor", "ter</w>"], ["man", "ner</w>"], ["va", "mp"], ["su", "per</w>"], ["speci", "fic</w>"], ["sh", "ow"], ["da", "m</w>"], ["hand", "led</w>"], ["gar", "ten</w>"], ["do", "g's</w>"], ["recor", "ded</w>"], ["—", "</w>"], ["\"", "that's</w>"], ["athle", "tic</w>"], ["for", "gets</w>"], ["hypo", "cri"], ["pre", "scri"], ["don", "u"], ["s", "nu"], ["ra", "tional</w>"], ["distingui", "sh</w>"], ["\"", "it</w>"], ["dia", "be"], ["na", "vy</w>"], ["she", "et</w>"], ["worth", "less</w>"], ["exagger", "ating</w>"], ["un", "reasonable</w>"], ["mo", "ves</w>"], ["ele", "mentary</w>"], ["fi", "lling</w>"], ["w", "ool</w>"], ["fun", "ds</w>"], ["ma", "gi"], ["ne", "at</w>"], ["t", "less</w>"], ["ac", "id</w>"], ["ca", "su"], ["manu", "fac"], ["thir", "ties</w>"], ["there", "fore</w>"], ["g", "in"], ["for", "get"], ["forget", "ful</w>"], ["thank", "ful</w>"], ["laun", "ched</w>"], ["mar", "rying</w>"], ["f", "ans</w>"], ["after", "wards</w>"], ["origin", "ally</w>"], ["tan", "in"], ["p", "an</w>"], ["virtu", "e</w>"], ["paci", "fic</w>"], ["reve", "aled</w>"], ["foo", "ls</w>"], ["supp", "ly</w>"], ["black", "board</w>"], ["disp", "leased</w>"], ["men", "ted</w>"], ["pedi", "a</w>"], ["figu", "res</w>"], ["consider", "ate</w>"], ["batter", "ies</w>"], ["op", "ens</w>"], ["ander", "son</w>"], ["so", "lid</w>"], ["addi", "tion</w>"], ["dishon", "est</w>"], ["nee", "dn't</w>"], ["cen", "tre</w>"], ["shop", "s</w>"], ["sto", "rs</w>"], ["par", "tly</w>"], ["mea", "sure</w>"], ["car", "'s</w>"], ["diplo", "matic</w>"], ["pun", "ch</w>"], ["a", "mp"], ["immigr", "ants</w>"], ["na", "go"], ["tru", "mp</w>"], ["an", "ity</w>"], ["absolu", "te</w>"], ["wan", "ting</w>"], ["mail", "box</w>"], ["sal", "ty</w>"], ["cre", "atures</w>"], ["mar", "ine</w>"], ["bud", "d"], ["se", "wing</w>"], ["te", "l</w>"], ["pro", "test</w>"], ["ver", "se</w>"], ["life", "style</w>"], ["mu", "tual</w>"], ["hus", "band's</w>"], ["d", "d"], ["in", "appropriate</w>"], ["oppon", "ent</w>"], ["ser", "ves</w>"], ["lo", "cker</w>"], ["ston", "es</w>"], ["ste", "in</w>"], ["ti", "dy</w>"], ["ri", "o</w>"], ["sp", "ra"], ["fun", "da"], ["jewe", "ls</w>"], ["cau", "tious</w>"], ["immedi", "ate</w>"], ["postp", "one</w>"], ["ph", "eno"], ["pheno", "men"], ["oun", "ding</w>"], ["austra", "lian</w>"], ["k", "in</w>"], ["coun", "ts</w>"], ["ide", "al</w>"], ["t", "in"], ["ama", "z"], ["absor", "bed</w>"], ["mo", "stly</w>"], ["super", "ior</w>"], ["spo", "tted</w>"], ["spee", "ches</w>"], ["cor", "por"], ["ac", "company</w>"], ["numer", "ous</w>"], ["na", "ughty</w>"], ["ho", "t"], ["su", "ed</w>"], ["gala", "xy</w>"], ["re", "served</w>"], ["dead", "line</w>"], ["ex", "posed</w>"], ["comp", "re"], ["sa", "te"], ["sate", "lli"], ["transla", "tions</w>"], ["harv", "est</w>"], ["for", "ty-"], ["al", "gi"], ["i", "fy</w>"], ["cru", "shed</w>"], ["leg", "ally</w>"], ["contin", "ent</w>"], ["nu", "tri"], ["re", "fund</w>"], ["ou", "l</w>"], ["scar", "es</w>"], ["pa", "thetic</w>"], ["col", "der</w>"], ["tan", "aka</w>"], ["ro", "man</w>"], ["happi", "ly</w>"], ["quo", "te</w>"], ["sc", "or"], ["f", "lights</w>"], ["mo", "tor</w>"], ["gent", "le</w>"], ["na", "p"], ["ton", "e</w>"], ["cu", "ts</w>"], ["sl", "ower</w>"], ["cla", "us</w>"], ["grocer", "ies</w>"], ["nerv", "ously</w>"], ["belon", "g"], ["belong", "ings</w>"], ["z", "o</w>"], ["seven", "teen</w>"], ["bod", "y"], ["gover", "nor</w>"], ["poison", "ous</w>"], ["up", "side</w>"], ["ad", "mini"], ["per", "fu"], ["pretti", "er</w>"], ["z", "one</w>"], ["mor", "tal</w>"], ["surpri", "ses</w>"], ["sp", "la"], ["di", "e"], ["jud", "ged</w>"], ["girl", "friends</w>"], ["mat", "t</w>"], ["stri", "ctly</w>"], ["pisto", "l</w>"], ["consi", "st"], ["in", "tri"], ["fu", "ssy</w>"], ["spe", "lling</w>"], ["al", "d</w>"], ["in", "er</w>"], ["dist", "ant</w>"], ["ar", "able</w>"], ["\"", "not</w>"], ["int", "ments</w>"], ["pa", "irs</w>"], ["mea", "sures</w>"], ["ba", "se</w>"], ["o", "lu"], ["wor", "m</w>"], ["deli", "very</w>"], ["whi", "st"], ["-", "minded</w>"], ["la", "tes</w>"], ["cu", "lt</w>"], ["eu", "r</w>"], ["nine", "ty</w>"], ["exc", "it"], ["excit", "ement</w>"], ["fil", "thy</w>"], ["don", "ated</w>"], ["camp", "a"], ["tru", "thful</w>"], ["ho", "ly</w>"], ["yog", "a</w>"], ["vie", "wed</w>"], ["conta", "gious</w>"], ["de", "crea"], ["teen", "ag"], ["teenag", "ers</w>"], ["hand", "bag</w>"], ["s", ":</w>"], ["wra", "p</w>"], ["ra", "ma"], ["rama", "dan</w>"], ["en", "courage</w>"], ["all", "ows</w>"], ["tra", "gic</w>"], ["9", "11</w>"], ["over", "heard</w>"], ["countr", "y"], ["pati", "ently</w>"], ["v", "able</w>"], ["bu", "g</w>"], ["on", "y</w>"], ["figh", "ter</w>"], ["kin", "der"], ["kinder", "garten</w>"], ["fashi", "oned</w>"], ["the", "sis</w>"], ["champion", "ship</w>"], ["ghten", "ing</w>"], ["john", "son</w>"], ["bur", "ns</w>"], ["par", "a"], ["e", "o"], ["pra", "ying</w>"], ["multi", "ple</w>"], ["wha", "le</w>"], ["la", "b</w>"], ["help", "less</w>"], ["lea", "f</w>"], ["obje", "cts</w>"], ["val", "ley</w>"], ["5", "th</w>"], ["negoti", "ations</w>"], ["stin", "ate</w>"], ["h", "in"], ["ll", "y"], ["accoun", "ts</w>"], ["an", "ic</w>"], ["mu", "g</w>"], ["success", "fully</w>"], ["ta", "sty</w>"], ["investi", "gate</w>"], ["eigh", "ty</w>"], ["guaran", "tee</w>"], ["pen", "ny</w>"], ["bic", "</w>"], ["chil", "dish</w>"], ["puni", "sh</w>"], ["particip", "ated</w>"], ["j", "</w>"], ["j", "im"], ["il", "literate</w>"], ["rail", "way</w>"], ["watermel", "on</w>"], ["pro", "phe"], ["$", "30</w>"], ["po", "le</w>"], ["tanin", "na</w>"], ["hil", "ton</w>"], ["smo", "kes</w>"], ["infe", "ction</w>"], ["sme", "lled</w>"], ["contro", "ver"], ["civi", "liz"], ["de", "c"], ["b", "in"], ["po", "land</w>"], ["physi", "cally</w>"], ["s", "kill</w>"], ["ini", "an</w>"], ["pe", "pper</w>"], ["sta", "dium</w>"], ["f", "are"], ["fare", "well</w>"], ["li", "p"], ["sha", "ken</w>"], ["auto", "mobile</w>"], ["distri", "ct</w>"], ["ne", "st</w>"], ["b", "acked</w>"], ["mo", "thers</w>"], ["fu", "cking</w>"], ["swa", "llow</w>"], ["be", "e"], ["bi", "a</w>"], ["sho", "vel</w>"], ["su", "red</w>"], ["ameri", "ca"], ["har", "sh</w>"], ["olymp", "ics</w>"], ["car", "bon</w>"], ["l", "ant</w>"], ["shar", "p"], ["d", "ani"], ["r", "at</w>"], ["ban", "da"], ["kaby", "lie</w>"], ["asi", "an</w>"], ["despi", "sed</w>"], ["pro", "per</w>"], ["war", "ded</w>"], ["lo", "yal</w>"], ["he", "ated</w>"], ["ki", "sses</w>"], ["gu", "m</w>"], ["pro", "file</w>"], ["ra", "ced</w>"], ["astrono", "my</w>"], ["deta", "iled</w>"], ["lef", "to"], ["camp", "fire</w>"], ["memor", "ize</w>"], ["par", "rot</w>"], ["se", "ts</w>"], ["out", "going</w>"], ["chick", "ens</w>"], ["ge", "tic</w>"], ["roo", "t</w>"], ["ro", "mance</w>"], ["hor", "se"], ["cli", "ff</w>"], ["d", "i</w>"], ["humi", "d</w>"], ["countr", "y's</w>"], ["ir", "responsible</w>"], ["gru", "mpy</w>"], ["1", "6</w>"], ["ukra", "ine</w>"], ["lu", "m</w>"], ["tra", "il"], ["trail", "er</w>"], ["re", "acted</w>"], ["algi", "ers</w>"], ["or", "che"], ["m", "itted</w>"], ["secre", "tive</w>"], ["kit", "ten</w>"], ["fre", "ely</w>"], ["nor", "way</w>"], ["vari", "ety</w>"], ["stu", "re</w>"], ["to", "ssed</w>"], ["timi", "d</w>"], ["ther", "mo"], ["al", "right</w>"], ["st", "are</w>"], ["psy", "ch"], ["indu", "stri"], ["dre", "ssing</w>"], ["res", "ort</w>"], ["bri", "be</w>"], ["ve", "-"], ["re", "solved</w>"], ["frea", "k</w>"], ["alger", "ian</w>"], ["dif", "fer</w>"], ["con", "gress</w>"], ["on", "e-"], ["pri", "orities</w>"], ["deli", "cate</w>"], ["f", "old</w>"], ["scar", "cely</w>"], ["bla", "ming</w>"], ["par", "lia"], ["rail", "road</w>"], ["the", "irs</w>"], ["pur", "chase</w>"], ["exerci", "ses</w>"], ["camer", "as</w>"], ["stru", "cture</w>"], ["u", "fo</w>"], ["seven", "th</w>"], ["bor", "e</w>"], ["cra", "cked</w>"], ["star", "ved</w>"], ["gr", "and</w>"], ["accu", "se</w>"], ["sh", "r"], ["inten", "se</w>"], ["bar", "ber</w>"], ["lo", "g</w>"], ["tra", "itor</w>"], ["vit", "a"], ["intri", "gu"], ["tre", "ats</w>"], ["cho", "ir</w>"], ["clu", "e</w>"], ["ab", "use</w>"], ["tea", "mm"], ["ja", "mes</w>"], ["ex-", "wife</w>"], ["sil", "k</w>"], ["promi", "sing</w>"], ["invest", "ment</w>"], ["ra", "ge</w>"], ["au", "toma"], ["blin", "ds</w>"], ["che", "w</w>"], ["pi", "ll</w>"], ["sc", "o</w>"], ["nar", "a</w>"], ["ki", "ll"], ["0", "s</w>"], ["disapp", "ear</w>"], ["conce", "ited</w>"], ["ver", "bs</w>"], ["mo", "z"], ["moz", "art</w>"], ["gossi", "p</w>"], ["expla", "ining</w>"], ["atta", "ched</w>"], ["photograph", "s</w>"], ["bac", "ks</w>"], ["he", "ating</w>"], ["so", "le</w>"], ["u", "ps</w>"], ["sig", "nal</w>"], ["re", "vol"], ["paran", "oid</w>"], ["di", "o"], ["con", "tr"], ["gue", "ssed</w>"], ["shake", "spe"], ["shakespe", "are</w>"], ["grand", "pa</w>"], ["ir", "an</w>"], ["instru", "ment</w>"], ["produ", "ced</w>"], ["na", "ment</w>"], ["ou", "ch</w>"], ["clean", "er</w>"], ["mu", "ddy</w>"], ["cow", "boy</w>"], ["plan", "ting</w>"], ["blu", "shed</w>"], ["so", "il</w>"], ["pa", "per"], ["witne", "sses</w>"], ["re", "form</w>"], ["ran", "dom</w>"], ["ex", "por"], ["uk", "i</w>"], ["campa", "ign</w>"], ["guil", "t</w>"], ["ne", "t"], ["insp", "ired</w>"], ["effe", "cts</w>"], ["mush", "rooms</w>"], ["repa", "irs</w>"], ["ch", "eat</w>"], ["foot", "prints</w>"], ["rang", "e</w>"], ["repe", "ated</w>"], ["you", "\"</w>"], ["logi", "c</w>"], ["in", "tru"], ["a", "x</w>"], ["prote", "cting</w>"], ["bla", "mes</w>"], ["fol", "k</w>"], ["be", "half</w>"], ["jo", "ining</w>"], ["gi", "ra"], ["ar", "men"], ["swall", "owed</w>"], ["or", "bit</w>"], ["over", "time</w>"], ["stra", "w</w>"], ["ele", "ment</w>"], ["1", "st</w>"], ["be", "e</w>"], ["heal", "thi"], ["bl", "ank</w>"], ["se", "cure</w>"], ["bu", "cks</w>"], ["gra", "vity</w>"], ["l", "k</w>"], ["to", "ries</w>"], ["ven", "ess</w>"], ["ma", "ss</w>"], ["experi", "ences</w>"], ["thou", "</w>"], ["clau", "stro"], ["claustro", "pho"], ["wri", "st</w>"], ["sa", "ck</w>"], ["idio", "ts</w>"], ["dia", "le"], ["interru", "pting</w>"], ["ke", "tch"], ["ketch", "up</w>"], ["de", "po"], ["depo", "sit</w>"], ["fish", "er"], ["russi", "ans</w>"], ["fl", "ori"], ["flori", "da</w>"], ["di", "ve</w>"], ["19", "3"], ["i", "ses</w>"], ["smo", "ker</w>"], ["perfu", "me</w>"], ["ato", "mic</w>"], ["dis", "respectful</w>"], ["rela", "tive</w>"], ["ang", "rily</w>"], ["com", "a</w>"], ["as", "sure</w>"], ["ce", "able</w>"], ["dec", "line</w>"], ["pa", "ce</w>"], ["occur", "s</w>"], ["histori", "cal</w>"], ["hurri", "cane</w>"], ["to", "bac"], ["tobac", "co</w>"], ["instin", "cts</w>"], ["offen", "sive</w>"], ["champi", "on</w>"], ["inclu", "de</w>"], ["un", "friendly</w>"], ["europe", "ans</w>"], ["foo", "ling</w>"], ["tre", "s</w>"], ["hesit", "ated</w>"], ["moun", "t</w>"], ["li", "sted</w>"], ["practi", "ces</w>"], ["stra", "i"], ["iri", "sh</w>"], ["el", "bow</w>"], ["cr", "y"], ["colle", "agu"], ["colleagu", "es</w>"], ["blan", "kets</w>"], ["b", "en"], ["rub", "bed</w>"], ["co", "medi"], ["muse", "u"], ["museu", "ms</w>"], ["s", "mashed</w>"], ["wo", "ken</w>"], ["di", "scri"], ["ex", "clu"], ["tan", "e"], ["re", "fre"], ["spiri", "ts</w>"], ["la", "bor</w>"], ["thera", "pist</w>"], ["diplo", "mat</w>"], ["s", "no"], ["liter", "ally</w>"], ["sta", "ti"], ["w", "rest"], ["see", "king</w>"], ["ra", "ces</w>"], ["wa", "kes</w>"], ["b", "are</w>"], ["b", "owed</w>"], ["cell", "ar</w>"], ["fi", "led</w>"], ["labor", "a"], ["labor", "ate</w>"], ["conten", "ted</w>"], ["comb", "ination</w>"], ["r", "ats</w>"], ["di", "g</w>"], ["ner", "ve</w>"], ["ten", "s</w>"], ["stu", "ffed</w>"], ["accu", "sing</w>"], ["mel", "ani"], ["pron", "ounced</w>"], ["bank", "ru"], ["impro", "vement</w>"], ["u", "tter"], ["hal", "f-"], ["per", "form</w>"], ["maj", "ored</w>"], ["divi", "de</w>"], ["sy", "n"], ["sli", "p</w>"], ["mean", "ing"], ["manag", "ement</w>"], ["it", "a</w>"], ["hote", "ls</w>"], ["di", "tch</w>"], ["win", "k</w>"], ["gre", "en"], ["pharma", "cy</w>"], ["\"", "thank</w>"], ["anon", "ymous</w>"], ["terr", "or"], ["materi", "als</w>"], ["sist", "ent</w>"], ["boar", "ded</w>"], ["sc", "ale</w>"], ["strugg", "ling</w>"], ["f", "ancy</w>"], ["te", "ased</w>"], ["sti", "ff</w>"], ["app", "eal</w>"], ["mush", "room</w>"], ["dis", "order</w>"], ["un", "sure</w>"], ["the", "at"], ["che", "ered</w>"], ["lie", "st</w>"], ["ob", "stinate</w>"], ["thank", "s"], ["iso", "lated</w>"], ["anno", "y</w>"], ["fanta", "sy</w>"], ["gover", "n"], ["inten", "tionally</w>"], ["bak", "ir</w>"], ["mo", "le"], ["relation", "ships</w>"], ["el", "der</w>"], ["civi", "li"], ["cul", "tures</w>"], ["bene", "fit</w>"], ["sa", "int</w>"], ["manu", "al</w>"], ["ballo", "on</w>"], ["whi", "ch"], ["which", "ever</w>"], ["main", "ly</w>"], ["da", "vid</w>"], ["tooth", "brush</w>"], ["hi", "lar"], ["hilar", "ious</w>"], ["qu", "anti"], ["lor", "en"], ["loren", "zo</w>"], ["stea", "m</w>"], ["a", "tic</w>"], ["gentle", "men</w>"], ["cen", "ti"], ["ac", "commo"], ["ea", "stern</w>"], ["che", "wing</w>"], ["colon", "y</w>"], ["mon", "keys</w>"], ["amoun", "ts</w>"], ["grou", "chy</w>"], ["wi", "ki"], ["wiki", "pedia</w>"], ["handcu", "ffed</w>"], ["fe", "eding</w>"], ["pi", "ge"], ["inclu", "ding</w>"], ["repe", "ating</w>"], ["water", "ed</w>"], ["org", "an</w>"], ["dre", "sser</w>"], ["sy", "non"], ["ite", "ms</w>"], ["sh", "ang"], ["shang", "ha"], ["tor", "ture</w>"], ["per", "sons</w>"], ["kidna", "ppers</w>"], ["v", "ation</w>"], ["unbeliev", "able</w>"], ["ali", "en</w>"], ["astronau", "t</w>"], ["t", "ab"], ["doub", "ted</w>"], ["kab", "yle</w>"], ["ele", "ctions</w>"], ["vo", "tes</w>"], ["exhi", "bi"], ["be", "lly</w>"], ["chil", "d's</w>"], ["graphi", "c</w>"], ["gradu", "ation</w>"], ["peanu", "t</w>"], ["g", "ons</w>"], ["ban", "j"], ["banj", "o</w>"], ["s", "ni"], ["sli", "pp"], ["slipp", "ery</w>"], ["massa", "ge</w>"], ["do", "ve</w>"], ["y", "ama"], ["ser", "vices</w>"], ["serva", "tions</w>"], ["kilo", "s</w>"], ["qu", "es</w>"], ["dele", "te</w>"], ["situ", "ations</w>"], ["tor", "tured</w>"], ["m", "ala"], ["butter", "flies</w>"], ["straw", "berry</w>"], ["mo", "on"], ["sti", "cking</w>"], ["amat", "eur</w>"], ["da", "ddy</w>"], ["athe", "ist</w>"], ["engine", "ering</w>"], ["scri", "pt</w>"], ["smoo", "th</w>"], ["arti", "ficial</w>"], ["bac", "on</w>"], ["i", "ra"], ["argu", "ments</w>"], ["car", "to"], ["fe", "a"], ["la", "s</w>"], ["confli", "ct</w>"], ["sy", "ri"], ["don", "’t</w>"], ["al", "u"], ["ac", "knowle"], ["to", "ur"], ["our", "ing</w>"], ["sh", "er</w>"], ["edu", "ca"], ["m", "it"], ["pro", "ven</w>"], ["re", "turns</w>"], ["grand", "son</w>"], ["wi", "re</w>"], ["mani", "ac</w>"], ["di", "c</w>"], ["th", "under</w>"], ["country", "side</w>"], ["d", "ye</w>"], ["tick", "lish</w>"], ["ti", "tle</w>"], ["pas", "ses</w>"], ["offici", "ally</w>"], ["stupi", "dity</w>"], ["rub", "ber</w>"], ["un", "e</w>"], ["peel", "ed</w>"], ["de", "vice</w>"], ["be", "got</w>"], ["st", "ac"], ["si", "a</w>"], ["u", "ted</w>"], ["indi", "sp"], ["practi", "cally</w>"], ["bran", "dy</w>"], ["je", "ws</w>"], ["exper", "ts</w>"], ["dr", "a</w>"], ["p", "p</w>"], ["inv", "iting</w>"], ["six", "th</w>"], ["d", "na</w>"], ["hor", "n</w>"], ["be", "ware</w>"], ["acquaint", "ance</w>"], ["suf", "ficient</w>"], ["for", "mal</w>"], ["ve", "ge"], ["vege", "table</w>"], ["gg", "led</w>"], ["mee", "ts</w>"], ["contr", "ary</w>"], ["snow", "man</w>"], ["it", "ated</w>"], ["pen", "gu"], ["re", "consider</w>"], ["villa", "gers</w>"], ["resu", "lted</w>"], ["sof", "tly</w>"], ["s", "p</w>"], ["char", "les</w>"], ["w", "ron"], ["congratu", "lated</w>"], ["in", "expensive</w>"], ["colle", "ague</w>"], ["reck", "less</w>"], ["wel", "com"], ["welcom", "ed</w>"], ["anticip", "ate</w>"], ["psych", "ic</w>"], ["neighb", "our</w>"], ["forgi", "veness</w>"], ["pr", "inted</w>"], ["gra", "ce</w>"], ["crimin", "als</w>"], ["ce", "me"], ["identi", "fied</w>"], ["affe", "cts</w>"], ["disgu", "sted</w>"], ["grocer", "y</w>"], ["cir", "cus</w>"], ["hospitali", "zed</w>"], ["fl", "our</w>"], ["in", "fin"], ["pri", "ority</w>"], ["scrat", "ched</w>"], ["up", "date</w>"], ["clo", "ses</w>"], ["cyc", "ling</w>"], ["do", "min"], ["bachel", "or</w>"], ["wri", "ters</w>"], ["stin", "gy</w>"], ["str", "ing</w>"], ["imm", "ature</w>"], ["gar", "lic</w>"], ["den", "cy</w>"], ["b", "id</w>"], ["ou", "tra"], ["un", "fortunate</w>"], ["-", "year-old</w>"], ["note", "books</w>"], ["i", "re"], ["prejudi", "ced</w>"], ["refer", "e"], ["lip", "stick</w>"], ["emp", "tied</w>"], ["conce", "pt</w>"], ["employe", "e</w>"], ["ti", "mate</w>"], ["heada", "ches</w>"], ["ba", "it</w>"], ["appo", "intments</w>"], ["tradi", "tion</w>"], ["un", "dant</w>"], ["par", "adi"], ["fran", "ci"], ["insi", "st</w>"], ["sin", "cer"], ["resu", "me</w>"], ["strang", "ely</w>"], ["p", "our</w>"], ["re", "ward</w>"], ["di", "gging</w>"], ["fla", "sh</w>"], ["applau", "ded</w>"], ["concer", "ts</w>"], ["me", "ssy</w>"], ["mi", "gra"], ["lo", "vers</w>"], ["embarra", "ss</w>"], ["un", "predictable</w>"], ["rece", "ption</w>"], ["mo", "tion</w>"], ["un", "impressed</w>"], ["ro", "mans</w>"], ["con", "fron"], ["un", "it</w>"], ["sc", "ent</w>"], ["ac", "quired</w>"], ["un", "certain</w>"], ["e", "ing</w>"], ["ad", "orable</w>"], ["micro", "phone</w>"], ["fli", "pped</w>"], ["d", "y"], ["ada", "m</w>"], ["stin", "ks</w>"], ["se", "me"], ["seme", "ster</w>"], ["aun", "t's</w>"], ["frea", "ked</w>"], ["worth", "while</w>"], ["stat", "us</w>"], ["melani", "e</w>"], ["clear", "ing</w>"], ["desig", "ner</w>"], ["fu", "se</w>"], ["se", "at"], ["cooper", "ation</w>"], ["ab", "used</w>"], ["utter", "ly</w>"], ["pen", "alty</w>"], ["be", "ers</w>"], ["depre", "ssing</w>"], ["lett", "u"], ["lettu", "ce</w>"], ["1", "6"], ["sil", "ently</w>"], ["whe", "el"], ["p", "ound</w>"], ["garden", "er</w>"], ["out", "standing</w>"], ["tri", "ps</w>"], ["ad", "just</w>"], ["cu", "p"], ["co", "lo"], ["water", "ing</w>"], ["ni", "e"], ["ener", "getic</w>"], ["spee", "ding</w>"], ["dest", "iny</w>"], ["nago", "ya</w>"], ["spee", "ch"], ["speech", "less</w>"], ["de", "v"], ["un", "aware</w>"], ["adm", "its</w>"], ["what", "'ve</w>"], ["l", "ers</w>"], ["sp", "len"], ["splen", "did</w>"], ["cro", "co"], ["croco", "di"], ["part", "y's</w>"], ["cli", "ents</w>"], ["imp", "orts</w>"], ["py", "ra"], ["pyra", "mi"], ["hedgeho", "gs</w>"], ["plu", "gged</w>"], ["ru", "ral</w>"], ["sta", "ke</w>"], ["rin", "k"], ["bomb", "s</w>"], ["da", "mi"], ["dami", "ano</w>"], ["pir", "ate</w>"], ["smar", "t"], ["proce", "ed</w>"], ["cour", "te"], ["chuck", "'s</w>"], ["gar", "d"], ["gard", "ening</w>"], ["a", "o"], ["ad", "ju"], ["suspe", "cts</w>"], ["na", "tives</w>"], ["text", "books</w>"], ["col", "or"], ["p", "atter"], ["co", "mb</w>"], ["ci", "sm</w>"], ["bo", "ssy</w>"], ["du", "ck</w>"], ["thumb", "</w>"], ["an", "c"], ["ga", "ther</w>"], ["ra", "cing</w>"], ["re", "serve</w>"], ["begin", "ner</w>"], ["thanks", "giving</w>"], ["min", "ate</w>"], ["vul", "ner"], ["it", "als</w>"], ["fol", "ks</w>"], ["zo", "mb"], ["wh", "ore</w>"], ["wee", "ds</w>"], ["of", "fering</w>"], ["techni", "que</w>"], ["plea", "ded</w>"], ["sli", "ppers</w>"], ["la", "di"], ["bo", "dies</w>"], ["pau", "lo</w>"], ["bra", "kes</w>"], ["kin", "dly</w>"], ["amb", "assa"], ["ambassa", "dor</w>"], ["con", "temp"], ["ari", "um</w>"], ["p", "al"], ["por", "tra"], ["imit", "ate</w>"], ["harm", "less</w>"], ["dinosa", "urs</w>"], ["k", "an"], ["gi", "es</w>"], ["persua", "sive</w>"], ["unbe", "arable</w>"], ["chu", "bby</w>"], ["satis", "fy</w>"], ["di", "ct</w>"], ["la", "h</w>"], ["eat", "er</w>"], ["budd", "hi"], ["disapp", "ear"], ["stal", "king</w>"], ["ro", "cket</w>"], ["in", "don"], ["indon", "e"], ["ev", "olu"], ["evolu", "tion</w>"], ["hand", "ling</w>"], ["fru", "str"], ["frustr", "ating</w>"], ["witne", "ssed</w>"], ["k", "ite</w>"], ["ag", "ri"], ["ac", "ity</w>"], ["ira", "q</w>"], ["lin", "gui"], ["arrang", "ements</w>"], ["occa", "sion"], ["ne", "ther"], ["nether", "lands</w>"], ["she", "ets</w>"], ["e", "asy"], ["tour", "nament</w>"], ["cu", "cu"], ["bow", "ling</w>"], ["o", "y"], ["illu", "sion</w>"], ["sin", "king</w>"], ["fri", "es</w>"], ["ru", "g"], ["rug", "by</w>"], ["practi", "ced</w>"], ["mag", "ne"], ["chee", "se"], ["g", "love</w>"], ["bul", "lied</w>"], ["dro", "ps</w>"], ["distri", "bu"], ["sh", "aring</w>"], ["reco", "vering</w>"], ["fle", "sh</w>"], ["auth", "orities</w>"], ["z", "u"], ["ty", "pe"], ["kno", "b</w>"], ["e", "lo"], ["e", "m</w>"], ["ir", "oned</w>"], ["ob", "stac"], ["tri", "gger</w>"], ["negle", "cted</w>"], ["affe", "ction</w>"], ["cli", "ent</w>"], ["wo", "men's</w>"], ["ada", "pt</w>"], ["deal", "er</w>"], ["hi", "pp"], ["rai", "sing</w>"], ["per", "ce"], ["gra", "in</w>"], ["irre", "levant</w>"], ["mel", "ted</w>"], ["b", "y"], ["satur", "days</w>"], ["ti", "ming</w>"], ["c", "it"], ["sin", "gers</w>"], ["h", "int</w>"], ["re", "sist"], ["solu", "tions</w>"], ["ch", "ris</w>"], ["kal", "man's</w>"], ["er", "up"], ["dr", "um</w>"], ["gramma", "tical</w>"], ["afri", "can</w>"], ["go", "d's</w>"], ["sig", "nature</w>"], ["v", "ague</w>"], ["re", "pla"], ["org", "anic</w>"], ["will", "ingly</w>"], ["thermo", "meter</w>"], ["fe", "ars</w>"], ["fi", "ve-"], ["f", "oul</w>"], ["fi", "er"], ["rou", "te</w>"], ["scre", "et</w>"], ["fla", "mes</w>"], ["hambur", "ger</w>"], ["gl", "ance</w>"], ["rain", "bow</w>"], ["bru", "shing</w>"], ["neighb", "ours</w>"], ["corru", "ption</w>"], ["man", "kind</w>"], ["in", "clined</w>"], ["tur", "tles</w>"], ["vo", "y"], ["sen", "sed</w>"], ["ck", "ers</w>"], ["parlia", "ment</w>"], ["200", "6</w>"], ["subur", "bs</w>"], ["pregn", "ancy</w>"], ["ad", "ore</w>"], ["fr", "ed</w>"], ["pige", "ons</w>"], ["defin", "ite</w>"], ["co", "vers</w>"], ["ac", "ade"], ["slee", "ve</w>"], ["progra", "ms</w>"], ["bu", "b"], ["o", "ba"], ["oba", "ma</w>"], ["un", "cles</w>"], ["s", "ends</w>"], ["six", "ty-"], ["respon", "ded</w>"], ["deta", "ined</w>"], ["har", "as"], ["mer", "ely</w>"], ["lon", "g-"], ["\"", "how</w>"], ["offici", "als</w>"], ["docu", "mentary</w>"], ["hear", "ted</w>"], ["ire", "land</w>"], ["dis", "organized</w>"], ["cha", "pter</w>"], ["sa", "c"], ["sac", "red</w>"], ["toler", "ance</w>"], ["te", "sted</w>"], ["mer", "ry</w>"], ["sta", "l</w>"], ["li", "ver</w>"], ["challeng", "es</w>"], ["cele", "bra"], ["oper", "ating</w>"], ["mo", "tioned</w>"], ["bran", "ches</w>"], ["frequ", "ent</w>"], ["paradi", "se</w>"], ["franci", "sco</w>"], ["sp", "it</w>"], ["constit", "ution</w>"], ["me", "ssed</w>"], ["rea", "der</w>"], ["fac", "i"], ["ris", "en</w>"], ["to", "ed</w>"], ["memor", "ized</w>"], ["b", "less</w>"], ["stre", "ss"], ["stress", "ful</w>"], ["fro", "ze</w>"], ["tr", "ous"], ["trous", "ers</w>"], ["preva", "il</w>"], ["weigh", "ed</w>"], ["terri", "tory</w>"], ["over", "slept</w>"], ["cap", "itali"], ["shi", "f"], ["progra", "mmer</w>"], ["ri", "vers</w>"], ["presen", "tation</w>"], ["sa", "tions</w>"], ["er", "or</w>"], ["ga", "li"], ["b", "at"], ["bu", "ry</w>"], ["po", "pe</w>"], ["m", "ere</w>"], ["br", "ow"], ["ow", "l</w>"], ["bl", "ing</w>"], ["coura", "geous</w>"], ["b", "al</w>"], ["loa", "ding</w>"], ["do", "gh"], ["dogh", "ouse</w>"], ["ver", "ge</w>"], ["ca", "fe</w>"], ["icel", "and</w>"], ["labora", "tory</w>"], ["e", "laborate</w>"], ["po", "lar</w>"], ["life", "time</w>"], ["inst", "ant</w>"], ["tra", "ce</w>"], ["char", "m</w>"], ["hen", "ry</w>"], ["diction", "aries</w>"], ["x", "ic</w>"], ["tt", "a</w>"], ["lob", "ster</w>"], ["j", "et</w>"], ["grand", "mother's</w>"], ["do", "me"], ["dome", "stic</w>"], ["excep", "tionally</w>"], ["b", "oun"], ["in", "f"], ["hoo", "k</w>"], ["il", "a</w>"], ["vac", "u"], ["equ", "ally</w>"], ["sun", "shine</w>"], ["cti", "c</w>"], ["overwhel", "med</w>"], ["announ", "cement</w>"], ["disgu", "ised</w>"], ["ol", "d-"], ["old-", "fashioned</w>"], ["o", "logy</w>"], ["la", "sts</w>"], ["musc", "les</w>"], ["mar", "ked</w>"], ["liber", "al</w>"], ["tom", "'ll</w>"], ["speci", "alist</w>"], ["pier", "ced</w>"], ["pan", "cakes</w>"], ["g", "al</w>"], ["craw", "led</w>"], ["dis", "ci"], ["ju", "dy</w>"], ["volcan", "o</w>"], ["or", "ies</w>"], ["we", "ed</w>"], ["whi", "s"], ["whis", "key</w>"], ["list", "s</w>"], ["adverti", "sing</w>"], ["tele", "phoned</w>"], ["b", "ou"], ["e", "house</w>"], ["vio", "lated</w>"], ["or", "'s</w>"], ["healthi", "er</w>"], ["gr", "ant</w>"], ["sto", "cks</w>"], ["pe", "tro"], ["prin", "ter</w>"], ["situ", "ated</w>"], ["can", "o"], ["rain", "coat</w>"], ["pa", "ste</w>"], ["negoti", "ate</w>"], ["ka", "za"], ["kaza", "k"], ["ra", "ped</w>"], ["cti", "ves</w>"], ["anti", "bio"], ["claustropho", "bic</w>"], ["ceme", "tery</w>"], ["terr", "ori"], ["terrori", "sts</w>"], ["wide", "ly</w>"], ["hung", "ary</w>"], ["d", "ough</w>"], ["represen", "ta"], ["ho", "st</w>"], ["floo", "ded</w>"], ["k", "il"], ["sour", "ces</w>"], ["engine", "ers</w>"], ["anticip", "ated</w>"], ["wre", "ck</w>"], ["vulner", "able</w>"], ["por", "n</w>"], ["z", "er</w>"], ["presen", "ted</w>"], ["u", "d</w>"], ["r", "att"], ["controver", "si"], ["controversi", "al</w>"], ["-", "thirty</w>"], ["sha", "me"], ["surpri", "singly</w>"], ["def", "ending</w>"], ["le", "t"], ["mil", "ky</w>"], ["consist", "ent</w>"], ["sha", "mp"], ["shamp", "oo</w>"], ["hei", "ghts</w>"], ["agra", "m</w>"], ["co", "la</w>"], ["in", "ch</w>"], ["w", "ars</w>"], ["kn", "itting</w>"], ["deci", "sive</w>"], ["exhibi", "tion</w>"], ["fresh", "man</w>"], ["gre", "et</w>"], ["t", "ches</w>"], ["ta", "ke"], ["shar", "es</w>"], ["men", "tor</w>"], ["dra", "gons</w>"], ["ever", "est</w>"], ["al", "lah</w>"], ["da", "mp</w>"], ["clin", "ic</w>"], ["bo", "ats</w>"], ["j", "or"], ["in", "gu"], ["rela", "xing</w>"], ["dra", "ma</w>"], ["v", "als</w>"], ["drea", "mt</w>"], ["compo", "ser</w>"], ["cl", "er"], ["le", "ague</w>"], ["pa", "ins</w>"], ["b", "iting</w>"], ["psycho", "logy</w>"], ["tane", "ous</w>"], ["yo", "ko</w>"], ["fu", "ll"], ["ar", "in</w>"], ["stre", "tched</w>"], ["ke", "st</w>"], ["mo", "ments</w>"], ["eter", "nal</w>"], ["colle", "cts</w>"], ["bri", "an</w>"], ["as", "ser"], ["se", "af"], ["seaf", "ood</w>"], ["inst", "all</w>"], ["pre", "ferred</w>"], ["out", "fit</w>"], ["wash", "er</w>"], ["educa", "tional</w>"], ["mar", "vel"], ["marvel", "ous</w>"], ["ju", "li"], ["ken", "'s</w>"], ["so", "ber</w>"], ["evi", "cted</w>"], ["consu", "mption</w>"], ["conclu", "sions</w>"], ["jack", "son's</w>"], ["eli", "as</w>"], ["shar", "pen</w>"], ["imp", "orted</w>"], ["con", "c"], ["conc", "eal</w>"], ["po", "ly"], ["over", "seas</w>"], ["disa", "greed</w>"], ["s", "having</w>"], ["arti", "stic</w>"], ["der", "ing</w>"], ["j", "ac"], ["roo", "sev"], ["roosev", "el"], ["lefto", "vers</w>"], ["repe", "ate"], ["repeate", "dly</w>"], ["gi", "ants</w>"], ["in", "spira"], ["stru", "ggle</w>"], ["seven", "ty</w>"], ["wa", "ist</w>"], ["fu", "ss</w>"], ["liqu", "id</w>"], ["any", "one's</w>"], ["micro", "wave</w>"], ["coca", "ine</w>"], ["ar", "cha"], ["ne", "at"], ["neat", "ly</w>"], ["ke", "en</w>"], ["opp", "re"], ["san", "dra</w>"], ["panic", "ked</w>"], ["regu", "lations</w>"], ["li", "p</w>"], ["ru", "b</w>"], ["tra", "y</w>"], ["ob", "no"], ["obno", "xi"], ["sho", "e"], ["me", "tres</w>"], ["i", "pad</w>"], ["sto", "r</w>"], ["fe", "eds</w>"], ["box", "er</w>"], ["resour", "ceful</w>"], ["do", "lls</w>"], ["ve", "gan</w>"], ["uni", "forms</w>"], ["gol", "fer</w>"], ["ab", "ou"], ["abou", "ts</w>"], ["fe", "e</w>"], ["conten", "ts</w>"], ["re", "sting</w>"], ["gh", "ur</w>"], ["crocodi", "le</w>"], ["sa", "le"], ["win", "ds</w>"], ["comm", "and</w>"], ["se", "-"], ["cha", "sing</w>"], ["diabe", "tic</w>"], ["ffe", "l</w>"], ["al", "ley</w>"], ["asy", "lum</w>"], ["gamb", "le</w>"], ["par", "ce"], ["parce", "l</w>"], ["sk", "ura</w>"], ["am", "ends</w>"], ["o", "par"], ["jud", "ging</w>"], ["confe", "ssion</w>"], ["ex", "pi"], ["li", "sm</w>"], ["dan", "ces</w>"], ["assa", "ult</w>"], ["f", "ari"], ["h", "ong</w>"], ["cha", "lk</w>"], ["in", "competent</w>"], ["col", "ours</w>"], ["\"", "yeah</w>"], ["bu", "ll</w>"], ["c", "on</w>"], ["ta", "i"], ["excep", "tions</w>"], ["sto", "red</w>"], ["che", "f</w>"], ["to", "night's</w>"], ["e", "cli"], ["ecli", "pse</w>"], ["disappo", "inting</w>"], ["cot", "tage</w>"], ["fi", "ci"], ["ya", "ma</w>"], ["religi", "ons</w>"], ["temp", "ted</w>"], ["enjo", "y"], ["enjoy", "able</w>"], ["commer", "cial</w>"], ["stoma", "cha"], ["stomacha", "che</w>"], ["dr", "un"], ["machin", "es</w>"], ["any", "body's</w>"], ["shangha", "i</w>"], ["with", "drew</w>"], ["ll", "en</w>"], ["schol", "ar"], ["scholar", "ship</w>"], ["passeng", "er</w>"], ["swi", "ss</w>"], ["transp", "or"], ["transpor", "tation</w>"], ["sun", "screen</w>"], ["refere", "e</w>"], ["gradu", "ating</w>"], ["le", "i"], ["schoo", "l"], ["do", "se</w>"], ["ch", "in</w>"], ["thin", "ner</w>"], ["tal", "ents</w>"], ["resi", "dents</w>"], ["collap", "se</w>"], ["to", "-"], ["2", "2</w>"], ["star", "tled</w>"], ["re", "servations</w>"], ["christi", "anity</w>"], ["separ", "ately</w>"], ["ru", "ins</w>"], ["compli", "ment</w>"], ["air", "craft</w>"], ["psychiatri", "st</w>"], ["cur", "ren"], ["pat", "ri"], ["ga", "tions</w>"], ["chri", "st</w>"], ["ar", "m"], ["tre", "ating</w>"], ["al", "as"], ["i", "tion</w>"], ["musi", "cians</w>"], ["refuge", "es</w>"], ["6", "5</w>"], ["gen", "e"], ["inter", "s</w>"], ["own", "ers</w>"], ["ba", "thing</w>"], ["unemplo", "yment</w>"], ["com", "mon"], ["basi", "cally</w>"], ["lev", "els</w>"], ["gali", "le"], ["con", "sent</w>"], ["atlan", "tic</w>"], ["nu", "mb</w>"], ["arti", "sts</w>"], ["consu", "l"], ["fe", "min"], ["bra", "ke</w>"], ["p", "in</w>"], ["fa", "int</w>"], ["sor", "ts</w>"], ["wha", "les</w>"], ["visi", "tor</w>"], ["se", "ized</w>"], ["stre", "tch</w>"], ["schol", "ar</w>"], ["par", "ent</w>"], ["wh", "it"], ["deman", "ding</w>"], ["beauti", "fully</w>"], ["go", "ats</w>"], ["su", "z"], ["re", "stri"], ["ext", "ent</w>"], ["to", "xic</w>"], ["scre", "w"], ["2", "3</w>"], ["pu", "dding</w>"], ["esti", "mate</w>"], ["fri", "ghtening</w>"], ["deter", "mine</w>"], ["e", "in"], ["ein", "stein</w>"], ["un", "fairly</w>"], ["compe", "lled</w>"], ["fi", "anc"], ["inse", "cure</w>"], ["di", "g"], ["a", "ven"], ["mb", "er"], ["b", "room</w>"], ["obe", "dient</w>"], ["poor", "ly</w>"], ["profe", "ssion</w>"], ["produ", "ces</w>"], ["parti", "ally</w>"], ["sli", "ghtest</w>"], ["fu", "r</w>"], ["p", "m</w>"], ["i", "phone</w>"], ["nie", "ce</w>"], ["scre", "w</w>"], ["came", "ls</w>"], ["fu", "ri"], ["\"", "of</w>"], ["sibl", "ing</w>"], ["la", "ces</w>"], ["ca", "ution</w>"], ["ha", "y</w>"], ["con", "text</w>"], ["r", "out"], ["rout", "ine</w>"], ["mor", "on</w>"], ["calcu", "la"], ["assa", "s"], ["ag", "itated</w>"], ["thou", "ghtful</w>"], ["jo", "int</w>"], ["broad", "cast</w>"], ["co", "llar</w>"], ["ani", "an</w>"], ["pro", "gre"], ["v", "est</w>"], ["qu", "et</w>"], ["col", "li"], ["ver", "dict</w>"], ["ri", "des</w>"], ["ven", "us</w>"], ["vita", "min"], ["vitamin", "s</w>"], ["rema", "ining</w>"], ["shor", "tage</w>"], ["ac", "qu"], ["concentr", "ating</w>"], ["reti", "ring</w>"], ["8", "0</w>"], ["th", "is"], ["hu", "gging</w>"], ["str", "a</w>"], ["gu", "ts</w>"], ["wi", "dow</w>"], ["critici", "ze</w>"], ["graph", "</w>"], ["cen", "tri"], ["encoura", "ging</w>"], ["smart", "phone</w>"], ["19", "0"], ["all", "ow"], ["antibio", "tics</w>"], ["k", "ong</w>"], ["pu", "pp"], ["so", "da</w>"], ["swee", "the"], ["sweethe", "art</w>"], ["cran", "e</w>"], ["e", "ur"], ["on", "'s</w>"], ["arrang", "ement</w>"], ["ri", "pe</w>"], ["ki", "sser</w>"], ["sha", "ped</w>"], ["s", "w"], ["r", "a</w>"], ["ligh", "ter</w>"], ["wi", "pe</w>"], ["ini", "st</w>"], ["clar", "inet</w>"], ["medi", "t"], ["temp", "les</w>"], ["u", "tes</w>"], ["civiliz", "ation</w>"], ["co", "me"], ["f", "law"], ["blon", "d</w>"], ["soci", "able</w>"], ["a", "qu"], ["bio", "logical</w>"], ["mete", "or</w>"], ["inte", "l"], ["fa", "ils</w>"], ["audi", "tori"], ["auditori", "um</w>"], ["ma", "ils</w>"], ["ris", "ked</w>"], ["anti", "que</w>"], ["head", "phones</w>"], ["consi", "ders</w>"], ["enti", "tled</w>"], ["hal", "f"], ["half", "way</w>"], ["sa", "ves</w>"], ["comp", "as"], ["electri", "cal</w>"], ["regar", "dless</w>"], ["grin", "ned</w>"], ["a", "ster"], ["har", "ry</w>"], ["quanti", "ty</w>"], ["re", "d"], ["mo", "tel</w>"], ["bil", "ingu"], ["bilingu", "al</w>"], ["j", "ani"], ["bri", "de</w>"], ["ho", "sti"], ["do", "zens</w>"], ["wan", "dered</w>"], ["fire", "man</w>"], ["squee", "zed</w>"], ["athle", "tes</w>"], ["refle", "ction</w>"], ["me", "li"], ["per", "sian</w>"], ["p", "al</w>"], ["cough", "ed</w>"], ["i’", "m</w>"], ["peel", "ing</w>"], ["par", "aly"], ["begin", "ners</w>"], ["towe", "ls</w>"], ["kn", "it</w>"], ["vo", "ting</w>"], ["techni", "cal</w>"], ["wa", "ges</w>"], ["valu", "es</w>"], ["b", "roo"], ["w", "a</w>"], ["bas", "is</w>"], ["th", "ly</w>"], ["a", "se</w>"], ["ban", "ds</w>"], ["p", "ouring</w>"], ["tex", "ts</w>"], ["bal", "let</w>"], ["sp", "ying</w>"], ["ty", "ping</w>"], ["char", "is"], ["tur", "tle</w>"], ["fra", "ud</w>"], ["pu", "shing</w>"], ["n", "ity</w>"], ["pin", "ea"], ["pinea", "pp"], ["exa", "mine</w>"], ["li", "cked</w>"], ["thor", "ough</w>"], ["epi", "so"], ["b", "ond</w>"], ["fu", "</w>"], ["5", "%</w>"], ["de", "part</w>"], ["sla", "ves</w>"], ["up", "dated</w>"], ["swe", "ating</w>"], ["bu", "gs</w>"], ["brief", "ly</w>"], ["sha", "ha"], ["shaha", "da</w>"], ["s", "man</w>"], ["tor", "n</w>"], ["pa", "used</w>"], ["de", "test</w>"], ["extin", "gui"], ["roosevel", "t</w>"], ["re", "f"], ["ref", "rain</w>"], ["bal", "anced</w>"], ["sub", "jects</w>"], ["inspira", "tion</w>"], ["run", "g</w>"], ["ch", "ores</w>"], ["ran", "ch</w>"], ["sch", "e"], ["tor", "na"], ["en", "da</w>"], ["re", "mor"], ["infla", "tion</w>"], ["achiev", "ement</w>"], ["clo", "cks</w>"], ["anxi", "ety</w>"], ["p", "roof"], ["cha", "tting</w>"], ["under", "stand"], ["dru", "mmer</w>"], ["a", "sh"], ["obnoxi", "ous</w>"], ["bea", "ches</w>"], ["decor", "ate</w>"], ["fire", "place</w>"], ["nove", "list</w>"], ["re", "write</w>"], ["cou", "p"], ["ro", "b</w>"], ["tis", "m</w>"], ["snu", "ck</w>"], ["m", "oo"], ["ful", "fill</w>"], ["dead", "ly</w>"], ["tro", "mb"], ["tromb", "one</w>"], ["disci", "pl"], ["questi", "on"], ["sho", "ved</w>"], ["ten", "th</w>"], ["cat", "ches</w>"], ["where", "abouts</w>"], ["vo", "d"], ["vod", "ka</w>"], ["war", "mly</w>"], ["theor", "ies</w>"], ["fat", "ter</w>"], ["rece", "ssion</w>"], ["yo", "ko"], ["yoko", "ha"], ["yokoha", "ma</w>"], ["h", "a</w>"], ["bar", "bar"], ["lou", "sy</w>"], ["popu", "lar"], ["popular", "ity</w>"], ["umbre", "lla"], ["umbrella", "s</w>"], ["bit", "es</w>"], ["mm", "a</w>"], ["cli", "cked</w>"], ["k", "ings</w>"], ["cur", "ly</w>"], ["de", "por"], ["v", "et</w>"], ["obli", "ged</w>"], ["z", "en"], ["rebe", "lli"], ["ite", "m</w>"], ["fac", "tories</w>"], ["ti", "les</w>"], ["recor", "der</w>"], ["ver", "ted</w>"], ["good", "night</w>"], ["imp", "er"], ["christi", "ans</w>"], ["s", "ally</w>"], ["spe", "ct"], ["sli", "m</w>"], ["seas", "ons</w>"], ["ang", "e"], ["pea", "ches</w>"], ["rob", "ot</w>"], ["histori", "c</w>"], ["to", "rious</w>"], ["infin", "ite</w>"], ["flo", "at</w>"], ["ra", "cism</w>"], ["al", "lies</w>"], ["bel", "gi"], ["er", "als</w>"], ["li", "sa</w>"], ["o", "kin"], ["okin", "awa</w>"], ["intimid", "ate</w>"], ["re", "acting</w>"], ["co", "mi"], ["presi", "den"], ["presiden", "t's</w>"], ["du", "mp</w>"], ["proce", "dure</w>"], ["ki", "e</w>"], ["vo", "m"], ["un", "beat"], ["unbeat", "able</w>"], ["fire", "works</w>"], ["regi", "stration</w>"], ["es", "'</w>"], ["came", "l</w>"], ["ro", "bo"], ["electr", "onic</w>"], ["tw", "enti"], ["twenti", "eth</w>"], ["si", "r"], ["cell", "o</w>"], ["un", "convinced</w>"], ["du", "ties</w>"], ["1", "3"], ["si", "zed</w>"], ["an", "nu"], ["wi", "ser</w>"], ["over", "coat</w>"], ["cran", "ky</w>"], ["veget", "ari"], ["g", "ag"], ["inst", "agram</w>"], ["zi", "pped</w>"], ["z", "a</w>"], ["re", "publi"], ["p", "rea"], ["d", "rain</w>"], ["to", "ss</w>"], ["sli", "d</w>"], ["pre", "y</w>"], ["re", "married</w>"], ["f", "s</w>"], ["develo", "ping</w>"], ["indi", "ans</w>"], ["ale", "x"], ["wi", "tch</w>"], ["apologi", "zing</w>"], ["princip", "les</w>"], ["dis", "satisfied</w>"], ["intimid", "ated</w>"], ["economi", "cs</w>"], ["ten", "dency</w>"], ["consider", "able</w>"], ["al", "oud</w>"], ["syste", "ms</w>"], ["nee", "dle</w>"], ["synon", "y"], ["figh", "ters</w>"], ["co", "ke</w>"], ["democra", "tic</w>"], ["spo", "ons</w>"], ["ab", "du"], ["bas", "s</w>"], ["ve", "ments</w>"], ["ke", "ttle</w>"], ["ti", "st</w>"], ["n", "oo"], ["jo", "e</w>"], ["mo", "ons</w>"], ["moun", "tain"], ["chair", "person</w>"], ["pi", "cas"], ["picas", "so</w>"], ["no", "ah</w>"], ["sa", "m</w>"], ["alas", "ka</w>"], ["hi", "lls</w>"], ["co", "-"], ["lear", "ns</w>"], ["cap", "acity</w>"], ["p", "us</w>"], ["tooth", "ache</w>"], ["but", "cher</w>"], ["ren", "o"], ["ca", "es"], ["ra", "pid</w>"], ["ha", "tr"], ["hatr", "ed</w>"], ["syri", "a</w>"], ["re", "levant</w>"], ["lo", "j"], ["loj", "ban</w>"], ["air", "planes</w>"], ["beg", "ging</w>"], ["liqu", "or</w>"], ["dri", "pping</w>"], ["di", "cta"], ["bra", "in"], ["v", "ouch</w>"], ["high", "-"], ["bul", "b</w>"], ["sta", "ined</w>"], ["confron", "ted</w>"], ["con", "cre"], ["concre", "te</w>"], ["tt", "able</w>"], ["\"", "oh</w>"], ["a", "k"], ["in", "visible</w>"], ["repa", "iring</w>"], ["u", "si"], ["r", "ant</w>"], ["ge", "ment</w>"], ["wa", "king</w>"], ["paper", "work</w>"], ["deliber", "ately</w>"], ["house", "work</w>"], ["preci", "sely</w>"], ["sp", "reading</w>"], ["f", "i</w>"], ["sper", "ing</w>"], ["assu", "red</w>"], ["sail", "or</w>"], ["ob", "served</w>"], ["fari", "d's</w>"], ["en", "ched</w>"], ["screw", "driver</w>"], ["ad", "mir"], ["go", "tta</w>"], ["n", "am</w>"], ["apologi", "es</w>"], ["seat", "belt</w>"], ["philoso", "pher</w>"], ["men", "d"], ["type", "writer</w>"], ["fe", "der"], ["bl", "own</w>"], ["vac", "c"], ["att", "acks</w>"], ["eag", "le</w>"], ["ca", "sin"], ["sun", "light</w>"], ["ho", "stage</w>"], ["ga", "ining</w>"], ["e", "ste"], ["dig", "ital</w>"], ["ali", "zed</w>"], ["candi", "dates</w>"], ["cur", "ry</w>"], ["si", "pped</w>"], ["veter", "in"], ["dolph", "ins</w>"], ["ma", "dri"], ["wa", "its</w>"], ["chil", "i</w>"], ["insi", "sts</w>"], ["a", "pp</w>"], ["there", "'ll</w>"], ["swe", "at"], ["plu", "mber</w>"], ["hero", "es</w>"], ["w", "arri"], ["coo", "ler</w>"], ["-", "ups</w>"], ["ele", "ments</w>"], ["bedr", "oo"], ["bedroo", "ms</w>"], ["rest", "room</w>"], ["d", "al"], ["stand", "ards</w>"], ["unexpe", "c"], ["unexpec", "tedly</w>"], ["pas", "sage</w>"], ["assas", "sin"], ["expor", "ts</w>"], ["communi", "st</w>"], ["com", "mu"], ["ar", "ts</w>"], ["elo", "qu"], ["wea", "kness</w>"], ["par", "o"], ["easi", "est</w>"], ["od", "ds</w>"], ["ac", "qui"], ["unti", "dy</w>"], ["quic", "ker</w>"], ["l", "or</w>"], ["she", "ll</w>"], ["k", "ur"], ["acqu", "itted</w>"], ["execu", "tive</w>"], ["cess", "or</w>"], ["ex-", "husband</w>"], ["cow", "ards</w>"], ["den", "tly</w>"], ["e", "th"], ["be", "ds</w>"], ["t", "ac"], ["w", "rink"], ["me", "ss"], ["environ", "mental</w>"], ["increa", "ses</w>"], ["wea", "ther's</w>"], ["gra", "m</w>"], ["physi", "cian</w>"], ["serv", "ants</w>"], ["din", "er</w>"], ["fier", "ce</w>"], ["blu", "sh</w>"], ["tis", "sue</w>"], ["mer", "'s</w>"], ["ad", "vo"], ["j", "iro</w>"], ["un", "finished</w>"], ["eur", "o</w>"], ["bru", "ise</w>"], ["prophe", "t</w>"], ["dang", "ers</w>"], ["attra", "ct</w>"], ["r", "ates</w>"], ["se", "c</w>"], ["voy", "age</w>"], ["bar", "re"], ["inv", "est</w>"], ["bro", "ad</w>"], ["hosp", "itals</w>"], ["ac", "ious</w>"], ["hu", "mble</w>"], ["u", "n</w>"], ["floo", "ds</w>"], ["ch", "i</w>"], ["ma", "i"], ["en", "dur"], ["arrang", "e</w>"], ["in", "gre"], ["appe", "aled</w>"], ["ru", "sty</w>"], ["rene", "w</w>"], ["neighb", "our"], ["ff", "s</w>"], ["teen", "age</w>"], ["hear", "ts</w>"], ["de", "ck</w>"], ["ti", "ps</w>"], ["sn", "acks</w>"], ["sou", "ven"], ["fur", "ni"], ["sk", "u"], ["ukra", "inian</w>"], ["intel", "lec"], ["stit", "ute</w>"], ["pr", "ank</w>"], ["amp", "ut"], ["amput", "ated</w>"], ["boo", "ked</w>"], ["s", "ã"], ["sã", "o</w>"], ["thre", "ats</w>"], ["o", "ak</w>"], ["mari", "o</w>"], ["don", "ald</w>"], ["peace", "fully</w>"], ["ch", "or"], ["bab", "y's</w>"], ["cro", "p</w>"], ["pu", "mp"], ["atten", "dant</w>"], ["p", "ine</w>"], ["lei", "sure</w>"], ["p", "each</w>"], ["plu", "to</w>"], ["rec", "ite</w>"], ["spin", "ning</w>"], ["wor", "ms</w>"], ["bar", "be"], ["barbe", "cu"], ["tr", "out</w>"], ["ta", "il"], ["guaran", "te"], ["influ", "enced</w>"], ["teamm", "ates</w>"], ["jani", "tor</w>"], ["1", "1"], ["re", "fer</w>"], ["cler", "k</w>"], ["survi", "vor</w>"], ["choco", "lates</w>"], ["shi", "ma</w>"], ["genu", "in"], ["genuin", "ely</w>"], ["univer", "sal</w>"], ["ar", "k</w>"], ["full", "-time</w>"], ["wa", "ving</w>"], ["cer", "ti"], ["bor", "ders</w>"], ["m", "and"], ["mand", "arin</w>"], ["argent", "ina</w>"], ["b", "arri"], ["tt", "ering</w>"], ["ang", "els</w>"], ["cour", "ses</w>"], ["i", "ans</w>"], ["occasion", "ally</w>"], ["accu", "sations</w>"], ["trans", "fer</w>"], ["recomm", "en"], ["who", "le"], ["pe", "ars</w>"], ["ci", "a</w>"], ["organi", "ze</w>"], ["ti", "gers</w>"], ["ch", "ard</w>"], ["inher", "ited</w>"], ["sharp", "ened</w>"], ["mi", "sp"], ["son", "g"], ["song", "writer</w>"], ["pro", "mp"], ["ss", "ment</w>"], ["esti", "mated</w>"], ["horri", "fied</w>"], ["spe", "ctive</w>"], ["pa", "tion</w>"], ["den", "mark</w>"], ["il", "and</w>"], ["land", "sca"], ["landsca", "pe</w>"], ["un", "reliable</w>"], ["self-", "conscious</w>"], ["episo", "de</w>"], ["ade", "qu"], ["hi", "de"], ["to", "e</w>"], ["ner", "'s</w>"], ["d", "ges</w>"], ["imp", "ul"], ["ma", "ths</w>"], ["responsi", "bilities</w>"], ["snor", "e</w>"], ["fi", "res</w>"], ["sa", "dly</w>"], ["par", "alle"], ["i", "e</w>"], ["desi", "red</w>"], ["over", "ly</w>"], ["der", "i"], ["t", "ari"], ["wheel", "chair</w>"], ["sea", "side</w>"], ["ni", "ce"], ["fa", "uc"], ["fauc", "et</w>"], ["inter", "viewed</w>"], ["archa", "eo"], ["choo", "sing</w>"], ["fi", "cally</w>"], ["emp", "ha"]], "token_to_id": {"!</w>": 0, "\"": 1, "\"</w>": 2, "\"how</w>": 3, "\"i'm</w>": 4, "\"i</w>": 5, "\"it's</w>": 6, "\"it</w>": 7, "\"no</w>": 8, "\"not</w>": 9, "\"of</w>": 10, "\"oh</w>": 11, "\"thank</w>": 12, "\"that's</w>": 13, "\"the</w>": 14, "\"they</w>": 15, "\"what</w>": 16, "\"yeah</w>": 17, "\"yes</w>": 18, "\"you</w>": 19, "$": 20, "$300</w>": 21, "$30</w>": 22, "%</w>": 23, "&": 24, "'": 25, "'</w>": 26, "'d</w>": 27, "'ll</w>": 28, "'re</w>": 29, "'s</w>": 30, "'ve</w>": 31, "(": 32, ")": 33, "+": 34, ",</w>": 35, "-": 36, "-</w>": 37, "-in-": 38, "-in-law</w>": 39, "-looking</w>": 40, "-minded</w>": 41, "-old</w>": 42, "-thirty</w>": 43, "-time</w>": 44, "-up</w>": 45, "-ups</w>": 46, "-year-old</w>": 47, ".</w>": 48, "/": 49, "0": 50, "0%</w>": 51, "000</w>": 52, "00</w>": 53, "0</w>": 54, "0s</w>": 55, "1": 56, "10": 57, "100</w>": 58, "10</w>": 59, "11": 60, "11</w>": 61, "12</w>": 62, "13": 63, "13</w>": 64, "14</w>": 65, "15</w>": 66, "16": 67, "16</w>": 68, "18": 69, "18</w>": 70, "19": 71, "190": 72, "193": 73, "194": 74, "195": 75, "196": 76, "197": 77, "198": 78, "199": 79, "19</w>": 80, "1</w>": 81, "1st</w>": 82, "2": 83, "20": 84, "200": 85, "2006</w>": 86, "200</w>": 87, "201": 88, "2013</w>": 89, "20</w>": 90, "20th</w>": 91, "22</w>": 92, "23</w>": 93, "24</w>": 94, "25</w>": 95, "2:30</w>": 96, "2</w>": 97, "3": 98, "300</w>": 99, "30</w>": 100, "3</w>": 101, "4": 102, "40</w>": 103, "4</w>": 104, "5": 105, "5%</w>": 106, "500</w>": 107, "50</w>": 108, "5</w>": 109, "5th</w>": 110, "6": 111, "60</w>": 112, "65</w>": 113, "6:30</w>": 114, "6</w>": 115, "7": 116, "7</w>": 117, "8": 118, "80</w>": 119, "8</w>": 120, "9": 121, "911</w>": 122, "9</w>": 123, ":": 124, ":00</w>": 125, ":30</w>": 126, ":</w>": 127, ";</w>": 128, "</w>": 129, "<eos>": 130, "<pad>": 131, "<sos>": 132, "<unk>": 133, "=": 134, "?</w>": 135, "_": 136, "a": 137, "a's</w>": 138, "a</w>": 139, "ab": 140, "ab</w>": 141, "aband": 142, "abandon</w>": 143, "abandoned</w>": 144, "abdu": 145, "abi": 146, "abilities</w>": 147, "ability</w>": 148, "able</w>": 149, "ables</w>": 150, "ably</w>": 151, "abo": 152, "aboard</w>": 153, "about</w>": 154, "abouts</w>": 155, "above</w>": 156, "abri": 157, "abroad</w>": 158, "abs": 159, "absence</w>": 160, "absent</w>": 161, "absolute</w>": 162, "absolutely</w>": 163, "absor": 164, "absorbed</w>": 165, "absurd</w>": 166, "abuse</w>": 167, "abused</w>": 168, "ac": 169, "ac</w>": 170, "acade": 171, "acce": 172, "accent</w>": 173, "accep": 174, "accept</w>": 175, "acceptable</w>": 176, "accepted</w>": 177, "access</w>": 178, "acciden": 179, "accident</w>": 180, "accidentally</w>": 181, "accidents</w>": 182, "accommo": 183, "accomp": 184, "accompani": 185, "accompanied</w>": 186, "accompany</w>": 187, "accompli": 188, "accomplish</w>": 189, "accomplished</w>": 190, "accor": 191, "according</w>": 192, "accoun": 193, "account</w>": 194, "accounts</w>": 195, "accu": 196, "accur": 197, "accurate</w>": 198, "accusations</w>": 199, "accuse</w>": 200, "accused</w>": 201, "accusing</w>": 202, "accustomed</w>": 203, "ach</w>": 204, "ache</w>": 205, "achi": 206, "achie": 207, "achiev": 208, "achieve</w>": 209, "achieved</w>": 210, "achievement</w>": 211, "acid</w>": 212, "acious</w>": 213, "acity</w>": 214, "ack": 215, "ack</w>": 216, "acked</w>": 217, "acknowle": 218, "acks</w>": 219, "acqu": 220, "acqua": 221, "acquaint": 222, "acquaintance</w>": 223, "acquainted</w>": 224, "acqui": 225, "acquired</w>": 226, "acquitted</w>": 227, "across</w>": 228, "act</w>": 229, "acted</w>": 230, "acting</w>": 231, "action</w>": 232, "actions</w>": 233, "active</w>": 234, "activi": 235, "activities</w>": 236, "activity</w>": 237, "actor</w>": 238, "actress</w>": 239, "acts</w>": 240, "actually</w>": 241, "acu": 242, "ad": 243, "ad</w>": 244, "ada": 245, "ada</w>": 246, "adam</w>": 247, "adapt</w>": 248, "add</w>": 249, "added</w>": 250, "addi": 251, "addict</w>": 252, "addicted</w>": 253, "adding</w>": 254, "addition</w>": 255, "address</w>": 256, "addressed</w>": 257, "ade": 258, "ade</w>": 259, "adequ": 260, "adi": 261, "adju": 262, "adjust</w>": 263, "adm": 264, "admi": 265, "admini": 266, "admir": 267, "admire</w>": 268, "admired</w>": 269, "admission</w>": 270, "admit</w>": 271, "admits</w>": 272, "admitted</w>": 273, "ado": 274, "adopt</w>": 275, "adopted</w>": 276, "adorable</w>": 277, "adore</w>": 278, "adult</w>": 279, "adults</w>": 280, "adv": 281, "advance</w>": 282, "advanced</w>": 283, "advanta": 284, "advantage</w>": 285, "adven": 286, "adventure</w>": 287, "adver": 288, "adverti": 289, "advertising</w>": 290, "advi": 291, "advice</w>": 292, "advise</w>": 293, "advised</w>": 294, "advo": 295, "af": 296, "affair</w>": 297, "affairs</w>": 298, "affe": 299, "affect</w>": 300, "affected</w>": 301, "affection</w>": 302, "affects</w>": 303, "afford</w>": 304, "afraid</w>": 305, "afri": 306, "africa</w>": 307, "african</w>": 308, "after": 309, "after</w>": 310, "afternoon</w>": 311, "afterwards</w>": 312, "ag": 313, "aga": 314, "again": 315, "again</w>": 316, "against</w>": 317, "age</w>": 318, "aged</w>": 319, "agent</w>": 320, "ager</w>": 321, "ages</w>": 322, "agger": 323, "aggre": 324, "aggressive</w>": 325, "agitated</w>": 326, "ago</w>": 327, "agra": 328, "agram</w>": 329, "agre": 330, "agree</w>": 331, "agreed</w>": 332, "agreement</w>": 333, "agrees</w>": 334, "agri": 335, "agu": 336, "ah</w>": 337, "ahead</w>": 338, "ai": 339, "aid</w>": 340, "aim</w>": 341, "aimed</w>": 342, "ain": 343, "ain't</w>": 344, "air": 345, "air</w>": 346, "aircraft</w>": 347, "airplane</w>": 348, "airplanes</w>": 349, "airport</w>": 350, "ak": 351, "ak</w>": 352, "aka</w>": 353, "al": 354, "al</w>": 355, "ala": 356, "alarm</w>": 357, "alas": 358, "alaska</w>": 359, "alberto</w>": 360, "album</w>": 361, "alco": 362, "alcohol</w>": 363, "alcoholic</w>": 364, "ald</w>": 365, "ale": 366, "ale</w>": 367, "aled</w>": 368, "alert</w>": 369, "alex": 370, "alger": 371, "algeria</w>": 372, "algerian</w>": 373, "algi": 374, "algiers</w>": 375, "ali": 376, "ali</w>": 377, "alibi</w>": 378, "alice</w>": 379, "alid</w>": 380, "alien</w>": 381, "aliens</w>": 382, "alike</w>": 383, "aling</w>": 384, "alist</w>": 385, "ality</w>": 386, "alive</w>": 387, "alized</w>": 388, "all": 389, "all</w>": 390, "allah</w>": 391, "alle": 392, "alled</w>": 393, "aller": 394, "allergic</w>": 395, "alley</w>": 396, "allies</w>": 397, "allow": 398, "allow</w>": 399, "allowed</w>": 400, "allows</w>": 401, "ally</w>": 402, "almost</w>": 403, "alo": 404, "alone</w>": 405, "along</w>": 406, "aloud</w>": 407, "alpha": 408, "alphabet</w>": 409, "already</w>": 410, "alright</w>": 411, "als</w>": 412, "also</w>": 413, "alter": 414, "alternative</w>": 415, "although</w>": 416, "alty</w>": 417, "alu": 418, "always</w>": 419, "am": 420, "am</w>": 421, "ama": 422, "amat": 423, "amateur</w>": 424, "amaz": 425, "amazed</w>": 426, "amazing</w>": 427, "amb": 428, "ambassador</w>": 429, "ambi": 430, "ambition</w>": 431, "ambitious</w>": 432, "ambulance</w>": 433, "ame": 434, "amelia</w>": 435, "amends</w>": 436, "ameri": 437, "america": 438, "america</w>": 439, "american</w>": 440, "americans</w>": 441, "amon": 442, "among</w>": 443, "amoun": 444, "amount</w>": 445, "amounts</w>": 446, "amp": 447, "amputated</w>": 448, "amu": 449, "amused</w>": 450, "amusing</w>": 451, "an": 452, "an</w>": 453, "ana</w>": 454, "analy": 455, "anc": 456, "ance": 457, "ance</w>": 458, "ances</w>": 459, "ancient</w>": 460, "ancy</w>": 461, "and": 462, "and</w>": 463, "anda</w>": 464, "ander": 465, "anderson</w>": 466, "aned</w>": 467, "ang": 468, "ang</w>": 469, "ange": 470, "angel</w>": 471, "angels</w>": 472, "anger</w>": 473, "angle</w>": 474, "angrily</w>": 475, "angry</w>": 476, "angu": 477, "ani": 478, "ania</w>": 479, "anian</w>": 480, "anic</w>": 481, "anim": 482, "animal</w>": 483, "animals</w>": 484, "anish</w>": 485, "anist</w>": 486, "anity</w>": 487, "ank</w>": 488, "ankle</w>": 489, "ann": 490, "ann</w>": 491, "anne</w>": 492, "anni": 493, "anniversary</w>": 494, "anno": 495, "announ": 496, "announced</w>": 497, "announcement</w>": 498, "annoy</w>": 499, "annoyed</w>": 500, "annoying</w>": 501, "annu": 502, "ano</w>": 503, "anon": 504, "anonymous</w>": 505, "another</w>": 506, "ans": 507, "ans</w>": 508, "answ": 509, "answer</w>": 510, "answered</w>": 511, "answering</w>": 512, "answers</w>": 513, "ant</w>": 514, "anta": 515, "anti": 516, "antibio": 517, "antibiotics</w>": 518, "anticip": 519, "anticipate</w>": 520, "anticipated</w>": 521, "antique</w>": 522, "antly</w>": 523, "ants</w>": 524, "anu": 525, "anxi": 526, "anxiety</w>": 527, "anxious</w>": 528, "any": 529, "any's</w>": 530, "any</w>": 531, "anybody's</w>": 532, "anybody</w>": 533, "anymore</w>": 534, "anyone's</w>": 535, "anyone</w>": 536, "anything</w>": 537, "anytime</w>": 538, "anyway</w>": 539, "anywhere</w>": 540, "ao": 541, "apart</w>": 542, "apartment</w>": 543, "apo": 544, "apologi": 545, "apologies</w>": 546, "apologize</w>": 547, "apologized</w>": 548, "apologizing</w>": 549, "apology</w>": 550, "app": 551, "app</w>": 552, "appar": 553, "apparently</w>": 554, "appe": 555, "appeal</w>": 556, "appealed</w>": 557, "appear": 558, "appear</w>": 559, "appearance</w>": 560, "appeared</w>": 561, "appears</w>": 562, "appeti": 563, "appetite</w>": 564, "applau": 565, "applauded</w>": 566, "apple</w>": 567, "apples</w>": 568, "appli": 569, "application</w>": 570, "applied</w>": 571, "apply</w>": 572, "appo": 573, "appointed</w>": 574, "appointment</w>": 575, "appointments</w>": 576, "appreci": 577, "appreciate</w>": 578, "appreciated</w>": 579, "appro": 580, "approa": 581, "approach</w>": 582, "approached</w>": 583, "approaching</w>": 584, "appropri": 585, "appropriate</w>": 586, "approval</w>": 587, "approve</w>": 588, "approved</w>": 589, "approximately</w>": 590, "apri": 591, "april</w>": 592, "apt</w>": 593, "aqu": 594, "ar": 595, "ar</w>": 596, "arab": 597, "arabic</w>": 598, "arable</w>": 599, "arch": 600, "archa": 601, "archaeo": 602, "archite": 603, "architect</w>": 604, "ard</w>": 605, "ards</w>": 606, "are": 607, "are</w>": 608, "area</w>": 609, "areas</w>": 610, "ared</w>": 611, "aren't</w>": 612, "argent": 613, "argentina</w>": 614, "argu": 615, "argue</w>": 616, "argued</w>": 617, "arguing</w>": 618, "argument</w>": 619, "arguments</w>": 620, "ari": 621, "arian</w>": 622, "aries</w>": 623, "arily</w>": 624, "arin</w>": 625, "aring</w>": 626, "arium</w>": 627, "ark</w>": 628, "arm": 629, "arm</w>": 630, "armed</w>": 631, "armen": 632, "arms</w>": 633, "army</w>": 634, "around</w>": 635, "arr": 636, "arrang": 637, "arrange</w>": 638, "arranged</w>": 639, "arrangement</w>": 640, "arrangements</w>": 641, "arre": 642, "arrest</w>": 643, "arrested</w>": 644, "arri": 645, "arrival</w>": 646, "arrive</w>": 647, "arrived</w>": 648, "arrives</w>": 649, "arriving</w>": 650, "arrog": 651, "arrogant</w>": 652, "ars</w>": 653, "art</w>": 654, "arti": 655, "article</w>": 656, "articles</w>": 657, "artificial</w>": 658, "artist</w>": 659, "artistic</w>": 660, "artists</w>": 661, "arts</w>": 662, "ary</w>": 663, "as": 664, "as</w>": 665, "ase</w>": 666, "ased</w>": 667, "ash": 668, "ashamed</w>": 669, "asi": 670, "asia</w>": 671, "asian</w>": 672, "aside</w>": 673, "ask</w>": 674, "asked</w>": 675, "asking</w>": 676, "asks</w>": 677, "asleep</w>": 678, "asp": 679, "aspir": 680, "aspirin</w>": 681, "ass</w>": 682, "assa": 683, "assas": 684, "assassin": 685, "assault</w>": 686, "asse": 687, "assemb": 688, "asser": 689, "assi": 690, "assig": 691, "assignment</w>": 692, "assist</w>": 693, "assistance</w>": 694, "assistant</w>": 695, "associ": 696, "assu": 697, "assume</w>": 698, "assumed</w>": 699, "assure</w>": 700, "assured</w>": 701, "ast</w>": 702, "aster": 703, "astoni": 704, "astonished</w>": 705, "astro": 706, "astronau": 707, "astronaut</w>": 708, "astrono": 709, "astronomy</w>": 710, "asy</w>": 711, "asylum</w>": 712, "at": 713, "at</w>": 714, "ata</w>": 715, "ate": 716, "ate</w>": 717, "ated</w>": 718, "ately</w>": 719, "ater</w>": 720, "ates</w>": 721, "ath": 722, "athe": 723, "atheist</w>": 724, "athle": 725, "athlete</w>": 726, "athletes</w>": 727, "athletic</w>": 728, "ati": 729, "atic</w>": 730, "ating</w>": 731, "ation</w>": 732, "ations</w>": 733, "ative</w>": 734, "atlan": 735, "atlantic</w>": 736, "atmo": 737, "atmosphere</w>": 738, "ato": 739, "atomic</w>": 740, "ator</w>": 741, "atri": 742, "ats</w>": 743, "att": 744, "atta": 745, "attached</w>": 746, "attack</w>": 747, "attacked</w>": 748, "attacks</w>": 749, "attemp": 750, "attempt</w>": 751, "attempted</w>": 752, "atten": 753, "attend</w>": 754, "attendant</w>": 755, "attended</w>": 756, "attending</w>": 757, "attention</w>": 758, "attentive</w>": 759, "atter": 760, "attic</w>": 761, "attitude</w>": 762, "attor": 763, "attorney</w>": 764, "attra": 765, "attract</w>": 766, "attracted</w>": 767, "attractive</w>": 768, "atu": 769, "ature</w>": 770, "atures</w>": 771, "au": 772, "audi": 773, "audience</w>": 774, "auditorium</w>": 775, "august</w>": 776, "aun": 777, "aunt's</w>": 778, "aunt</w>": 779, "austra": 780, "australia</w>": 781, "australian</w>": 782, "austri": 783, "austria</w>": 784, "auth": 785, "author</w>": 786, "authorities</w>": 787, "authority</w>": 788, "auto": 789, "automa": 790, "automobile</w>": 791, "autumn</w>": 792, "ava": 793, "availa": 794, "available</w>": 795, "aven": 796, "average</w>": 797, "avo": 798, "avoi": 799, "avoid</w>": 800, "avoided</w>": 801, "avoiding</w>": 802, "awa</w>": 803, "awake</w>": 804, "award</w>": 805, "aware</w>": 806, "away</w>": 807, "awesome</w>": 808, "awful</w>": 809, "awfully</w>": 810, "awk": 811, "awkward</w>": 812, "awoke</w>": 813, "ax</w>": 814, "b": 815, "b</w>": 816, "ba": 817, "ba</w>": 818, "bab": 819, "babies</w>": 820, "baby": 821, "baby's</w>": 822, "baby</w>": 823, "babysit": 824, "babysit</w>": 825, "babysitter</w>": 826, "bac": 827, "bachel": 828, "bachelor</w>": 829, "back": 830, "back</w>": 831, "backed</w>": 832, "background</w>": 833, "backpack</w>": 834, "backs</w>": 835, "backwards</w>": 836, "backyard</w>": 837, "bacon</w>": 838, "bad": 839, "bad</w>": 840, "badly</w>": 841, "bag": 842, "bag</w>": 843, "bage</w>": 844, "baggage</w>": 845, "bags</w>": 846, "bait</w>": 847, "bak": 848, "bake</w>": 849, "baked</w>": 850, "bakery</w>": 851, "baking</w>": 852, "bakir</w>": 853, "bal": 854, "bal</w>": 855, "balance</w>": 856, "balanced</w>": 857, "balcony</w>": 858, "bald</w>": 859, "ball": 860, "ball</w>": 861, "ballet</w>": 862, "ballo": 863, "balloon</w>": 864, "balls</w>": 865, "ban": 866, "ban</w>": 867, "banana</w>": 868, "bananas</w>": 869, "band": 870, "band's</w>": 871, "band</w>": 872, "banda": 873, "bands</w>": 874, "bang": 875, "banjo</w>": 876, "bank": 877, "bank</w>": 878, "bankru": 879, "banks</w>": 880, "banned</w>": 881, "bar": 882, "bar</w>": 883, "barbar": 884, "barbecu": 885, "barber</w>": 886, "bare": 887, "bare</w>": 888, "barefoot</w>": 889, "barely</w>": 890, "bargain</w>": 891, "bark</w>": 892, "barking</w>": 893, "barn</w>": 894, "barre": 895, "barri": 896, "bars</w>": 897, "bartender</w>": 898, "bas": 899, "base": 900, "base</w>": 901, "baseball</w>": 902, "based</w>": 903, "basement</w>": 904, "basi": 905, "basic</w>": 906, "basically</w>": 907, "basis</w>": 908, "basket</w>": 909, "basketball</w>": 910, "bass</w>": 911, "bat": 912, "bat</w>": 913, "bath": 914, "bath</w>": 915, "bathing</w>": 916, "bathroom</w>": 917, "bathtub</w>": 918, "batt": 919, "batter": 920, "batteries</w>": 921, "battery</w>": 922, "battle</w>": 923, "bbi": 924, "bby</w>": 925, "be": 926, "be</w>": 927, "bea": 928, "beach</w>": 929, "beaches</w>": 930, "beans</w>": 931, "bear</w>": 932, "beard</w>": 933, "bears</w>": 934, "beat": 935, "beat</w>": 936, "beaten</w>": 937, "beating</w>": 938, "beauti": 939, "beautiful</w>": 940, "beautifully</w>": 941, "beauty</w>": 942, "became</w>": 943, "because</w>": 944,
[...]
