{"merges": [[".", "</w>"], ["n", "</w>"], ["r", "</w>"], ["m", "</w>"], ["i", "</w>"], ["a", "</w>"], ["e", "</w>"], ["b", "i"], ["a", "r"], ["ı", "</w>"], ["k", "</w>"], ["t", "o"], ["u", "</w>"], ["y", "o"], ["m", "a"], ["e", "r"], ["a", "n"], ["y", "a"], ["to", "m</w>"], ["m", "e"], ["d", "e"], ["i", "n</w>"], ["i", "n"], ["o", "n"], ["l", "e"], ["bi", "r</w>"], ["l", "a"], ["d", "a"], ["k", "a"], ["d", "i"], ["ı", "n"], ["?", "</w>"], ["z", "</w>"], ["e", "n"], ["u", "n"], ["yo", "r"], ["u", "n</w>"], ["l", "i"], ["o", "l"], ["e", "n</w>"], ["d", "a</w>"], [",", "</w>"], ["i", "s"], ["d", "ı"], ["e", "t"], ["u", "m</w>"], ["a", "l"], ["d", "i</w>"], ["yo", "r</w>"], ["i", "ç"], ["s", "a"], ["t", "e"], ["ya", "p"], ["i", "l"], ["d", "ü"], ["b", "a"], ["i", "m</w>"], ["r", "a"], ["o", "</w>"], ["d", "u"], ["m", "'"], ["ı", "n</w>"], ["to", "m'"], ["ü", "n"], ["yor", "um</w>"], ["e", "k"], ["h", "a"], ["t", "i"], ["g", "i"], ["e", "y"], ["b", "u</w>"], ["un", "u</w>"], ["c", "a"], ["t", "a"], ["m", "i"], ["ç", "o"], ["d", "ı</w>"], ["d", "e</w>"], ["s", "ö"], ["m", "ar"], ["in", "i</w>"], ["g", "e"], ["g", "ö"], ["l", "ar"], ["ı", "m</w>"], ["c", "e"], ["sö", "y"], ["mar", "y"], ["ın", "ı</w>"], ["de", "n</w>"], ["m", "i</w>"], ["iç", "in</w>"], ["o", "r"], ["l", "</w>"], ["e", "v"], ["v", "a"], ["ço", "k</w>"], ["i", "y"], ["b", "u"], ["bi", "li"], ["l", "a</w>"], ["de", "ğ"], ["ar", "a"], ["söy", "le"], ["t", "ı"], ["s", "ı"], ["m", "u"], ["l", "e</w>"], ["g", "er"], ["la", "r</w>"], ["ı", "ş"], ["ol", "du"], ["tom'", "un</w>"], ["n", "e</w>"], ["c", "e</w>"], ["k", "i"], ["n", "e"], ["y", "a</w>"], ["on", "u</w>"], ["d", "u</w>"], ["z", "a"], ["gö", "r"], ["ş", "ey"], ["ma", "k</w>"], ["e", "r</w>"], ["v", "e</w>"], ["da", "n</w>"], ["an", "a</w>"], ["me", "k</w>"], ["b", "en"], ["b", "en</w>"], ["k", "u"], ["oldu", "ğ"], ["y", "e"], ["değ", "il"], ["l", "ı"], ["t", "</w>"], ["mary", "'"], ["l", "er"], ["di", "ğ"], ["e", "s"], ["ka", "da"], ["k", "t"], ["ün", "ü"], ["g", "ü"], ["bi", "r"], ["is", "te"], ["m", "ı"], ["va", "r</w>"], ["b", "unu</w>"], ["ın", "da</w>"], ["k", "ı"], ["ç", "</w>"], ["dı", "m</w>"], ["o", "la"], ["s", "un</w>"], ["s", "en"], ["k", "on"], ["h", "a</w>"], ["y", "ar"], ["v", "er"], ["ca", "ğ"], ["t", "ü"], ["dü", "ş"], ["da", "ha</w>"], ["y", "e</w>"], ["m", "a</w>"], ["an", "ı"], ["m", "ı</w>"], ["t", "i</w>"], ["on", "un</w>"], ["i", "z"], ["y", "ü"], ["i", "ş"], ["k", "i</w>"], ["l", "ü"], ["ba", "ş"], ["i", "m"], ["ce", "ğ"], ["za", "ma"], ["değil", "</w>"], ["ol", "ma"], ["kon", "u"], ["y", "ı</w>"], ["di", "m</w>"], ["bi", "l"], ["yap", "ma"], ["i", "z</w>"], ["gi", "t"], ["olduğ", "unu</w>"], ["kada", "r</w>"], ["l", "i</w>"], ["le", "r</w>"], ["b", "ana</w>"], ["ş", "a"], ["şey", "</w>"], ["n", "in</w>"], ["p", "</w>"], ["iy", "i</w>"], ["k", "ar"], ["ç", "al"], ["di", "r</w>"], ["i", "̇"], ["y", "ı"], ["h", "iç"], ["ö", "n"], ["t", "ı</w>"], ["l", "ı</w>"], ["t", "u"], ["is", "ti"], ["b", "o"], ["l", "an"], ["h", "er</w>"], ["k", "e"], ["ğ", "r"], ["i", "r"], ["dı", "ğ"], ["ın", "a</w>"], ["ç", "ı"], ["m", "ü"], ["n", "a"], ["ş", "</w>"], ["s", "ev"], ["ca", "k</w>"], ["in", "e</w>"], ["s", "ı</w>"], ["mary'", "nin</w>"], ["mary", "</w>"], ["b", "ü"], ["f", "a"], ["çal", "ış"], ["t", "en</w>"], ["bu", "ra"], ["yor", "du</w>"], ["et", "me"], ["e", "di"], ["ç", "ek"], ["ş", "ı"], ["yap", "a"], ["y", "i</w>"], ["söyle", "di</w>"], ["lar", "ı</w>"], ["et", "</w>"], ["bili", "r</w>"], ["zama", "n</w>"], ["yor", "sun</w>"], ["konu", "ş"], ["ü", "r"], ["i", "k"], ["ger", "ek"], ["e", "l"], ["e", "de"], ["a", "y"], ["d", "o"], ["u", "z</w>"], ["s", "t"], ["or", "un"], ["dı", "r</w>"], ["ka", "l"], ["d", "er"], ["ben", "im</w>"], ["s", "an"], ["k", "en"], ["s", "e"], ["hiç", "</w>"], ["gü", "n</w>"], ["ce", "k</w>"], ["ge", "l"], ["p", "ar"], ["c", "a</w>"], ["on", "a</w>"], ["u", "y"], ["ne", "den</w>"], ["ha", "k"], ["bi", "z"], ["e", "ğ"], ["c", "u"], ["ge", "ç"], ["s", "en</w>"], ["k", "ında</w>"], ["ger", "çek"], ["s", "ın</w>"], ["le", "n"], ["h", "e"], ["s", "on"], ["diğ", "ini</w>"], ["s", "i</w>"], ["düş", "ün"], ["d", "um</w>"], ["sa", "de"], ["sade", "ce</w>"], ["b", "un"], ["s", "in</w>"], ["ö", "ğr"], ["k", "o"], ["n", "er"], ["s", "e</w>"], ["et", "ti</w>"], ["m", "is"], ["tom'", "a</w>"], ["gerçek", "ten</w>"], ["b", "i</w>"], ["s", "ana</w>"], ["z", "orun"], ["p", "a"], ["in", "de</w>"], ["s", "or"], ["t", "a</w>"], ["n", "'"], ["m", "e</w>"], ["k", "es"], ["s", "o"], ["i", "yor</w>"], ["r", "an"], ["s", "ür"], ["o", "ku"], ["v", "ar"], ["sen", "in</w>"], ["na", "sı"], ["ma", "ya</w>"], ["k", "ö"], ["bura", "da</w>"], ["yar", "dım</w>"], ["sa", "mi</w>"], ["s", "to"], ["bi", "z</w>"], ["dığ", "ını</w>"], ["m", "u</w>"], ["isti", "yorum</w>"], ["nası", "l</w>"], ["i", "h"], ["ben", "i</w>"], ["hak", "kında</w>"], ["gi", "bi</w>"], ["a", "s"], ["bo", "sto"], ["ı", "z</w>"], ["on", "lar</w>"], ["r", "u"], ["dü", "</w>"], ["ler", "i</w>"], ["ti", "ğ"], ["yo", "k</w>"], ["k", "a</w>"], ["e", "k</w>"], ["l", "u"], ["mi", "yorum</w>"], ["düş", "ünü"], ["gör", "ünü"], ["ki", "m"], ["k", "ü"], ["bili", "r"], ["bosto", "n'"], ["!", "</w>"], ["ş", "im"], ["h", "er"], ["ı", "r"], ["cağ", "ını</w>"], ["ol", "u"], ["ço", "cu"], ["mu", "sun</w>"], ["s", "</w>"], ["s", "i"], ["tı", "ğ"], ["s", "ını</w>"], ["e", "l</w>"], ["ın", "dan</w>"], ["b", "ek"], ["r", "ü"], ["bi", "ra"], ["mis", "in</w>"], ["ön", "ce</w>"], ["bü", "yü"], ["on", "lar"], ["y", "er"], ["k", "en</w>"], ["an", "la"], ["ar", "kada"], ["l", "u</w>"], ["ç", "a"], ["ma", "n"], ["bira", "z</w>"], ["il", "e</w>"], ["c", "ı</w>"], ["ış", "</w>"], ["b", "ı"], ["r", "a</w>"], ["bi", "le"], ["tom'", "u</w>"], ["ye", "me"], ["ara", "k</w>"], ["e", "m"], ["cağ", "ım</w>"], ["sı", "z"], ["t", "er"], ["d", "in</w>"], ["ş", "ar"], ["sen", "i</w>"], ["r", "ı"], ["mı", "yorum</w>"], ["o", "y"], ["u", "z"], ["s", "a</w>"], ["z", "ı</w>"], ["t", "an"], ["ü", "z"], ["yap", "mak</w>"], ["zama", "n"], ["m", "er"], ["git", "me"], ["li", "m</w>"], ["le", "y"], ["ta", "n</w>"], ["i", "r</w>"], ["y", "an"], ["e", "de</w>"], ["h", "an"], ["ceğ", "im</w>"], ["y", "en"], ["mi", "yor</w>"], ["h", "o"], ["la", "dı</w>"], ["in", "den</w>"], ["dü", "ğ"], ["ti", "r"], ["mary'", "ye</w>"], ["ceğ", "ini</w>"], ["s", "anı"], ["öğr", "en"], ["s", "ın"], ["i", "mi</w>"], ["b", "e"], ["z", "la</w>"], ["bu", "l"], ["yü", "z"], ["i", "mi"], ["söyle", "me"], ["ünü", "</w>"], ["ma", "yı</w>"], ["in", "iz</w>"], ["ti", "ya"], ["yor", "uz</w>"], ["r", "ım</w>"], ["o", "ra"], ["iz", "in</w>"], ["şey", "i</w>"], ["k", "or"], ["p", "o"], ["a", "da"], ["ö", "l"], ["g", "i</w>"], ["f", "en</w>"], ["şim", "di</w>"], ["f", "ran"], ["du", "y"], ["son", "ra</w>"], ["lü", "t"], ["lüt", "fen</w>"], ["ih", "tiya"], ["ki", "ş"], ["te", "k"], ["ha", "ya"], ["yap", "ı"], ["ol", "arak</w>"], ["ba", "h"], ["ar", "tı"], ["a", "ma</w>"], ["ka", "y"], ["t", "im</w>"], ["sa", "a"], ["ü", "ç</w>"], ["fa", "zla</w>"], ["ka", "ç</w>"], ["arkada", "ş"], ["u", "mu"], ["ü", "</w>"], ["li", "y"], ["ki", "ta"], ["dü", "n</w>"], ["al", "ı"], ["ge", "le"], ["h", "i"], ["bili", "yorum</w>"], ["ey", "e</w>"], ["ha", "f"], ["bun", "un</w>"], ["g", "ün"], ["p", "lan"], ["büyü", "k</w>"], ["tü", "</w>"], ["t", "e</w>"], ["yor", "dum</w>"], ["bu", "gün</w>"], ["as", "la</w>"], ["ya", "k"], ["me", "n</w>"], ["ç", "a</w>"], ["v", "u"], ["me", "ye</w>"], ["zorun", "da</w>"], ["h", "â"], ["y", "ım</w>"], ["tiğ", "ini</w>"], ["sanı", "rım</w>"], ["ya", "ğ"], ["in", "in</w>"], ["fran", "sız"], ["l", "â"], ["h", "ar"], ["ş", "ek"], ["ya", "şa"], ["me", "di</w>"], ["lâ", "</w>"], ["hâ", "lâ</w>"], ["çı", "k"], ["t", "ın</w>"], ["g", "en"], ["a", "k"], ["i̇", "n"], ["b", "a</w>"], ["on", "un"], ["y", "dı</w>"], ["li", "k"], ["her", "kes"], ["s", "u"], ["tı", "r"], ["yap", "tığ"], ["mu", "t"], ["ö", "z"], ["t", "r"], ["tü", "n</w>"], ["hiç", "bir</w>"], ["bı", "ra"], ["kt", "ı</w>"], ["ol", "du</w>"], ["k", "an"], ["a", "ğ"], ["y", "et"], ["dı", "n</w>"], ["y", "</w>"], ["al", "</w>"], ["ya", "ş"], ["ma", "dı</w>"], ["ş", "e"], ["er", "i</w>"], ["s", "iz"], ["f", "</w>"], ["ka", "p"], ["bü", "tün</w>"], ["gi", "de"], ["dü", "m</w>"], ["ge", "ce</w>"], ["ya", "z"], ["yen", "i</w>"], ["ger", "i</w>"], ["ka", "z"], ["s", "un"], ["r", "e"], ["a", "la"], ["s", "ini</w>"], ["ı", "mı</w>"], ["te", "k</w>"], ["mı", "z</w>"], ["f", "ar"], ["gü", "z"], ["baş", "ka</w>"], ["du", "r"], ["onun", "la</w>"], ["k", "tan</w>"], ["s", "ına</w>"], ["le", "n</w>"], ["k", "lar"], ["han", "gi</w>"], ["de", "n"], ["t", "ım</w>"], ["h", "is"], ["so", "n</w>"], ["bili", "yor</w>"], ["kt", "e</w>"], ["g", "u"], ["görünü", "yor</w>"], ["is", "i</w>"], ["ho", "ş"], ["t", "anı"], ["ner", "ede</w>"], ["do", "ğr"], ["r", "o"], ["edi", "yorum</w>"], ["zorun", "da"], ["o", "tu"], ["ma", "m</w>"], ["s", "iz</w>"], ["fransız", "ca</w>"], ["et", "mek</w>"], ["ğ", "i</w>"], ["değ", "i"], ["ö", "y"], ["çalış", "ı"], ["ma", "ya"], ["ma", "z</w>"], ["'", "da</w>"], ["ola", "cak</w>"], ["dü", "n"], ["m", "ış</w>"], ["v", "en"], ["uz", "un</w>"], ["ol", "</w>"], ["ler", "ini</w>"], ["mary'", "yi</w>"], ["ku", "l"], ["ar", "ı"], ["ba", "ba"], ["c", "ı"], ["ö", "ne"], ["var", "dı</w>"], ["yar", "ın</w>"], ["bir", "li"], ["an", "a"], ["k", "im</w>"], ["ge", "li"], ["te", "me"], ["his", "s"], ["mi", "y"], ["mu", "h"], ["ver", "di</w>"], ["bek", "le"], ["lik", "le</w>"], ["ev", "e</w>"], ["h", "al"], ["ma", "lı"], ["iş", "</w>"], ["artı", "k</w>"], ["biz", "e</w>"], ["güz", "el</w>"], ["ra", "r</w>"], ["i", "k</w>"], ["r", "es"], ["da", "ki</w>"], ["me", "yi</w>"], ["i", "yorum</w>"], ["o", "n</w>"], ["c", "i</w>"], ["gö", "z"], ["kı", "z"], ["in", "le</w>"], ["sa", "n</w>"], ["tom'", "la</w>"], ["a", "p"], ["isti", "yor</w>"], ["git", "mek</w>"], ["ara", "ba"], ["c", "ek"], ["k", "ça</w>"], ["l", "anı"], ["ma", "n</w>"], ["yı", "z</w>"], ["la", "n</w>"], ["o", "da"], ["di", "k"], ["n", "ı</w>"], ["kö", "p"], ["muh", "teme"], ["ya", "l"], ["ku", "r"], ["sı", "z</w>"], ["t", "ar"], ["im", "le</w>"], ["birli", "kte</w>"], ["te", "le"], ["in", "san"], ["du", "r</w>"], ["d", "ön"], ["kim", "se</w>"], ["muhteme", "len</w>"], ["ha", "z"], ["diğ", "i</w>"], ["yı", "l"], ["me", "ye"], ["he", "p"], ["ol", "mak</w>"], ["oldu", "kça</w>"], ["d", "in"], ["c", "i"], ["tek", "rar</w>"], ["iy", "e</w>"], ["deği", "lim</w>"], ["da", "v"], ["a", "t"], ["imi", "z</w>"], ["al", "dı</w>"], ["bir", "i</w>"], ["gü", "ven"], ["kı", "z</w>"], ["öy", "le</w>"], ["ın", "ın</w>"], ["u", "t"], ["sa", "hi"], ["ka", "la"], ["ora", "da</w>"], ["me", "z</w>"], ["ı", "z"], ["sı", "k</w>"], ["b", "an"], ["o", "to"], ["saa", "t</w>"], ["kiş", "i</w>"], ["boston'", "a</w>"], ["ğ", "u"], ["i", "ki</w>"], ["ş", "u</w>"], ["kar", "de"], ["bir", "kaç</w>"], ["kt", "a</w>"], ["ye", "mek</w>"], ["söy", "lü"], ["ara", "r</w>"], ["t", "ara"], ["s", "es"], ["ü", "z</w>"], ["gerek", "iyor</w>"], ["boston'", "da</w>"], ["doğr", "u</w>"], ["üz", "er"], ["kay", "b"], ["ey", "i</w>"], ["lı", "k</w>"], ["ka", "t"], ["herkes", "</w>"], ["kö", "tü</w>"], ["p", "ara"], ["ka", "h"], ["yap", "tı</w>"], ["k", "ı</w>"], ["lı", "ğ"], ["par", "a</w>"], ["haf", "ta</w>"], ["me", "dim</w>"], ["olma", "dığını</w>"], ["on", "ları</w>"], ["yı", "l</w>"], ["olduğ", "un"], ["gör", "ün"], ["ü", "k</w>"], ["n", "ın</w>"], ["ma", "dım</w>"], ["onlar", "ın</w>"], ["e", "der"], ["m", "da</w>"], ["ma", "sı</w>"], ["değ", "iş"], ["i", "dir</w>"], ["i", "le"], ["uy", "u"], ["s", "ında</w>"], ["yo", "kt"], ["gi", "r"], ["rı", "l"], ["ca", "k"], ["değil", "di</w>"], ["tara", "f"], ["t", "u</w>"], ["ken", "di"], ["dı", "şar"], ["yar", "dı"], ["tü", "m</w>"], ["h", "en"], ["yal", "n"], ["ay", "nı</w>"], ["em", "in</w>"], ["geç", "ir"], ["git", "ti</w>"], ["gerek", "tiğini</w>"], ["konu", "şa"], ["dı", "k</w>"], ["\"", "</w>"], ["yor", "lar</w>"], ["sa", "tın</w>"], ["li", "k</w>"], ["ede", "y"], ["ge", "ç</w>"], ["ha", "v"], ["bilir", "im</w>"], ["ha", "st"], ["b", "el"], ["ö", "de"], ["s", "u</w>"], ["konuş", "u"], ["ş", "k"], ["a", "ç"], ["me", "kt"], ["di", "k</w>"], ["gör", "ü"], ["gi", "di"], ["ö", "ğ"], ["il", "g"], ["s", "ine</w>"], ["ti", "r</w>"], ["ak", "şa"], ["f", "i"], ["n", "a</w>"], ["iste", "di</w>"], ["gi", "y"], ["'", "ya</w>"], ["düşünü", "yor</w>"], ["mü", "z"], ["lü", "</w>"], ["ı", "r</w>"], ["ken", "d"], ["ya", "şı"], ["kü", "ç"], ["ke", "k</w>"], ["e", "cek</w>"], ["gi", "li"], ["sun", "uz</w>"], ["bil", "mi"], ["ken", "di</w>"], ["mut", "lu</w>"], ["diğ", "im</w>"], ["t", "al"], ["biz", "im</w>"], ["gel", "di</w>"], ["di", "r"], ["iste", "miyorum</w>"], ["karde", "ş"], ["an", "ne"], ["o", "r</w>"], ["ta", "m</w>"], ["me", "m</w>"], ["her", "hangi</w>"], ["ihtiya", "c"], ["sa", "k"], ["g", "a"], ["bi", "le</w>"], ["sen", "inle</w>"], ["ar", "a</w>"], ["mer", "a"], ["bil", "miyorum</w>"], ["yü", "rü"], ["tı", "r</w>"], ["lar", "ını</w>"], ["yo", "l"], ["ner", "edey"], ["ara", "ba</w>"], ["ş", "an"], ["lar", "ın</w>"], ["po", "li"], ["do", "ğ"], ["et", "tim</w>"], ["ş", "ı</w>"], ["mi", "ş</w>"], ["la", "ya"], ["olu", "r</w>"], ["la", "ş"], ["ger", "ç"], ["imi", "z"], ["hen", "üz</w>"], ["ba", "ğ"], ["z", "or</w>"], ["söyle", "ye"], ["edi", "yor</w>"], ["sa", "bah"], ["mü", "</w>"], ["miy", "im</w>"], ["ada", "m</w>"], ["söylü", "yor</w>"], ["i̇n", "gili"], ["mi", "z"], ["t", "tı</w>"], ["sa", "ğ"], ["öne", "m"], ["er", "kek</w>"], ["akşa", "m</w>"], ["ka", "bu"], ["u", "za"], ["k", "arar</w>"], ["st", "er"], ["b", "er"], ["ka", "t</w>"], ["y", "la</w>"], ["z", "ar"], ["k", "lı</w>"], ["bir", "çok</w>"], ["me", "diğini</w>"], ["öğr", "etme"], ["'", "nın</w>"], ["oy", "na"], ["mı", "yor</w>"], ["düşünü", "yorum</w>"], ["ş", "i"], ["ke", "z</w>"], ["un", "ut"], ["ne", "dir</w>"], ["ha", "tır"], ["i̇", "s"], ["me", "ş"], ["söy", "le</w>"], ["lı", "yor</w>"], ["onlar", "a</w>"], ["neredey", "se</w>"], ["mera", "k</w>"], ["er", "ken</w>"], ["en", "di"], ["bura", "ya</w>"], ["ne", "f"], ["olduğ", "u</w>"], ["d", "un</w>"], ["çocu", "k"], ["ev", "de</w>"], ["şı", "r"], ["yokt", "u</w>"], ["h", "</w>"], ["ö", "r"], ["ar", "et</w>"], ["ce", "va"], ["a", "z</w>"], ["il", "de</w>"], ["ü", "l"], ["tele", "f"], ["ola", "n</w>"], ["ti", "k</w>"], ["küç", "ük</w>"], ["kabu", "l</w>"], ["kap", "ı"], ["un", "da</w>"], ["ley", "la</w>"], ["kaz", "an"], ["ma", "sını</w>"], ["r", "du</w>"], ["edi", "l"], ["geç", "en</w>"], ["kul", "lan"], ["do", "k"], ["meş", "gu"], ["d", "an"], ["ba", "zı</w>"], ["ola", "bilir</w>"], ["il", "</w>"], ["d", "de"], ["za", "ten</w>"], ["yağ", "mu"], ["yet", "er"], ["ola", "cağını</w>"], ["düğ", "ünü</w>"], ["i̇ngili", "z"], ["ik", "a</w>"], ["a", "vu"], ["san", "mıyorum</w>"], ["olma", "ya"], ["bile", "ceğ"], ["gö", "ster"], ["şı", "k</w>"], ["yapma", "yı</w>"], ["öl", "dü"], ["b", "ı</w>"], ["k", "ola"], ["il", "i</w>"], ["bo", "y"], ["ğ", "u</w>"], ["ğ", "ra"], ["0", "</w>"], ["ley", "la"], ["eğ", "i</w>"], ["a", "çık"], ["r", "al"], ["z", "iy"], ["taraf", "ından</w>"], ["iş", "e</w>"], ["çı", "kar"], ["yaln", "ız</w>"], ["ver", "e"], ["g", "et"], ["y", "iy"], ["sö", "z"], ["ş", "ü"], ["t", "in</w>"], ["m", "ın</w>"], ["mi", "z</w>"], ["me", "z"], ["şek", "ilde</w>"], ["r", "et</w>"], ["baş", "ladı</w>"], ["a", "çı"], ["mı", "zı</w>"], ["kı", "r"], ["yeme", "ği</w>"], ["j", "o"], ["ta", "k"], ["iste", "r</w>"], ["değil", "dir</w>"], ["u", "mar"], ["se", "ç"], ["bilir", "sin</w>"], ["il", "k</w>"], ["bi", "tir"], ["bu", "la"], ["z", "en"], ["s", "orun"], ["ko", "y"], ["yan", "l"], ["yaptığ", "ını</w>"], ["su", "ç"], ["kar", "şı"], ["düşün", "düm</w>"], ["iste", "diğini</w>"], ["n", "i</w>"], ["diğ", "in</w>"], ["mi", "ş"], ["iç", "inde</w>"], ["i̇", "ş"], ["dı", "r"], ["di", "ye</w>"], ["ka", "r</w>"], ["s", "ü"], ["gele", "cek</w>"], ["a", "n</w>"], ["r", "i"], ["ay", "rıl"], ["de", "va"], ["iy", "le</w>"], ["ben", "imle</w>"], ["te", "si</w>"], ["mı", "sın</w>"], ["jo", "h"], ["hav", "a</w>"], ["endi", "şe"], ["b", "alı"], ["a", "v"], ["ün", "de</w>"], ["ev", "</w>"], ["düğ", "ü"], ["kita", "p</w>"], ["ha", "y"], ["bile", "ceğini</w>"], ["hoş", "lan"], ["du", "ru"], ["baş", "la"], ["m", "ış"], ["p", "ro"], ["em", "in"], ["yo", "n"], ["b", "öyle</w>"], ["söyle", "dim</w>"], ["sabah", "</w>"], ["ta", "ma"], ["me", "sini</w>"], ["a", "d"], ["g", "ünü"], ["deva", "m</w>"], ["sor", "u"], ["c", "ü"], ["in", "ce</w>"], ["s", "ar"], ["le", "di</w>"], ["ay", "</w>"], ["da", "ki"], ["s", "er"], ["bek", "li"], ["on", "dan</w>"], ["bel", "ki</w>"], ["biz", "i</w>"], ["b", "eri</w>"], ["gen", "el"], ["f", "ik"], ["h", "ız"], ["de", "ki</w>"], ["ha", "t"], ["me", "y"], ["l", "dı</w>"], ["b", "ar"], ["u", "mu</w>"], ["konuş", "mak</w>"], ["yağmu", "r</w>"], ["al", "mak</w>"], ["çocu", "k</w>"], ["ke", "şk"], ["keşk", "e</w>"], ["fik", "r"], ["şar", "kı</w>"], ["nef", "ret</w>"], ["yardı", "m"], ["tan", "ış"], ["cağ", "ız</w>"], ["he", "m</w>"], ["il", "gi"], ["il", "er"], ["ziy", "aret</w>"], ["e", "den</w>"], ["gö", "n"], ["far", "k</w>"], ["n", "o"], ["bıra", "k"], ["f", "il"], ["ora", "ya</w>"], ["g", "ünü</w>"], ["te", "şek"], ["k", "et"], ["emin", "im</w>"], ["in", "an"], ["ba", "k"], ["m", "in</w>"], ["ğ", "ı</w>"], ["tü", "r"], ["get", "ir"], ["gör", "mek</w>"], ["y", "u"], ["li", "sin</w>"], ["y", "er</w>"], ["ğ", "unu</w>"], ["he", "men</w>"], ["çocu", "klar"], ["yapma", "ya</w>"], ["me", "si</w>"], ["sev", "er"], ["t", "ti</w>"], ["yo", "k"], ["o", "ğ"], ["yanl", "ış</w>"], ["kes", "in"], ["ben", "den</w>"], ["görünü", "yordu</w>"], ["ka", "tı"], ["z", "or"], ["pa", "zar"], ["di", "ler</w>"], ["tan", "e</w>"], ["eğ", "er</w>"], ["ın", "ız</w>"], ["s", "in"], ["ger", "ek</w>"], ["al", "an"], ["ta", "v"], ["me", "liy"], ["sev", "iyorum</w>"], ["var", "dır</w>"], ["c", "an"], ["etme", "ye</w>"], ["ö", "lü"], ["tu", "t"], ["dok", "to"], ["ç", "ev"], ["s", "al"], ["kend", "ini</w>"], ["g", "is"], ["ihtiyac", "ım</w>"], ["bir", "bir"], ["ma", "k"], ["e", "ş"], ["kesin", "likle</w>"], ["sahi", "p</w>"], ["önem", "li</w>"], ["gör", "e"], ["ya", "lan</w>"], ["yü", "k"], ["v", "er</w>"], ["al", "ış"], ["sa", "mi"], ["le", "ş"], ["yap", "ar"], ["li", "dir</w>"], ["ma", "z"], ["kar", "şı</w>"], ["eğ", "len"], ["i", "p</w>"], ["bu", "lu"], ["hız", "lı</w>"], ["değiş", "tir"], ["kor", "k"], ["şa", "şır"], ["ev", "len"], ["dışar", "ı</w>"], ["ka", "pa"], ["or", "ta"], ["sor", "un</w>"], ["kor", "ku"], ["ner", "eye</w>"], ["a", "ile"], ["al", "t"], ["genel", "likle</w>"], ["sür", "e</w>"], ["ta", "t"], ["i", "li"], ["s", "ik"], ["an", "da</w>"], ["haz", "ır</w>"], ["al", "dım</w>"], ["me", "m"], ["şe", "h"], ["g", "un</w>"], ["fi", "ki"], ["gör", "düm</w>"], ["baş", "ına</w>"], ["görün", "mü"], ["bul", "un"], ["mı", "z"], ["'", "nin</w>"], ["oku", "l"], ["dik", "kat"], ["ne", "den"], ["olduğ", "umu</w>"], ["i̇ngiliz", "ce</w>"], ["ö", "p"], ["es", "ki</w>"], ["s", "iniz</w>"], ["tama", "men</w>"], ["bil", "miyor</w>"], ["çalış", "tı</w>"], ["cak", "sın</w>"], ["mekt", "u"], ["te", "h"], ["ka", "n</w>"], ["meşgu", "l</w>"], ["te", "s"], ["ka", "d"], ["to", "plan"], ["so", "ğu"], ["sev", "er</w>"], ["kal", "dı</w>"], ["ka", "ç"], ["eder", "im</w>"], ["kı", "l"], ["ben", "z"], ["ler", "in</w>"], ["iste", "miyor</w>"], ["haz", "ır"], ["ihtiya", "cı</w>"], ["oku", "la</w>"], ["a", "mer"], ["har", "ika</w>"], ["un", "a</w>"], ["avu", "st"], ["avust", "ral"], ["ç", "i"], ["olma", "lı</w>"], ["ar", "ı</w>"], ["ra", "f"], ["mem", "n"], ["ben", "ce</w>"], ["dığ", "ı</w>"], ["diğ", "imi</w>"], ["ya", "z</w>"], ["f", "ır"], ["p", "iş"], ["tü", "r</w>"], ["lar", "a</w>"], ["baş", "arı"], ["yo", "n</w>"], ["haya", "t"], ["sür", "e"], ["mis", "iniz</w>"], ["tom'", "dan</w>"], ["kt", "en</w>"], ["sa", "y"], ["zorunda", "yım</w>"], ["ğ", "ı"], ["bil", "mek</w>"], ["t", "al</w>"], ["iz", "le"], ["c", "er"], ["dı", "lar</w>"], ["to", "p"], ["is", "ter"], ["kola", "y</w>"], ["cağ", "ımı</w>"], ["söyle", "mek</w>"], ["is", "</w>"], ["çalışı", "yor</w>"], ["j", "ap"], ["siz", "e</w>"], ["yapı", "yor</w>"], ["tı", "k</w>"], ["k", "la</w>"], ["saa", "t"], ["p", "er"], ["oto", "bü"], ["lı", "yorum</w>"], ["sö", "z</w>"], ["in", "anı"], ["ya", "ta"], ["ilg", "ili</w>"], ["t", "en"], ["ün", "e</w>"], ["d", "ola"], ["i", "ti"], ["dü", "r</w>"], ["üzer", "inde</w>"], ["şü", "p"], ["sın", "ı"], ["c", "u</w>"], ["iz", "i</w>"], ["ra", "hat"], ["im", "de</w>"], ["ğ", "a</w>"], ["il", "di</w>"], ["gön", "der"], ["avustral", "ya"], ["sik", "le"], ["g", "ın</w>"], ["tav", "s"], ["ceğ", "iz</w>"], ["b", "ol</w>"], ["k", "ol"], ["y", "ara"], ["si", "g"], ["ya", "kında</w>"], ["in", "san</w>"], ["ön", "er"], ["yapa", "cağını</w>"], ["öl", "dü</w>"], ["yaşı", "yor</w>"], ["j", "a"], ["pazar", "tesi</w>"], ["d", "ol"], ["fa", "dı"], ["yapa", "cak</w>"], ["daki", "ka</w>"], ["haya", "l</w>"], ["ma", "ktan</w>"], ["ik", "na</w>"], ["yor", "sunuz</w>"], ["m", "le"], ["mu", "ş</w>"], ["gi", "der"], ["gen", "ç</w>"], ["jap", "on"], ["iste", "dim</w>"], ["yaz", "ı"], ["ilgi", "len"], ["ya", "n</w>"], ["bir", "ini</w>"], ["u", "ğra"], ["yap", "tım</w>"], ["de", "ne"], ["t", "artı"], ["ış", "ı"], ["kita", "bı</w>"], ["ho", "ş</w>"], ["et", "tiğ"], ["kul", "lanı"], ["ede", "r</w>"], ["lan", "dı</w>"], ["g", "in</w>"], ["u", "ç"], ["gerç", "ek</w>"], ["m", "dan</w>"], ["y", "anı"], ["ceva", "p</w>"], ["ler", "e</w>"], ["yer", "de</w>"], ["a", "f"], ["yeme", "ğ"], ["bun", "a</w>"], ["i̇n", "san"], ["biz", "imle</w>"], ["y", "ın</w>"], ["imiz", "i</w>"], ["arkadaş", "lar"], ["baba", "m</w>"], ["ş", "ir"], ["un", "ca</w>"], ["ter", "k</w>"], ["bili", "yordu</w>"], ["ba", "z"], ["konu", "da</w>"], ["olma", "lı"], ["ma", "dığını</w>"], ["ta", "kı"], ["ih", "</w>"], ["iş", "i</w>"], ["t", "um</w>"], ["yak", "la"], ["bi", "n"], ["g", "ar"], ["di", "l"], ["sa", "ç"], ["öldü", "r"], ["hal", "a</w>"], ["din", "le"], ["öğ", "le"], ["poli", "s</w>"], ["mary'", "den</w>"], ["şey", "ler</w>"], ["yapma", "sı</w>"], ["p", "en"], ["gü", "ç"], ["a", "yak"], ["kı", "sa</w>"], ["öğ", "le</w>"], ["lar", "dan</w>"], ["malı", "sın</w>"], ["insan", "lar</w>"], ["o", "f"], ["olu", "r"], ["et", "i</w>"], ["par", "ti"], ["me", "k"], ["sın", "ın</w>"], ["kim", "in</w>"], ["sev", "iyor</w>"], ["se", "k</w>"], ["sa", "va"], ["be", "ş</w>"], ["ta", "s"], ["iy", "di</w>"], ["yardım", "cı</w>"], ["yok", "sa</w>"], ["açı", "k</w>"], ["i", "ci</w>"], ["yer", "e</w>"], ["boy", "unca</w>"], ["öz", "ü"], ["sever", "im</w>"], ["günü", "m</w>"], ["geli", "yor</w>"], ["bil", "gis"], ["mu", "sunuz</w>"], ["'", "yı</w>"], ["kapı", "yı</w>"], ["man", "ı</w>"], ["a", "ç</w>"], ["yaş", "lı</w>"], ["di", "l</w>"], ["öğle", "den</w>"], ["düşünü", "yorsun</w>"], ["düşün", "mü"], ["s", "ey"], ["hoş", "lanı"], ["u", "r</w>"], ["sın", "ız</w>"], ["h", "ey"], ["son", "unda</w>"], ["r", "en"], ["dün", "ya"], ["ya", "t"], ["ey", "n"], ["dığ", "ım</w>"], ["oy", "un"], ["kita", "p"], ["i̇", "yi</w>"], ["bi", "sikle"], ["umar", "ım</w>"], ["sı", "r"], ["maya", "cak</w>"], ["ma", "dan</w>"], ["ci", "d"], ["bah", "s"], ["dav", "ran"], ["meye", "cek</w>"], ["a", "z"], ["düşün", "düğünü</w>"], ["e", "b"], ["kah", "ve</w>"], ["dışar", "ı"], ["s", "te"], ["3", "0"], ["ın", "da"], ["ı", "ma</w>"], ["m", "o"], ["bilir", "iz</w>"], ["i", "yordu</w>"], ["2", "</w>"], ["köp", "eğ"], ["im", "e</w>"], ["ler", "ine</w>"], ["bilgis", "a"], ["kt", "ım</w>"], ["la", "k</w>"], ["klar", "ını</w>"], ["ü", "c"], ["olduğun", "a</w>"], ["de", "v"], ["et", "tiğini</w>"], ["s", "uz</w>"], ["p", "or"], ["ter", "c"], ["k", "ları</w>"], ["gerek", "en</w>"], ["s", "izin</w>"], ["sami", "'nin</w>"], ["yeter", "ince</w>"], ["far", "klı</w>"], ["ver", "dim</w>"], ["çocuk", "lar</w>"], ["ler", "im</w>"], ["yakla", "şık</w>"], ["fa", "kat</w>"], ["uy", "u</w>"], ["tu", "tu"], ["balı", "k</w>"], ["gü", "l"], ["ma", "sına</w>"], ["hast", "a</w>"], ["la", "mak</w>"], ["sor", "du</w>"], ["bilmi", "yordum</w>"], ["n", "ey"], ["rü", "l"], ["ola", "cağım</w>"], ["p", "an"], ["mekt", "en</w>"], ["dı", "ş"], ["hep", "imiz</w>"], ["ü", "s"], ["amer", "i"], ["ha", "t</w>"], ["tr", "en"], ["joh", "n'"], ["memn", "un</w>"], ["umu", "r"], ["terc", "ih</w>"], ["ca", "n</w>"], ["çı", "ktı</w>"], ["kon", "tr"], ["yüz", "den</w>"], ["al", "tı</w>"], ["bili", "yordum</w>"], ["te", "miz"], ["ler", "den</w>"], ["soğu", "k</w>"], ["ın", "ı"], ["kah", "v"], ["z", "e"], ["liy", "im</w>"], ["bun", "dan</w>"], ["duy", "dum</w>"], ["b", "eğ"], ["de", "y"], ["l", "ında</w>"], ["görü", "ş"], ["g", "ı"], ["fadı", "l</w>"], ["ko", "ş"], ["in", "ç</w>"], ["el", "bi"], ["hatır", "la"], ["yapma", "ya"], ["kı", "rı"], ["ki", "li"], ["da", "l"], ["ha", "p"], ["s", "ek"], ["gerek", "ir</w>"], ["kü", "r</w>"], ["ta", "h"], ["leyla", "'nın</w>"], ["yapa", "r</w>"], ["duy", "u"], ["pen", "cer"], ["tartı", "ş"], ["e", "li"], ["üz", "günüm</w>"], ["yak", "ın</w>"], ["edil", "di</w>"], ["k", "ür"], ["e", "bilir</w>"], ["ba", "ktı</w>"], ["zorunda", "yız</w>"], ["d", "öne"], ["ş", "e</w>"], ["sür", "ü</w>"], ["der", "e"], ["b", "er</w>"], ["ç", "iç"], ["sı", "ra"], ["gör", "e</w>"], ["ke", "li"], ["ün", "i"], ["me", "lisin</w>"], ["l", "uy"], ["ör", "t</w>"], ["es", "i</w>"], ["mu", "y"], ["ı", "mız</w>"], ["değil", "sin</w>"], ["'", "a</w>"], ["me", "den</w>"], ["çev", "ir"], ["za", "r</w>"], ["gerç", "eği</w>"], ["ana", "h"], ["kim", "s"], ["a", "ş"], ["lu", "k</w>"], ["hep", "si</w>"], ["sını", "f"], ["ti", "ler</w>"], ["şim", "diye</w>"], ["ka", "za"], ["mi", "yorsun</w>"], ["yük", "sek</w>"], ["şüp", "he"], ["va", "z"], ["teh", "li"], ["re", "dde"], ["rahat", "sız</w>"], ["olu", "p</w>"], ["h", "edi"], ["gidi", "yor</w>"], ["bah", "ç"], ["teşek", "kür</w>"], ["ye", "ceğim</w>"], ["ma", "l</w>"], ["olma", "dan</w>"], ["ada", "m"], ["telef", "on</w>"], ["siz", "i</w>"], ["lı", "dır</w>"], ["ra", "n</w>"], ["d", "ö"], ["onlar", "la</w>"], ["i", "den</w>"], ["hast", "an"], ["mış", "tı</w>"], ["ö", "dün"], ["ödün", "ç</w>"], ["z", "et"], ["ma", "sa"], ["şar", "kı"], ["ta", "r</w>"], ["u", "ça"], ["otu", "r"], ["öğretme", "n"], ["plan", "la"], ["ı", "s"], ["bili", "yorsun</w>"], ["n", "için</w>"], ["a", "te"], ["ver", "si"], ["yiy", "e"], ["söyle", "diğini</w>"], ["etme", "yi</w>"], ["doğ", "um</w>"], ["si", "la"], ["y", "dım</w>"], ["ha", "ta</w>"], ["b", "ey"], ["me", "sa"], ["sı", "cak</w>"], ["ha", "va"], ["öğren", "c"], ["b", "or"], ["hi", "ka"], ["li", "ğ"], ["olduğun", "dan</w>"], ["'", "de</w>"], ["y", "en</w>"], ["şan", "s"], ["yapma", "sını</w>"], ["yeter", "li</w>"], ["m", "den</w>"], ["lar", "da</w>"], ["as", "lında</w>"], ["ap", "tal"], ["köp", "ek</w>"], ["arkadaş", "ım</w>"], ["tehli", "ke"], ["v", "iz"], ["üni", "versi"], ["kaz", "ana"], ["ma", "ğ"], ["ler", "de</w>"], ["ta", "ş"], ["ye", "cek</w>"], ["ev", "i</w>"], ["sun", "da</w>"], ["zaman", "ı</w>"], ["tığ", "ını</w>"], ["zen", "gin</w>"], ["b", "es"], ["sı", "k"], ["j", "</w>"], ["la", "ma</w>"], ["ı", "yor</w>"], ["ayak", "ka"], ["du", "k</w>"], ["yapı", "l"], ["ç", "an"], ["sa", "t"], ["sor", "u</w>"], ["ba", "kı"], ["v", "e"], ["ka", "m"], ["ün", "den</w>"], ["etme", "di</w>"], ["cek", "sin</w>"], ["baz", "en</w>"], ["me", "sine</w>"], ["sa", "b"], ["se", "m</w>"], ["cı", "mız</w>"], ["yo", "l</w>"], ["dokto", "r</w>"], ["umu", "yorum</w>"], ["s", "ta"], ["toplan", "tı"], ["piş", "ir"], ["y", "ön"], ["ye", "di</w>"], ["ka", "çı"], ["eb", "ev"], ["mi", "yordu</w>"], ["ç", "ar"], ["f", "a</w>"], ["ke", "m"], ["görünü", "yorsun</w>"], ["anah", "tar"], ["kü", "</w>"], ["ma", "h"], ["sın", "av"], ["a", "ğr"], ["kontr", "ol</w>"], ["ap", "tal</w>"], ["söyle", "n"], ["den", "ey"], ["mü", "m"], ["ş", "a</w>"], ["konuş", "ma"], ["kendi", "mi</w>"], ["a", "i"], ["öde", "v"], ["anne", "m</w>"], ["şey", "in</w>"], ["otu", "z</w>"], ["p", "ek</w>"], ["ka", "le"], ["le", "t"], ["ağ", "la"], ["hiss", "ediyorum</w>"], ["al", "man"], ["ha", "yı"], ["gör", "dü</w>"], ["l", "o"], ["konuş", "tu"], ["ka", "lı"], ["bilmi", "yordu</w>"], ["kar", "ı"], ["katı", "l"], ["in", "ana"], ["kardeş", "im</w>"], ["gör", "düğü"], ["i", "yorsun</w>"], ["tavs", "iye</w>"], ["çalışı", "yorum</w>"], ["iste", "medi</w>"], ["a", "ce"], ["sa", "yı"], ["al", "ım</w>"], ["lığ", "ına</w>"], ["lü", "ğ"], ["oy", "n"], ["bi", "t"], ["il", "eri</w>"], ["d", "</w>"], ["g", "un"], ["sig", "ara</w>"], ["ebev", "eyn"], ["aç", "tı</w>"], ["ın", "dı</w>"], ["a", "kıl"], ["sen", "den</w>"], ["har", "ca"], ["tek", "li"], ["yiy", "ecek</w>"], ["koy", "du</w>"], ["kar", "ar"], ["yapma", "m</w>"], ["bil", "diğini</w>"], ["tele", "viz"], ["çi", "f"], ["ha", "ta"], ["ik", "isi</w>"], ["ceğ", "imi</w>"], ["yor", "gun</w>"], ["har", "ek"], ["le", "ne"], ["ğ", "un</w>"], ["kü", "n</w>"], ["i̇", "ki</w>"], ["gi", "z"], ["cid", "di</w>"], ["arkada", "şı"], ["is", "ini</w>"], ["dığ", "ımı</w>"], ["sa", "m</w>"], ["çalış", "mak</w>"], ["öğren", "mek</w>"], ["git", "tim</w>"], ["ç", "e</w>"], ["et", "ki"], ["ı", "mızı</w>"], ["ba", "s"], ["ihtiya", "cımız</w>"], ["ba", "k</w>"], ["gö", "tür"], ["sor", "unu</w>"], ["lar", "ına</w>"], ["l", "du</w>"], ["dikkat", "li</w>"], ["ü", "st"], ["arkadaş", "ı</w>"], ["ar", "ka"], ["hayı", "r</w>"], ["mü", "kem"], ["i", "p"], ["par", "t"], ["söyleme", "di</w>"], ["'", "dan</w>"], ["hay", "v"], ["in", "ci</w>"], ["zorunda", "sın</w>"], ["lü", "k</w>"], ["otu", "ru"], ["öğretme", "n</w>"], ["al", "ı</w>"], ["z", "u"], ["gü", "lü"], ["yapa", "bileceğ"], ["a", "t</w>"], ["dav", "et</w>"], ["fiki", "r"], ["i̇", "l"], ["ede", "cek</w>"], ["mükem", "me"], ["lığ", "ı</w>"], ["diğ", "er</w>"], ["ka", "dın</w>"], ["iç", "er"], ["r", "is"], ["söyle", "diği</w>"], ["f", "oto"], ["isti", "yorsun</w>"], ["ol", "dum</w>"], ["bıra", "ktı</w>"], ["l", "in"], ["liy", "di</w>"], ["özü", "r</w>"], ["çıkar", "dı</w>"], ["düşün", "dü</w>"], ["fransız", "ca"], ["ya", "ban"], ["ya", "ka"], ["ba", "y</w>"], ["ç", "ı</w>"], ["beğ", "en"], ["dik", "kat</w>"], ["ş", "em"], ["par", "k</w>"], ["du", "ğunu</w>"], ["o", "te"], ["ya", "va"], ["bul", "du</w>"], ["i̇nsan", "lar</w>"], ["y", "u</w>"], ["ül", "ke"], ["ek", "ler</w>"], ["yap", "tın</w>"], ["ma", "lı</w>"], ["in", "izi</w>"], ["eğlen", "ce"], ["n", "umar"], ["müm", "kün</w>"], ["müz", "ik</w>"], ["dü", "rü"], ["ta", "dır</w>"], ["ta", "şı"], ["karşı", "laş"], ["k", "e</w>"], ["ver", "mek</w>"], ["ç", "ün"], ["he", "p</w>"], ["ka", "sa"], ["anla", "ya"], ["m", "il"], ["of", "is"], ["ne", "h"], ["öz", "el</w>"], ["dan", "s</w>"], ["ol", "an"], ["se", "ya"], ["bura", "dan</w>"], ["ya", "'da</w>"], ["iy", "idir</w>"], ["yapma", "sına</w>"], ["gö", "z</w>"], ["iç", "</w>"], ["'", "ın</w>"], ["şey", "e</w>"], ["iste", "diği</w>"], ["zaman", "ında</w>"], ["dün", "ya</w>"], ["ç", "öz"], ["foto", "ğra"], ["kad", "ın"], ["olmaya", "cak</w>"], ["k", "il"], ["iste", "me"], ["bo", "ş</w>"], ["joh", "n</w>"], ["ra", "ğ"], ["dışarı", "da</w>"], ["ya", "r</w>"], ["süre", "dir</w>"], ["al", "ar"], ["yo", "lu</w>"], ["yet", "iş"], ["dur", "dur"], ["şa", "p"], ["sahi", "p"], ["lı", "ydı</w>"], ["konu", "sunda</w>"], ["olma", "sını</w>"], ["söyle", "din</w>"], ["ilg", "inç</w>"], ["d", "ört</w>"], ["arkada", "ş</w>"], ["gör", "medim</w>"], ["geç", "ti</w>"], ["iste", "diğim</w>"], ["dön", "dü</w>"], ["ko", "m"], ["teşek", "kür"], ["ya", "k</w>"], ["li", "yor</w>"], ["endişe", "len"], ["ğ", "un"], ["si", "ya"], ["fiki", "r</w>"], ["et", "tin</w>"], ["da", "ir</w>"], ["yaş", "ında</w>"], ["z", "u</w>"], ["e", "ş</w>"], ["geli", "r</w>"], ["ay", "rı"], ["a", "şa"], ["0", "0</w>"], ["maya", "cağını</w>"], ["kı", "s"], ["v", "i"], ["mükemme", "l</w>"], ["yapa", "cağım</w>"], ["kar", "ış"], ["ma", "mı</w>"], ["maya", "cağım</w>"], ["ihtiyac", "ın</w>"], ["se", "l</w>"], ["miş", "ti</w>"], ["malı", "yız</w>"], ["me", "n"], ["k", "yo"], ["ş", "tu"], ["s", "inin</w>"], ["bura", "da"], ["li", "ği</w>"], ["y", "ine</w>"], ["uy", "ku"], ["ala", "bilir</w>"], ["kor", "u"], ["teşekkür", "ler</w>"], ["olma", "sı</w>"], ["al", "dın</w>"], ["res", "to"], ["et", "raf"], ["ma", "mız</w>"], ["c", "in"], ["ha", "tal"], ["alt", "ında</w>"], ["fil", "m</w>"], ["ş", "ara"], ["k", "ra"], ["yaln", "ız"], ["tı", "lar</w>"], ["st", "a</w>"], ["s", "iy"], ["kırı", "k"], ["olu", "yor</w>"], ["oğ", "l"], ["se", "be"], ["an", "ın</w>"], ["olu", "rdu</w>"], ["çalış", "a"], ["ad", "ını</w>"], ["ner", "eden</w>"], ["me", "ni</w>"], ["miy", "iz</w>"], ["yaptığ", "ı</w>"], ["yer", "ine</w>"], ["diğ", "ine</w>"], ["p", "iy"], ["gir", "di</w>"], ["gide", "r</w>"], ["lar", "la</w>"], ["ön", "ü"], ["k", "anı"], ["bekli", "yor</w>"], ["dere", "ce</w>"], ["piy", "an"], ["cağ", "ına</w>"], ["is", "tas"], ["görünmü", "yor</w>"], ["kayb", "etti</w>"], ["af", "f"], ["yapma", "lı"], ["e", "ceğim</w>"], ["ten", "is</w>"], ["bir", "inin</w>"], ["sin", "ir"], ["m", "le</w>"], ["ge", "z"], ["son", "ra"], ["para", "yı</w>"], ["i", "la"], ["u", "m"], ["da", "ğ"], ["mi", "r</w>"], ["yet", "en"], ["ede", "bilir</w>"], ["ge", "l</w>"], ["s", "al</w>"], ["k", "er"], ["ka", "fa"], ["n", "i"], ["ek", "i</w>"], ["bi", "ç"], ["kız", "gın</w>"], ["la", "dım</w>"], ["do", "lar</w>"], ["üz", "gün</w>"], ["seya", "hat</w>"], ["diğ", "inden</w>"], ["ki", "r"], ["hey", "e"], ["dön", "ü"], ["haya", "t</w>"], ["soru", "m"], ["ayakka", "bı"], ["dü", "z"], ["ço", "ğu</w>"], ["an", "ne</w>"], ["gitme", "yi</w>"], ["konuşu", "r</w>"], ["i̇s", "te"], ["ın", "daki</w>"], ["yan", "ında</w>"], ["gö", "tü"], ["s", "ından</w>"], ["sa", "tı"], ["sev", "miyorum</w>"], ["ma", "yın</w>"], ["f", "er"], ["at", "tı</w>"], ["ça", "bu"], ["'", "in</w>"], ["ını", "zı</w>"], ["g", "ra"], ["ga", "zet"], ["iz", "e</w>"], ["ley", "in</w>"], ["a", "cı"], ["et", "me</w>"], ["iste", "k"], ["ara", "sında</w>"], ["s", "t</w>"], ["a", "tı"], ["iti", "ra"], ["iste", "mediğini</w>"], ["seç", "en"], ["kend", "ine</w>"], ["mektu", "p</w>"], ["düğ", "ü</w>"], ["ç", "i</w>"], ["güç", "lü</w>"], ["sab", "ır"], ["önü", "müz"], ["şir", "ket"], ["m", "in"], ["bilgisa", "yar"], ["ha", "ber</w>"], ["kullan", "a"], ["y", "ken</w>"], ["gülü", "m"], ["herkes", "in</w>"], ["en", "in</w>"], ["geçir", "di</w>"], ["lı", "kla</w>"], ["iste", "medim</w>"], ["baba", "sı</w>"], ["i", "fa"], ["mi", "k</w>"], ["sa", "h"], ["dır", "dı</w>"], ["man", "ın</w>"], ["ameri", "ka"], ["ce", "za"], ["k", "lar</w>"], ["yü", "z</w>"], ["kal", "mak</w>"], ["a", "cı</w>"], ["s", "onu</w>"], ["li", "z</w>"], ["yapma", "ktan</w>"], ["gün", "eş</w>"], ["ma", "l"], ["uza", "k</w>"], ["le", "t</w>"], ["kal", "dım</w>"], ["yaş", "ında"], ["dola", "yı</w>"], ["kaçı", "r"], ["r", "et"], ["ek", "li</w>"], ["kö", "tü"], ["n", "iy"], ["üniversi", "te"], ["öğr", "et"], ["es", "ini</w>"], ["ku", "tu"], ["ş", "u"], ["okul", "da</w>"], ["hal", "ı</w>"], ["malı", "yım</w>"], ["p", "la"], ["mı", "yorsun</w>"], ["kırık", "lığına</w>"], ["alış", "ver"], ["sila", "h"], ["a", "m"], ["vaz", "geç"], ["dü", "zen"], ["dış", "ında</w>"], ["olur", "sa</w>"], ["telef", "on"], ["yaşa", "mak</w>"], ["im", "den</w>"], ["cü", "mle"], ["ön", "ünde</w>"], ["un", "un</w>"], ["rağ", "men</w>"], ["to", "</w>"], ["harek", "et</w>"], ["kır", "mızı</w>"], ["yapa", "bilir</w>"], ["gen", "ç"], ["a", "c"], ["diğ", "inde</w>"], ["gu", "ru"], ["dı", "rı"], ["aptal", "ca</w>"], ["ka", "l</w>"], ["o", "k"], ["ar", "da</w>"], ["bir", "isi</w>"], ["uy", "an"], ["ede", "ceğim</w>"], ["meye", "ceğim</w>"], ["be", "b"], ["bıra", "k</w>"], ["ev", "et</w>"], ["f", "ut"], ["gar", "ip</w>"], ["bo", "zu"], ["o", "da</w>"], ["f", "in"], ["yürü", "yü"], ["gör", "dün</w>"], ["önümüz", "deki</w>"], ["gide", "ceğim</w>"], ["sı", "kı"], ["ler", "imi</w>"], ["r", "anı"], ["r", "i</w>"], ["a", "dı</w>"], ["di", "le"], ["isti", "yoruz</w>"], ["endişe", "li</w>"], ["ge", "len"], ["s", "uz"], ["kola", "y"], ["in", "ci"], ["r", "u</w>"], ["k", "in</w>"], ["ca", "dde"], ["du", "ra"], ["gü", "rül"], ["mut", "luy"], ["v", "</w>"], ["yıl", "dır</w>"], ["öğren", "ci</w>"], ["meye", "ceğini</w>"], ["lı", "r</w>"], ["k", "et</w>"], ["d", "on"], ["ka", "v"], ["h", "ır"], ["ı", "m"], ["u", "tan"], ["i", "d"], ["isti", "yordu</w>"], ["kims", "eye</w>"], ["ses", "siz</w>"], ["olma", "yı</w>"], ["te", "ma"], ["kan", "ada"], ["me", "li</w>"], ["yor", "san</w>"], ["ler", "inden</w>"], ["duy", "du"], ["konuşa", "bilir</w>"], ["ke", "di</w>"], ["lar", "dı</w>"], ["hayat", "ta</w>"], ["değil", "dim</w>"], ["bar", "da"], ["sa", "ydı</w>"], ["hap", "is"], ["ı", "mız"], ["gi", "t</w>"], ["de", "mek</w>"], ["konuşu", "yor</w>"], ["f", "or"], ["maz", "sın</w>"], ["tr", "en</w>"], ["ja", "c"], ["kork", "un"], ["r", "ı</w>"], ["bı", "ça"], ["konuş", "ma</w>"], ["dü", "r"], ["kü", "tü"], ["sev", "diğini</w>"], ["kar", "ım</w>"], ["m", "de</w>"], ["gör", "meye</w>"], ["g", "a</w>"], ["otu", "rdu</w>"], ["et", "tir"], ["gö", "mle"], ["no", "el</w>"], ["temiz", "le"], ["git", "tiğini</w>"], ["2", "0"], ["iç", "ki</w>"], ["yı", "ka"], ["olduğ", "umu"], ["bir", "ine</w>"], ["cağ", "ından</w>"], ["deği", "liz</w>"], ["y", "ir"], ["bun", "lar</w>"], ["oku", "l</w>"], ["bir", "a</w>"], ["ey", "</w>"], ["akıl", "lı</w>"], ["redde", "tti</w>"], ["z", "a</w>"], ["ye", "ceğini</w>"], ["ke", "di"], ["tu", "haf"], ["r", "e</w>"], ["yan", "ın</w>"], ["li", "r"], ["i̇", "ç"], ["pa", "halı</w>"], ["g", "ın"], ["ka", "yı"], ["c", "ü</w>"], ["len", "di</w>"], ["ler", "inin</w>"], ["hayv", "an"], ["bul", "dum</w>"], ["mut", "fa"], ["doğr", "u"], ["ç", "iz"], ["ta", "mir</w>"], ["tutu", "k"], ["iy", "im</w>"], ["üzer", "ine</w>"], ["p", "i"], ["a", "yı"], ["düşün", "düğü"], ["al", "maya</w>"], ["eğlence", "li</w>"], ["g", "ru"], ["al", "tı"], ["yokt", "ur</w>"], ["anla", "t"], ["z", "ev"], ["i̇l", "k</w>"], ["ara", "ya"], ["ko", "ca"], ["pa", "t"], ["onlar", "dan</w>"], ["geli", "ş"], ["ğ", "um</w>"], ["t", "li</w>"], ["gidi", "yorum</w>"], ["gide", "lim</w>"], ["et", "e</w>"], ["ol", "sun</w>"], ["et", "tiler</w>"], ["edi", "yordu</w>"], ["ayrıl", "dı</w>"], ["otobü", "s</w>"], ["yaz", "dı</w>"], ["yor", "lardı</w>"], ["mü", "ş</w>"], ["yava", "ş</w>"], ["i", "t"], ["lar", "ım</w>"], ["dir", "en</w>"], ["çalış", "tım</w>"], ["ki", "t</w>"], ["konuş", "mayı</w>"], ["d", "iniz</w>"], ["inana", "mıyorum</w>"], ["güz", "el"], ["çal", "dı</w>"], ["gün", "de</w>"], ["m", "ini</w>"], ["zaman", "da</w>"], ["miş", "tim</w>"], ["h", "al</w>"], ["dav", "ranı"], ["da", "ir"], ["haf", "ta"], ["ş", "iş"], ["son", "uç"], ["p", "han"], ["ala", "cağım</w>"], ["mez", "sin</w>"], ["y", "umur"], ["olma", "ya</w>"], ["olma", "dı</w>"], ["kardeş", "i</w>"], ["pa", "tr"], ["yen", "iden</w>"], ["gele", "n</w>"], ["kal", "k"], ["ne", "ler</w>"], ["dığ", "ın</w>"], ["kim", "senin</w>"], ["tuhaf", "</w>"], ["j", "an"], ["yu", "r"], ["şi", "kay"], ["ara", "dı</w>"], ["çan", "ta"], ["i", "f"], ["u", "c"], ["b", "le"], ["be", "yaz</w>"], ["v", "ü"], ["l", "ım</w>"], ["ç", "ay</w>"], ["yor", "dun</w>"], ["bey", "z"], ["bağ", "ır"], ["oyn", "u"], ["kütü", "phan"], ["olduğ", "um</w>"], ["miz", "i</w>"], ["ev", "ine</w>"], ["uy", "gun</w>"], ["bir", "idir</w>"], ["ace", "le</w>"], ["pro", "ble"], ["etme", "dim</w>"], ["bil", "me"], ["dü", "k"], ["hedi", "ye</w>"], ["avustralya", "'da</w>"], ["kita", "b"], ["söyle", "me</w>"], ["a", "şık</w>"], ["yapa", "cağımı</w>"], ["sür", "ü"], ["u", "r"], ["yar", "alan"], ["fa", "z"], ["çar", "p"], ["p", "r"], ["gel", "dim</w>"], ["lan", "a"], ["1", "9"], ["i̇ş", "te</w>"], ["z", "arar</w>"], ["tehlike", "li</w>"], ["en", "i</w>"], ["b", "al"], ["araba", "yı</w>"], ["ö", "f"], ["korkun", "ç</w>"], ["ev", "li</w>"], ["oy", "un</w>"], ["ki", "p</w>"], ["şara", "p</w>"], ["po", "r</w>"], ["düşünmü", "yor</w>"], ["konuş", "maya</w>"], ["çün", "kü</w>"], ["ver", "medi</w>"], ["sonra", "ki</w>"], ["la", "m</w>"], ["anla", "ş"], ["u", "yar"], ["ş", "tu</w>"], ["lar", "ımı</w>"], ["dü", "k</w>"], ["ol", "sa</w>"], ["çalış", "ır"], ["lı", "klı</w>"], ["ti", "k"], ["un", "u"], ["par", "ti</w>"], ["yapma", "dı</w>"], ["po", "n</w>"], ["di", "ş"], ["dığ", "ından</w>"], ["ön", "ce"], ["mi", "yoruz</w>"], ["ha", "ber"], ["ba", "t</w>"], ["itira", "f</w>"], ["kar", "an"], ["değ", "er"], ["ifa", "de</w>"], ["gülüm", "se"], ["yaban", "cı</w>"], ["görünmü", "yordu</w>"], ["yalnız", "ca</w>"], ["yapma", "mı</w>"], ["bu", "r"], ["bul", "mak</w>"], ["ku", "t"], ["te", "m"], ["de", "di</w>"], ["ja", "pon</w>"], ["guru", "r</w>"], ["kazan", "dı</w>"], ["televiz", "yon</w>"], ["ge", "ce"], ["un", "uz</w>"], ["şi", "dde"], ["ya", "kala"], ["biç", "imde</w>"], ["k", "r"], ["alı", "r</w>"], ["zaman", "larda</w>"], ["göster", "di</w>"], ["faz", "la"], ["na", "diren</w>"], ["konuş", "tu</w>"], ["şem", "siy"], ["etme", "sini</w>"], ["ver", "ir</w>"], ["parti", "ye</w>"], ["şeh", "ir</w>"], ["y", "le</w>"], ["iste", "diğin</w>"], ["gör", "me"], ["gel", "medi</w>"], ["gitme", "ye</w>"], ["söyle", "yeme"], ["yap", "</w>"], ["la", "cak</w>"], ["pa", "zar</w>"], ["unut", "tum</w>"], ["köp", "eği</w>"], ["30", "'da</w>"], ["gel", "mek</w>"], ["çı", "ka"], ["der", "s</w>"], ["meliy", "im</w>"], ["john'", "un</w>"], ["yol", "cu"], ["hak", "lı</w>"], ["to", "kyo"], ["rü", "</w>"], ["i", "f</w>"], ["iş", "ini</w>"], ["fikr", "im</w>"], ["ta", "kip</w>"], ["liy", "iz</w>"], ["gelen", "i</w>"], ["şan", "s</w>"], ["hast", "alı"], ["düş", "tü</w>"], ["b", "e</w>"], ["bi", "tti</w>"], ["far", "k"], ["şeh", "ir"], ["ü", "kü"], ["ün", "lü</w>"], ["'", "e</w>"], ["tanı", "yor</w>"], ["ver", "me"], ["yıl", "dı"], ["zor", "dur</w>"], ["sü", "t</w>"], ["sür", "ede</w>"], ["gerek", "tiğ"], ["çı", "kı"], ["ha", "k</w>"], ["edi", "yorsun</w>"], ["baş", "ıma</w>"], ["sar", "hoş</w>"], ["tavs", "iy"], ["r", "ken</w>"], ["leyla", "'yı</w>"], ["'", "n"], ["na", "z"], ["heye", "can"], ["yap", "tı"], ["me", "tr"], ["iç", "eri</w>"], ["kal", "man</w>"], ["dığ", "ında</w>"], ["mak", "tadır</w>"], ["ter", "e"], ["söyleme", "ye</w>"], ["is", "in</w>"], ["ça", "ğ"], ["sür", "dü</w>"], ["uza", "k"], ["mu", "z</w>"], ["başarı", "lı</w>"], ["i", "ki"], ["n", "eye</w>"], ["söyle", "r</w>"], ["tır", "dı</w>"], ["es", "</w>"], ["mu", "yor</w>"], ["u", "laş"], ["a", "b"], ["ü", "n</w>"], ["söyleye", "cek</w>"], ["ar", "dı</w>"], ["ate", "ş"], ["olmalı", "sın</w>"], ["jac", "k"], ["e", "şi"], ["ci", "ler</w>"], ["dün", "yanın</w>"], ["çocuk", "ları</w>"], ["yapı", "yorsun</w>"], ["y", "in</w>"], ["kasa", "ba"], ["ı", "yla</w>"], ["ko", "ku"], ["sayı", "da</w>"], ["in", "di</w>"], ["ış", "ı</w>"], ["bekli", "yorum</w>"], ["araba", "sını</w>"], ["av", "ru"], ["ma", "ma</w>"], ["yo", "na</w>"], ["sava", "ş</w>"], ["kahv", "altı</w>"], ["haya", "tı"], ["kur", "tar"], ["vu", "r"], ["b", "öl"], ["a", "ma"], ["st", "an"], ["fotoğra", "f"], ["li", "ce</w>"], ["ın", "tı"], ["ta", "mam</w>"], ["kur", "tu"], ["sü", "n</w>"], ["fut", "bol</w>"], ["ko", "mik</w>"], ["sen", "ce</w>"], ["çalışı", "r</w>"], ["gel", "diğini</w>"], ["bilir", "di</w>"], ["müz", "i"], ["ses", "siz"], ["sın", "daki</w>"], ["yor", "gun"], ["me", "t</w>"], ["p", "ü"], ["duy", "gu"], ["b", "et"], ["cağ", "ı</w>"], ["söyleye", "bilir</w>"], ["yaşı", "yorum</w>"], ["de", "li</w>"], ["de", "s"], ["et", "tik</w>"], ["anla", "mıyorum</w>"], ["gel", "me"], ["i̇s", "pan"], ["bor", "ç"], ["e", "le"], ["la", "maya</w>"], ["lar", "ının</w>"], ["et", "ini</w>"], ["bilir", "siniz</w>"], ["so", "ka"], ["e", "mek"], ["beb", "ek</w>"], ["pro", "gra"], ["oda", "da</w>"], ["yağ", "a"], ["sı", "kı</w>"], ["cak", "tır</w>"], ["unut", "ma</w>"], ["ı", "mdan</w>"], ["ri", "ca</w>"], ["şey", "leri</w>"], ["insan", "ların</w>"], ["ma", "v"], ["va", "kt"], ["mak", "in"], ["el", "inden</w>"], ["n", "or"], ["der", "hal</w>"], ["söyleme", "dim</w>"], ["git", "tiğ"], ["e", "ceğini</w>"], ["5", "</w>"], ["be", "lir"], ["ke", "z"], ["ı", "mda</w>"], ["yapa", "bileceğini</w>"], ["ma", "s"], ["anne", "si</w>"], ["'", "te</w>"], ["er", "k"], ["avustralya", "'ya</w>"], ["şır", "ı</w>"], ["bile", "cek</w>"], ["sı", "dır</w>"], ["te", "p"], ["s", "er</w>"], ["im", "in</w>"], ["çocu", "ğu</w>"], ["kur", "al"], ["çek", "ti</w>"], ["yap", "ma</w>"], ["ara", "ş"], ["tar", "ih"], ["kil", "o</w>"], ["ölü", "m"], ["oku", "mak</w>"], ["herkes", "e</w>"], ["3", "</w>"], ["siya", "h</w>"], ["vere", "ceğim</w>"], ["al", "ır"], ["dığ", "ına</w>"], ["keli", "me</w>"], ["ir", "im</w>"], ["al", "la"], ["du", "var"], ["ku", "ra"], ["mektu", "bu</w>"], ["te", "y"], ["z", "er"], ["ceğ", "i</w>"], ["yon", "u</w>"], ["y", "dın</w>"], ["ki", "ra"], ["güven", "e"], ["hatal", "ı</w>"], ["sı", "r</w>"], ["tı", "cı</w>"], ["mu", "z"], ["iste", "diğ"], ["ben", "im"], ["sev", "in"], ["raf", "ik</w>"], ["g", "isi</w>"], ["a", "dım</w>"], ["alı", "yor</w>"], ["ey", "im</w>"], ["çabu", "k</w>"], ["va", "kit</w>"], ["yardı", "ma</w>"], ["leş", "tir"], ["ek", "leri</w>"], ["ev", "li"], ["anla", "m"], ["di", "li</w>"], ["ha", "r</w>"], ["san", "ın</w>"], ["b", "ol"], ["duru", "m"], ["har", "i"], ["es", "ine</w>"], ["öz", "le"], ["i", "yoruz</w>"], ["ku", "ş"], ["yap", "tık</w>"], ["gide", "cek</w>"], ["taş", "ın"], ["şey", "im</w>"], ["yemeğ", "ini</w>"], ["po", "pü"], ["tak", "ım</w>"], ["elbi", "se</w>"], ["gerek", "li</w>"], ["ma", "da</w>"], ["imiz", "e</w>"], ["ya", "y"], ["olma", "z</w>"], ["ın", "ca"], ["du", "ya"], ["ede", "ceğini</w>"], ["benz", "iyor</w>"], ["resto", "ran"], ["mey", "in</w>"], ["meliy", "iz</w>"], ["j", "i</w>"], ["güven", "li</w>"], ["yüz", "ü"], ["okul", "dan</w>"], ["yo", "</w>"], ["z", "ım</w>"], ["ka", "ğı"], ["diğ", "er"], ["ler", "le</w>"], ["gi", "bi"], ["kiş", "idir</w>"], ["çalış", "maya</w>"], ["t", "v</w>"], ["otobü", "s"], ["para", "sı</w>"], ["tah", "min</w>"], ["yor", "duk</w>"], ["res", "im</w>"], ["lar", "dır</w>"], ["vu", "rdu</w>"], ["k", "tır</w>"], ["kor", "kt"], ["ö", "dü"], ["çık", "mak</w>"], ["yapa", "n</w>"], ["japon", "ya"], ["bulu", "ş"], ["san", "dal"], ["i̇", "k"], ["sava", "ş"], ["n", "et"], ["b", "ri"], ["hika", "ye"], ["öz", "gü"], ["din", "len"], ["l", "maz</w>"], ["dur", "du</w>"], ["ses", "i</w>"], ["ek", "mek</w>"], ["ünü", "n</w>"], ["ver", "il"], ["ın", "ız"], ["geç", "in"], ["ver", "me</w>"], ["hiss", "etti</w>"], ["leyla", "'ya</w>"], ["iş", "im</w>"], ["e", "p"], ["bilgisa", "yar</w>"], ["bil", "mediğini</w>"], ["tekli", "f</w>"], ["kol", "tu"], ["bura", "daki</w>"], ["mer", "kez"], ["ba", "y"], ["bu", "gün"], ["neden", "iyle</w>"], ["çif", "t"], ["mesa", "j</w>"], ["im", "li</w>"], ["on", "o"], ["yapı", "yorum</w>"], ["yaşa", "dı</w>"], ["ote", "l"], ["tanı", "yorum</w>"], ["f", "i</w>"], ["m", "oto"], ["ili", "r</w>"], ["ku", "ru"], ["uyu", "ya"], ["r", "um</w>"], ["p", "ay"], ["mü", "s"], ["kay", "na"], ["beyz", "bol</w>"], ["k", "ın</w>"], ["l", "on"], ["sahip", "tir</w>"], ["neden", "i</w>"], ["tı", "yor</w>"], ["ala", "cak</w>"], ["hika", "ye</w>"], ["aşa", "ğı"], ["li", "ste"], ["para", "m</w>"], ["sanı", "yordum</w>"], ["araba", "sı</w>"], ["da", "ydı</w>"], ["dürü", "st</w>"], ["fi", "ya"], ["a", "şırı</w>"], ["f", "en"], ["ku", "z"], ["tığ", "ı</w>"], ["getir", "di</w>"], ["zaman", "ım</w>"], ["başarı", "sız</w>"], ["ai", "t</w>"], ["20", "1"], ["edi", "le"], ["me", "v"], ["ban", "ın</w>"], ["oku", "ya"], ["fin", "can</w>"], ["kaz", "a</w>"], ["g", "</w>"], ["bek", "len"], ["i", "de</w>"], ["baş", "laya"], ["öldü", "rül"], ["uç", "u"], ["t", "rafik</w>"], ["oda", "ya</w>"], ["par", "kta</w>"], ["kala", "cak</w>"], ["an", "cak</w>"], ["san", "d"], ["ceğ", "ine</w>"], ["i̇", "tal"], ["ra", "por"], ["d", "oldu"], ["to", "e"], ["sak", "in</w>"], ["gerek", "ir"], ["bili", "yoruz</w>"], ["cek", "ler</w>"], ["mü", "ş"], ["p", "u"], ["fikr", "i</w>"], ["hatır", "laya"], ["cek", "tir</w>"], ["dir", "di</w>"], ["s", "ya"], ["kapa", "t"], ["za", "yı"], ["uy", "du</w>"], ["ta", "toe"], ["düz", "el"], ["kan", "ı</w>"], ["bir", "leş"], ["ku", "la"], ["bura", "sı</w>"], ["gö", "k"], ["un", "la</w>"], ["dok", "un"], ["barda", "k</w>"], ["man", "tı"], ["al", "mayı</w>"], ["ev", "in</w>"], ["mı", "sınız</w>"], ["ku", "lü"], ["a", "ça"], ["'", "ye</w>"], ["iy", "ile"], ["res", "mi</w>"], ["f", "u"], ["w", "</w>"], ["kaz", "anı"], ["piyan", "o</w>"], ["yer", "inde</w>"], ["lü", "k"], ["plan", "lı"], ["ola", "maz</w>"], ["umu", "z</w>"], ["muy", "dun</w>"], ["eğ", "iti"], ["sorun", "un</w>"], ["ma", "sanın</w>"], ["g", "ı</w>"], ["dı", "şı</w>"], ["a", "yağ"], ["le", "mek</w>"], ["ağ", "ır</w>"], ["k", "â"], ["siz", "inle</w>"], ["kims", "eyi</w>"], ["is", "ine</w>"], ["aş", "k</w>"], ["dol", "u</w>"], ["k", "ara"], ["ler", "ce</w>"], ["ru", "mda</w>"], ["bile", "ceğim</w>"], ["şa", "ka</w>"], ["ye", "dim</w>"], ["bıra", "ka"], ["baş", "ka"], ["gele", "ceğini</w>"], ["f", "e"], ["kap", "ı</w>"], ["te", "r</w>"], ["etme", "z</w>"], ["ol", "ma</w>"], ["bile", "n</w>"], ["götü", "re"], ["düşün", "ce"], ["geçir", "dim</w>"], ["ağ", "aç"], ["yak", "ın"], ["di", "ven"], ["zev", "k</w>"], ["ba", "si"], ["h", "ükü"], ["m", "la</w>"], ["rıl", "dı</w>"], ["yapma", "mız</w>"], ["so", "ra"], ["me", "li"], ["k", "ey"], ["e", "din</w>"], ["yar", "ı"], ["sev", "diğim</w>"], ["ü", "m</w>"], ["et", "miyor</w>"], ["a", "h"], ["zaman", "dır</w>"], ["mer", "ha"], ["öde", "me</w>"], ["c", "eye</w>"], ["üc", "ü</w>"], ["duyu", "yorum</w>"], ["kapa", "ttı</w>"], ["plan", "lıyor</w>"], ["oda", "sında</w>"], ["a", "za"], ["öy", "le"], ["ba", "r</w>"], ["şikay", "et</w>"], ["sıra", "sında</w>"], ["es", "ki"], ["para", "ya</w>"], ["va", "n</w>"], ["uy", "anı"], ["an", "ı</w>"], ["v", "ey"], ["ceğ", "inden</w>"], ["yaşa", "ya"], ["yer", "i</w>"], ["ma", "a"], ["olma", "sına</w>"], ["bun", "unla</w>"], ["or", "man"], ["fil", "mi</w>"], ["yıl", "ında</w>"], ["ç", "özü"], ["an", "n"], ["oyna", "mak</w>"], ["yapıl", "ması</w>"], ["s", "por</w>"], ["amer", "ika</w>"], ["zaman", "lar</w>"], ["el", "ma</w>"], ["f", "er</w>"], ["g", "o"], ["vey", "a</w>"], ["lı", "yım</w>"], ["ister", "im</w>"], ["a", "yak</w>"], ["ma", "tema"], ["yaşa", "dığını</w>"], ["daki", "ka"], ["olduğumu", "zu</w>"], ["tut", "tu</w>"], ["baş", "</w>"], ["duy", "du</w>"], ["s", "arı"], ["eli", "mden</w>"], ["kanada", "lı</w>"], ["sin", "e"], ["değ", "er</w>"], ["hiss", "ettim</w>"], ["han", "gis"], ["toplan", "tı</w>"], ["fa", "y"], ["ney", "in</w>"], ["yer", "ek</w>"], ["bili", "p</w>"], ["hey", "</w>"], ["c", "eyi</w>"], ["s", "uyu</w>"], ["ceva", "p"], ["te", "dir</w>"], ["ol", "muş</w>"], ["ver", "in</w>"], ["iç", "mek</w>"], ["bo", "ya"], ["ra", "d"], ["yön", "et"], ["te", "miz</w>"], ["h", "ı"], ["ma", "yız</w>"], ["fır", "t"], ["ad", "res"], ["a", "kı"], ["bulun", "du</w>"], ["sı", "yla</w>"], ["ev", "ini</w>"], ["istas", "yon"], ["or", "i</w>"], ["kayb", "ettim</w>"], ["bil", "gi</w>"], ["korku", "yor</w>"], ["kt", "r"], ["la", "cağını</w>"], ["ce", "de</w>"], ["gönder", "di</w>"], ["lar", "ında</w>"], ["k", "inden</w>"], ["par", "ça"], ["ip", "tal</w>"], ["le", "me</w>"], ["dur", "um</w>"], ["in", "dey"], ["mı", "ydı</w>"], ["ir", "i</w>"], ["lu", "ğu</w>"], ["olmaya", "n</w>"], ["bo", "ş"], ["'", "i</w>"], ["s", "unu</w>"], ["bil", "sem</w>"], ["olma", "ktan</w>"], ["sev", "miyor</w>"], ["et", "k"], ["say", "gı</w>"], ["ler", "iyle</w>"], ["lı", "sın</w>"], ["kı", "zı</w>"], ["de", "fa</w>"], ["c", "üz"], ["inanı", "yorum</w>"], ["sa", "k</w>"], ["dokto", "r"], ["bi", "n</w>"], ["hedi", "ye"], ["ü", "r</w>"], ["in", "şa</w>"], ["emek", "li</w>"], ["me", "nin</w>"], ["söyle", "diler</w>"], ["niy", "et"], ["oy", "</w>"], ["et", "miyorum</w>"], ["mış", "tır</w>"], ["ha", "sta"], ["ma", "dık</w>"], ["i̇", "ş</w>"], ["ser", "v"], ["rü", "z"], ["inci", "t"], ["ken", "dim</w>"], ["ar", "ım</w>"], ["z", "e</w>"], ["arı", "yor</w>"], ["bil", "in"], ["d", "ınız</w>"], ["ta", "ki</w>"], ["mı", "yoruz</w>"], ["öğrenc", "iler"], ["hastan", "eye</w>"], ["suç", "lu</w>"], ["'", "ta</w>"], ["t", "un</w>"], ["am", "ca"], ["to", "r"], ["ada", "mı</w>"], ["meşgu", "l"], ["çiç", "ek</w>"], ["vu", "ru"], ["üst", "ünde</w>"], ["tat", "lı</w>"], ["şey", "den</w>"], ["boston'", "dan</w>"], ["ba", "ka"], ["şap", "ka"], ["id", "di"], ["çı", "l"], ["fay", "da"], ["iste", "miyordu</w>"], ["toplantı", "ya</w>"], ["orta", "ya</w>"], ["ses", "</w>"], ["olduğun", "da</w>"], ["iste", "ye"], ["mav", "i</w>"], ["h", "in"], ["kala", "cağım</w>"], ["kaç", "tı</w>"], ["tes", "lim</w>"], ["ti", "ş"], ["mağ", "aza"], ["ev", "den</w>"], ["gör", "medi</w>"], ["ı", "dır</w>"], ["baba", "sının</w>"], ["yar", "ar"], ["şans", "lı</w>"], ["po", "sta</w>"], ["l", "mış</w>"], ["bekle", "mek</w>"], ["hoşlanı", "yor</w>"], ["memn", "un"], ["ı", "sı"], ["ğ", "e</w>"], ["la", "bilir</w>"], ["müs", "lü"], ["yapa", "bilirim</w>"], ["mu", "yorum</w>"], ["yapma", "dım</w>"], ["duru", "mda</w>"], ["res", "im"], ["es", "inde</w>"], ["gerek", "miyor</w>"], ["k", "re"], ["hapis", "han"], ["açık", "ça</w>"], ["çif", "t</w>"], ["küç", "ü"], ["bağ", "ım"], ["söyleme", "yi</w>"], ["cin", "ay"], ["in", "deki</w>"], ["oğ", "lu</w>"], ["o", "k</w>"], ["boston'", "u</w>"], ["ödev", "ini</w>"], ["sağ", "lıklı</w>"], ["s", "ona</w>"], ["ber", "bat</w>"], ["umur", "sa"], ["hava", "alan"], ["oy", "u</w>"], ["yaptığ", "ımı</w>"], ["arkadaş", "lar</w>"], ["sand", "v"], ["sür", "ekli</w>"], ["so", "y"], ["yata", "kta</w>"], ["g", "e</w>"], ["ban", "ka"], ["kal", "ma"], ["yapma", "nı</w>"], ["bileceğ", "imi</w>"], ["eski", "den</w>"], ["me", "t"], ["h", "iz"], ["dünya", "da</w>"], ["arkadaş", "ın</w>"], ["ik", "inci</w>"], ["iste", "diğimi</w>"], ["e", "z"], ["etme", "si</w>"], ["tı", "ra"], ["a", "dı"], ["30", "'a</w>"], ["he", "sa"], ["der", "s"], ["yap", "tır"], ["z", "eki</w>"], ["n", "ü"], ["mey", "iz</w>"], ["ko", "p"], ["ü", "ç"], ["lon", "d"], ["ka", "f"], ["ne", "w</w>"], ["de", "f"], ["lar", "ından</w>"], ["hafta", "da</w>"], ["le", "z"], ["ğ", "ın</w>"], ["ö", "n</w>"], ["de", "de"], ["la", "t"], ["g", "ol"], ["birleş", "ik</w>"], ["kal", "ım</w>"], ["la", "m"], ["den", "iz</w>"], ["yak", "ışı"], ["yapar", "ım</w>"], ["umu", "rumda</w>"], ["ti", "f</w>"], ["mutluy", "um</w>"], ["cağ", "ımızı</w>"], ["evlen", "di</w>"], ["yal", "ım</w>"], ["ler", "inde</w>"], ["karde", "şim"], ["anla", "ma</w>"], ["3", "0</w>"], ["ya", "lan"], ["h", "u"], ["e", "lim</w>"], ["k", "ış"], ["ola", "bileceğini</w>"], ["ver", "din</w>"], ["me", "mi</w>"], ["bek", "le</w>"], ["gitme", "sine</w>"], ["gi", "tar</w>"], ["t", "lar</w>"], ["tar", "z"], ["ya", "za"], ["gün", "eş"], ["tır", "man"], ["lin", "da"], ["uyu", "yor</w>"], ["ev", "inde</w>"], ["di", "z"], ["gitme", "m</w>"], ["söy", "ler"], ["ro", "man"], ["i", "c"], ["sor", "mak</w>"], ["ç", "in"], ["d", "ar"], ["ı", "mın</w>"], ["tı", "rı"], ["ra", "st"], ["lı", "kta</w>"], ["kom", "şu"], ["oldu", "klarını</w>"], ["şek", "er</w>"], ["kt", "u</w>"], ["yir", "mi</w>"], ["u", "lu"], ["ü", "ye"], ["şarkı", "yı</w>"], ["cü", "mle</w>"], ["ola", "cağız</w>"], ["kap", "alı</w>"], ["bosto", "n</w>"], ["söyleye", "ceğim</w>"], ["çek", "ici</w>"], ["ağr", "ı"], ["haya", "tı</w>"], ["dev", "let"], ["hak", "k"], ["sor", "dum</w>"], ["si", "par"], ["sabır", "sız"], ["yur", "t</w>"], ["yüz", "ü</w>"], ["ç", "ö"], ["bi", "m</w>"], ["aile", "si</w>"], ["hep", "sini</w>"], ["ili", "şk"], ["çağ", "ır"], ["oku", "mayı</w>"], ["ağ", "ır"], ["güven", "de</w>"], ["sını", "f</w>"], ["oku", "du</w>"], ["dur", "dura"], ["ney", "di</w>"], ["önem", "lidir</w>"], ["ç", "u"], ["ra", "hat</w>"], ["şüp", "h"], ["yapma", "n</w>"], ["gel", "diğ"], ["s", "uy"], ["an", "lıyorum</w>"], ["yar", "ış"], ["koş", "u"], ["pro", "j"], ["oy", "unu</w>"], ["kal", "mayı</w>"], ["en", "gel"], ["arı", "yorum</w>"], ["b", "l"], ["baz", "ı"], ["sür", "pr"], ["yaşında", "yken</w>"], ["kili", "t"], ["lı", "ktan</w>"], ["fır", "sa"], ["uy", "gu"], ["gider", "im</w>"], ["büyü", "k"], ["anla", "ttı</w>"], ["ma", "dın</w>"], ["üc", "ret"], ["bil", "diğim</w>"], ["p", "a</w>"], ["ko", "vu"], ["hak", "kı"], ["yapma", "dığını</w>"], ["ser", "t</w>"], ["öğren", "ciler</w>"], ["uza", "kta</w>"], ["yata", "k</w>"], ["man", "a</w>"], ["sat", "ran"], ["ba", "ba</w>"], ["'", "yi</w>"], ["ha", "m"], ["kendi", "si</w>"], ["dik", "lerini</w>"], ["gün", "leri</w>"], ["bekle", "ye"], ["r", "in</w>"], ["uz", "u</w>"], ["değiş", "ik"], ["s", "iyle</w>"], ["günü", "n</w>"], ["karı", "sı</w>"], ["de", "dir</w>"], ["giy", "in"], ["söyleme", "din</w>"], ["biz", "den</w>"], ["es", "per"], ["esper", "an"], ["k", "u</w>"], ["ö", "le"], ["popü", "ler</w>"], ["sağ", "</w>"], ["konuş", "tum</w>"], ["basi", "t</w>"], ["ara", "sındaki</w>"], ["al", "arı</w>"], ["fa", "v"], ["sahi", "bi</w>"], ["meliy", "dim</w>"], ["ay", "ında</w>"], ["der", "sin</w>"], ["gider", "ken</w>"], ["tu", "r"], ["im", "kan"], ["ele", "ktr"], ["bisikle", "t</w>"], ["doğ", "du</w>"], ["gör", "mez"], ["yürü", "dü</w>"], ["uça", "k</w>"], ["söyle", "diğin</w>"], ["mesa", "j"], ["i", "di</w>"], ["yürüyü", "şe</w>"], ["yapma", "nın</w>"], ["yaşa", "m</w>"], ["etki", "len"], ["gürül", "tü"], ["inanı", "yor</w>"], ["ğu", "mu</w>"], ["s", "inden</w>"], ["yo", "ğun</w>"], ["piş", "man</w>"], ["say", "dım</w>"], ["an", "iden</w>"], ["uc", "uz</w>"], ["çalış", "tığını</w>"], ["kra", "va"], ["ka", "s"], ["sı", "ra</w>"], ["araba", "yla</w>"], ["iz", "de</w>"], ["mar", "i"], ["olduğ", "un</w>"], ["oku", "dum</w>"], ["öz", "el"], ["üs", "tü</w>"], ["hiss", "ettiğini</w>"], ["elbi", "se"], ["hayat", "ını</w>"], ["fi", "yat"], ["mez", "un</w>"], ["bisikle", "t"], ["teh", "di"], ["gidi", "p</w>"], ["gerek", "iyordu</w>"], ["de", "p"], ["iş", "ten</w>"], ["p", "lan</w>"], ["li", "yorum</w>"], ["edi", "yoruz</w>"], ["'", "den</w>"], ["düşün", "me"], ["s", "iste"], ["cak", "lar</w>"], ["de", "r</w>"], ["mut", "lu"], ["e", "-"], ["yumur", "ta</w>"], ["yüz", "e"], ["c", "en"], ["yüz", "meye</w>"], ["git", "tik</w>"], ["araş", "tır"], ["sig", "ara"], ["al", "ın"], ["öf", "ke"], ["meşgu", "lü"], ["şir", "ket</w>"], ["yapa", "mam</w>"], ["japon", "ya'da</w>"], ["ye", "ş"], ["sor", "uyu</w>"], ["hı", "zla</w>"], ["ate", "ş</w>"], ["poli", "s"], ["bi", "na"], ["açık", "laya"], ["ac", "il</w>"], ["çev", "r"], ["ölü", "m</w>"], ["iyile", "ş"], ["olmaya", "cağını</w>"], ["bıra", "kı"], ["alışver", "iş</w>"], ["etme", "m</w>"], ["bil", "dir"], ["sevin", "dim</w>"], ["üs", "t</w>"], ["üzer", "e</w>"], ["a", "ile</w>"], ["yapmaya", "cağını</w>"], ["öldür", "dü</w>"], ["sev", "mez</w>"], ["ha", "beri</w>"], ["yeme", "k"], ["fikr", "ini</w>"], ["planla", "dığını</w>"], ["mu", "ştu</w>"], ["insan", "ları</w>"], ["san", "dım</w>"], ["bu", "dur</w>"], ["iç", "ti</w>"], ["can", "ım</w>"], ["düş", "ür"], ["k", "ış</w>"], ["yat", "maya</w>"], ["ağ", "z"], ["u", "ma</w>"], ["ç", "ik"], ["çik", "ola"], ["vi", "de"], ["yazı", "k</w>"], ["şüphe", "len"], ["ay", "r"], ["düşünü", "yordum</w>"], ["mız", "a</w>"], ["d", "unuz</w>"], ["sila", "h</w>"], ["kıs", "kan"], ["hatır", "lıyorum</w>"], ["du", "lar</w>"], ["ti", "ka"], ["ço", "ğun"], ["kolay", "ca</w>"], ["eş", "ya"], ["açık", "la"], ["miz", "e</w>"], ["kt", "ür</w>"], ["istek", "li</w>"], ["herkes", "i</w>"], ["kt", "i</w>"], ["san", "at"], ["bili", "m</w>"], ["yapma", "z"], ["olma", "z"], ["'", "daki</w>"], ["alt", "ına</w>"], ["düşünü", "yordu</w>"], ["yaptığ", "ın</w>"], ["p", "iz"], ["öğren", "dim</w>"], ["ola", "caksın</w>"], ["s", "inde</w>"], ["par", "is"], ["do", "ğu"], ["sak", "ınca"], ["sakınca", "sı</w>"], ["tak", "dir</w>"], ["as", "ını</w>"], ["0", "00</w>"], ["mantı", "klı</w>"], ["arkadaş", "ları</w>"], ["mey", "ve</w>"], ["ço", "r"], ["ol", "sam</w>"], ["ha", "di</w>"], ["kav", "ga</w>"], ["sev", "diğin</w>"], ["mey", "en</w>"], ["geli", "r"], ["oyun", "cu"], ["yüz", "ünden</w>"], ["el", "ini</w>"], ["kayı", "p</w>"], ["ba", "yan</w>"], ["sev", "mediğini</w>"], ["düşünmü", "yorum</w>"], ["görmez", "den</w>"], ["lanı", "yor</w>"], ["ver", "iyorum</w>"], ["ses", "le</w>"], ["sıkı", "cı</w>"], ["merha", "ba</w>"], ["lez", "zet"], ["ber", "a"], ["i̇span", "yol"], ["bu", "z"], ["ti", "mi</w>"], ["get", "ir</w>"], ["t", "ra"], ["gel", "mesini</w>"], ["er", "j"], ["ol", "saydı</w>"], ["ih", "ti"], ["er", "ek</w>"], ["dünya", "daki</w>"], ["ilgi", "lene"], ["b", "öyle"], ["ya", "zar</w>"], ["ayı", "r"], ["sey", "dim</w>"], ["y", "iyor</w>"], ["be", "la"], ["baş", "ar"], ["fil", "m"], ["gör", "mü"], ["çocuk", "ken</w>"], ["e", "din"], ["görü", "yorum</w>"], ["n", "iye</w>"], ["ek", "ono"], ["koş", "tu</w>"], ["maz", "dı</w>"], ["kt", "ü</w>"], ["b", "et</w>"], ["tanı", "dığım</w>"], ["bo", "şa</w>"], ["giy", "di</w>"], ["bo", "şan"], ["gitme", "sini</w>"], ["lığ", "ını</w>"], ["i", "lik</w>"], ["etraf", "ında</w>"], ["bir", "iyle</w>"], ["par", "ça</w>"], ["çocuklar", "ın</w>"], ["laş", "tı</w>"], ["ar", "et"], ["g", "in"], ["fav", "ori</w>"], ["s", "iye</w>"], ["lond", "ra"], ["hastan", "ede</w>"], ["ta", "sar"], ["ak", "lı"], ["düşün", "medim</w>"], ["eğ", "i"], ["alman", "ca</w>"], ["n", "eyi</w>"], ["parti", "de</w>"], ["me", "se"], ["isti", "yorsan</w>"], ["duy", "mak</w>"], ["yo", "la</w>"], ["t", "tir</w>"], ["sür", "er</w>"], ["lu", "yor</w>"], ["m", "un</w>"], ["önce", "den</w>"], ["hoşlanı", "r</w>"], ["ol", "a</w>"], ["telef", "onu</w>"], ["doğ", "al</w>"], ["p", "ir"], ["ek", "im</w>"], ["p", "eki</w>"], ["sek", "iz</w>"], ["git", "me</w>"], ["tanış", "mak</w>"], ["iz", "ledi</w>"], ["gi", "den</w>"], ["im", "za"], ["a", "meli"], ["sen", "e</w>"], ["far", "kında</w>"], ["s", "el"], ["la", "zım</w>"], ["unut", "tu</w>"], ["bıra", "ktım</w>"], ["g", "il"], ["1", "</w>"], ["bula", "şı"], ["k", "onu</w>"], ["kon", "ser"], ["çalış", "</w>"], ["diğ", "iniz</w>"], ["kü", "l"], ["un", "dan</w>"], ["kes", "in</w>"], ["duru", "mu</w>"], ["lüğ", "ü</w>"], ["yemeğ", "inden</w>"], ["plan", "ı</w>"], ["ler", "dir</w>"], ["mut", "suz</w>"], ["e", "g"], ["hatırla", "mıyorum</w>"], ["sak", "la"], ["sorum", "lu</w>"], ["ül", "ke</w>"], ["ver", "ici</w>"], ["ğ", "ini</w>"], ["2", "0</w>"], ["an", "dı</w>"], ["öldürül", "dü</w>"], ["ameri", "kan</w>"], ["söyle", "diğim</w>"], ["ayrıl", "mak</w>"], ["az", "ından</w>"], ["böl", "ge"], ["gel", "diğinde</w>"], ["cı", "dır</w>"], ["ettiğ", "im</w>"], ["a", "dil</w>"], ["sorum", "lu"], ["me", "miz</w>"], ["son", "u"], ["ce", "z"], ["düğ", "ünde</w>"], ["p", "e"], ["numar", "a"], ["burada", "yım</w>"], ["ş", "v"], ["git", "tin</w>"], ["mü", "ca"], ["müca", "de"], ["kır", "dı</w>"], ["iddi", "a</w>"], ["ğ", "unda</w>"], ["ki", "me</w>"], ["hatır", "lıyor</w>"], ["etme", "kten</w>"], ["var", "sa</w>"], ["tom'", "dur</w>"], ["ste", "r</w>"], ["mış", "tım</w>"], ["gi", "re"], ["p", "et"], ["kar", "ma"], ["boy", "lu</w>"], ["hal", "le"], ["göz", "lerini</w>"], ["ö", "r</w>"], ["şa", "şk"], ["nef", "es</w>"], ["hoşlan", "mıyorum</w>"], ["büyü", "kan"], ["ko", "v"], ["oyna", "mayı</w>"], ["b", "</w>"], ["yakışı", "klı</w>"], ["san", "iye</w>"], ["mi", "yordum</w>"], ["iş", "te</w>"], ["fadı", "l"], ["der", "in</w>"], ["şim", "di"], ["şap", "ka</w>"], ["iy", "isini</w>"], ["sen", "sin</w>"], ["ce", "p</w>"], ["dö", "vü"], ["umu", "t"], ["ede", "mem</w>"], ["es", "k"], ["saç", "ını</w>"], ["da", "yan"], ["ışı", "k</w>"], ["ce", "sar"], ["har", "iç</w>"], ["gön", "ül"], ["inan", "mıyorum</w>"], ["öner", "di</w>"], ["ar", "ını</w>"], ["pencer", "eyi</w>"], ["uyanı", "k</w>"], ["çalış", "ma</w>"], ["kız", "lar</w>"], ["görünmü", "yorsun</w>"], ["fotoğra", "f</w>"], ["kiş", "inin</w>"], ["yar", "ım</w>"], ["gürül", "tü</w>"], ["saat", "lere</w>"], ["r", "ek"], ["ihtiya", "ç</w>"], ["dur", "ma</w>"], ["no", "t</w>"], ["konu", "yu</w>"], ["n", "et</w>"], ["sipar", "iş</w>"], ["oda", "sına</w>"], ["ku", "ş</w>"], ["6", "</w>"], ["çı", "ğ"], ["bel", "li</w>"], [";", "</w>"], ["bekle", "di</w>"], ["jack", "son</w>"], ["fikir", "de</w>"], ["se", "m"], ["cu", "mar"], ["mek", "tedir</w>"], ["ne", "k</w>"], ["e", "ler</w>"], ["tan", "rı</w>"], ["oda", "yı</w>"], ["evlen", "mek</w>"], ["götür", "dü</w>"], ["dış", "ına</w>"], ["ağ", "aç</w>"], ["al", "dığını</w>"], ["tom'", "du</w>"], ["te", "s</w>"], ["ç", "in</w>"], ["giz", "li</w>"], ["ver", "ecek</w>"], ["davran", "dı</w>"], ["tanış", "tım</w>"], ["sebe", "p</w>"], ["yan", "gın</w>"], ["araba", "mı</w>"], ["e", "li</w>"], ["i̇n", "gil"], ["sa", "v"], ["se", "fer</w>"], ["göz", "leri</w>"], ["konuş", "mam</w>"], ["bay", "ra"], ["ar", "ka</w>"], ["alışver", "işe</w>"], ["ker", "e</w>"], ["y", "ip</w>"], ["oda", "sı</w>"], ["mı", "yım</w>"], ["li", "m"], ["gördüğü", "m</w>"], ["kiş", "is"], ["sın", "ır"], ["yağmu", "r"], ["takı", "m"], ["kendi", "me</w>"], ["lu", "kla</w>"], ["oyna", "ya"], ["tehdi", "t</w>"], ["ki", "bar</w>"], ["p", "orta"], ["e", "leri</w>"], ["zaman", "a</w>"], ["ola", "sı"], ["to", "n</w>"], ["ol", "o"], ["metr", "e</w>"], ["dü", "ler</w>"], ["yor", "sa</w>"], ["yetiş", "tir"], ["düşün", "e"], ["ol", "un</w>"], ["ceva", "bı</w>"], ["yağ", "ıyor</w>"], ["tat", "il"], ["ka", "tı</w>"], ["8", "</w>"], ["ür", "üz</w>"], ["sanı", "z</w>"], ["sigara", "yı</w>"], ["mez", "di</w>"], ["sine", "maya</w>"], ["korkt", "u"], ["te", "dav"], ["ke", "ş"], ["kitap", "ları</w>"], ["yeten", "ekli</w>"], ["avru", "pa"], ["bas", "ket"], ["du", "ğu</w>"], ["se", "b"], ["c", "il</w>"], ["to", "n"], ["arka", "sında</w>"], ["öz", "lü"], ["hep", "iniz</w>"], ["yaka", "ladı</w>"], ["kazan", "mak</w>"], ["yo", "ne"], ["al", "madım</w>"], ["alla", "h</w>"], ["eği", "tim</w>"], ["çalışa", "cağım</w>"], ["le", "k"], ["poli", "se</w>"], ["g", "an"], ["kahv", "altı"], ["kura", "bi"], ["baş", "kan</w>"], ["tut", "maya</w>"], ["do", "st"], ["ce", "su"], ["si", "k</w>"], ["ğ", "in</w>"], ["özgü", "r"], ["söylen", "di</w>"], ["tanış", "tığ"], ["bo", "ğu"], ["el", "ma"], ["ç", "eşi"], ["meşgulü", "m</w>"], ["y", "arak</w>"], ["kişis", "el</w>"], ["lü", "dür</w>"], ["bakı", "yor</w>"], ["muy", "du</w>"], ["bil", "gi"], ["gitme", "si</w>"], ["yapma", "z</w>"], ["mis", "af"], ["sınav", "ı</w>"], ["pan", "to"], ["imiz", "in</w>"], ["han", "gisi</w>"], ["ü", "çün"], ["ses", "ini</w>"], ["baş", "ını</w>"], ["yıl", "da</w>"], ["dön", "mek</w>"], ["baş", "ı</w>"], ["benz", "e"], ["sev", "imli</w>"], ["is", "inde</w>"], ["bu", "z</w>"], ["ver", "iyor</w>"], ["uz", "un"], ["y", "dık</w>"], ["çalış", "mıyor</w>"], ["len", "dir"], ["le", "meye</w>"], ["en", "e</w>"], ["anahtar", "ı</w>"], ["kiş", "iydi</w>"], ["ey", "di</w>"], ["f", "l"], ["dene", "mek</w>"], ["birbir", "imizi</w>"], ["t", "mak</w>"], ["yaptığ", "ım</w>"], ["te", "la"], ["ağ", "ac"], ["mer", "diven"], ["köp", "ek"], ["bitir", "mek</w>"], ["kı", "ya"], ["eder", "siniz</w>"], ["şaşır", "dım</w>"], ["oğl", "um</w>"], ["naz", "ik</w>"], ["öp", "tü</w>"], ["soru", "lar</w>"], ["y", "dü</w>"], ["oynu", "yor</w>"], ["gel", "din</w>"], ["lan", "gı"], ["geç", "miş"], ["mar", "ket"], ["seçen", "eğ"], ["yaş", "ına</w>"], ["ta", "vu"], ["üçün", "cü</w>"], ["e", "le</w>"], ["pa", "ta"], ["gö", "ster</w>"], ["f", "es"], ["tak", "si</w>"], ["ger", "gin</w>"], ["k", "ta"], ["ço", "ktan</w>"], ["i̇", "ki"], ["gide", "ceğini</w>"], ["öp", "ü"], ["bul", "maya</w>"], ["lığ", "a</w>"], ["çalışı", "yordu</w>"], ["ka", "mer"], ["al", "ma"], ["ya", "sa"], ["kal", "ktı</w>"], ["şek", "er"], ["katı", "ldı</w>"], ["b", "ö"], ["ken", "din</w>"], ["bu", "ral"], ["etme", "yecek</w>"], ["doğr", "uyu</w>"], ["dö", "v"], ["yanl", "ış"], ["kala", "caksın</w>"], ["otel", "de</w>"], ["gitme", "di</w>"], ["gül", "dü</w>"], ["vü", "cu"], ["ada", "mın</w>"], ["tu", "va"], ["la", "şı"], ["ran", "dev"], ["çalış", "mayı</w>"], ["giy", "iyor</w>"], ["sınıf", "ta</w>"], ["olma", "m</w>"], ["ö", "lü</w>"], ["giy", "s"], ["ya", "tı"], ["de", "k</w>"], ["ka", "yak</w>"], ["avu", "kat</w>"], ["dola", "b"], ["yapar", "ken</w>"], ["fransızca", "yı</w>"], ["yer", "im</w>"], ["yeş", "il</w>"], ["4", "</w>"], ["c", "ar"], ["görü", "yor</w>"], ["p", "eyn"], ["yar", "gı"], ["p", "ra"], ["bile", "t"], ["s", "por"], ["kanı", "t"], ["söylü", "yorsun</w>"], ["ni", "hay"], ["nihay", "et</w>"], ["yaralan", "dı</w>"], ["çiç", "ekler</w>"], ["ettiğ", "i</w>"], ["kadın", "lar</w>"], ["ik", "iniz</w>"], ["k", "la"], ["baş", "lıyor</w>"], ["da", "r</w>"], ["p", "eş"], ["tür", "k"], ["fa", "tu"], ["eg", "zer"], ["bitir", "di</w>"], ["ser", "bes"], ["vere", "bilir</w>"], ["tama", "m"], ["başla", "dım</w>"], ["sandv", "iç</w>"], ["değiştir", "di</w>"], ["oku", "yor</w>"], ["tik", "çe</w>"], ["li", "s"], ["düşün", "mek</w>"], ["kes", "ti</w>"], ["suç", "la"], ["in", "ce"], ["cez", "alan"], ["z", "il"], ["söyle", "diğ"], ["yor", "k"], ["bil", "di</w>"], ["yol", "da</w>"], ["si", "dir</w>"], ["ev", "im</w>"], ["in", "ti"], ["öl", "ç"], ["ko", "şa"], ["ver", "meyeceğim</w>"], ["birbir", "lerine</w>"], ["geli", "p</w>"], ["t", "h"], ["konuştu", "ğunu</w>"], ["cumar", "tesi</w>"], ["e", "mi</w>"], ["insan", "lara</w>"], ["tu", "ta"], ["y", "et</w>"], ["ister", "sin</w>"], ["olma", "dığı</w>"], ["eder", "sin</w>"], ["nor", "mal</w>"], ["genç", "ken</w>"], ["sürpr", "iz</w>"], ["mi", "r"], ["mas", "um</w>"], ["ki", "mi</w>"], ["bul", "dun</w>"], ["etme", "mi</w>"], ["ru", "s"], ["i̇s", "tas"], ["bi", "ni</w>"], ["anla", "ta"], ["bı", "ktım</w>"], ["ku", "lak</w>"], ["etme", "lisin</w>"], ["is", "t</w>"], ["as", "ker"], ["müş", "ter"], ["japon", "ca</w>"], ["ko", "y</w>"], ["tan", "rı"], ["yap", "alım</w>"], ["üniversite", "ye</w>"], ["hakkı", "mda</w>"], ["ta", "y"], ["b", "el</w>"], ["mız", "da</w>"], ["endi", "şe</w>"], ["cek", "i</w>"], ["il", "gi</w>"], ["sal", "dır"], ["toplantı", "da</w>"], ["i̇spanyol", "ca</w>"], ["ik", "â"], ["duy", "dun</w>"], ["tren", "i</w>"], ["pla", "j"], ["öde", "mek</w>"], ["i", "yorlar</w>"], ["ban", "ı</w>"], ["ba", "t"], ["söyle", "yen</w>"], ["k", "er</w>"], ["t", "te</w>"], ["gol", "f</w>"], ["öğren", "di</w>"], ["t", "ları</w>"], ["düş", "ük</w>"], ["baş", "lar</w>"], ["zaman", "ımız</w>"], ["al", "dık</w>"], ["ştu", "ru"], ["iş", "le"], ["anlam", "ına</w>"], ["geçir", "mek</w>"], ["mı", "yordu</w>"], ["iy", "iydi</w>"], ["mü", "z</w>"], ["baş", "langı"], ["ola", "bilirim</w>"], ["bulu", "şa"], ["ça", "ğr"], ["ş", "ok</w>"], ["oturu", "yordu</w>"], ["sinir", "li</w>"], ["me", "me</w>"], ["kaç", "ta</w>"], ["min", "net"], ["ma", "sa</w>"], ["ki", "r</w>"], ["ya", "şar"], ["so", "r</w>"], ["yeme", "yi</w>"], ["umu", "yor</w>"], ["iç", "meyi</w>"], ["ı", "l"], ["orman", "da</w>"], ["keli", "me"], ["ce", "s"], ["al", "da"], ["bun", "ları</w>"], ["kor", "karım</w>"], ["para", "sını</w>"], ["lı", "yordu</w>"], ["ğr", "en"], ["yanı", "t"], ["kayb", "oldu</w>"], ["kir", "li</w>"], ["h", "ir"], ["be", "beğ"], ["şidde", "tli</w>"], ["al", "tın</w>"], ["gazet", "e</w>"], ["st", "e</w>"], ["ban", "yo</w>"], ["gidi", "yoruz</w>"], ["bile", "t</w>"], ["çı", "kar</w>"], ["hi", "kay"], ["olma", "n</w>"], ["me", "dik</w>"], ["kur", "ş"], ["sorun", "ları</w>"], ["ö", "rü"], ["satran", "ç</w>"], ["tü", "ğ"], ["kes", "</w>"], ["bur", "n"], ["yeme", "m</w>"], ["ver", "diği</w>"], ["ken", "din"], ["des", "tek"], ["etme", "yin</w>"], ["göz", "e</w>"], ["bulaşı", "kları</w>"], ["ede", "bilirim</w>"], ["iz", "liyor</w>"], ["inanı", "lmaz</w>"], ["s", "ü</w>"], ["ro", "man</w>"], ["ga", "r</w>"], ["müslü", "man</w>"], ["bak", "mak</w>"], ["zayı", "f</w>"], ["'", "ı</w>"], ["sar", "hoş"], ["yava", "ş"], ["li", "se"], ["gün", "lük</w>"], ["ge", "mi</w>"], ["üst", "üne</w>"], ["ev", "inin</w>"], ["ğ", "ım</w>"], ["liy", "dim</w>"], ["1", "0</w>"], ["har", "cı"], ["düğ", "ünden</w>"], ["ge", "ze"], ["a", "yı</w>"], ["cı", "ydı</w>"], ["şa", "m"], ["dışarı", "ya</w>"], ["o", "m"], ["ça", "lar</w>"], ["keş", "f"], ["araya", "cağım</w>"], ["hiss", "ediyor</w>"], ["istas", "yona</w>"], ["özel", "likle</w>"], ["bil", "din</w>"], ["şan", "sı</w>"], ["ya", "t</w>"], ["mı", "yız</w>"], ["el", "lerini</w>"], ["alı", "yorum</w>"], ["benz", "er</w>"], ["uyku", "lu</w>"], ["fran", "sa"], ["söyleyeme", "m</w>"], ["ka", "ba</w>"], ["zaman", "dan</w>"], ["hiç", "biri</w>"], ["yaşa", "yan</w>"], ["ça", "ma"], ["üniversi", "te</w>"], ["i̇nsan", "ların</w>"], ["mi", "kt"], ["öğr", "etti</w>"], ["iş", "ı"], ["mak", "la</w>"], ["p", "ik"], ["görüş", "ürüz</w>"], ["yüz", "ünü</w>"], ["no", "kta"], ["er", "im</w>"], ["i", "ce</w>"], ["kolay", "dır</w>"], ["ye", "din</w>"], ["i̇ngili", "z</w>"], ["fran", "sız</w>"], ["gün", "dür</w>"], ["piz", "za</w>"], ["mi", "k"], ["bera", "ber</w>"], ["görün", "düğü</w>"], ["la", "mayı</w>"], ["top", "lu"], ["di", "ledi</w>"], ["kurtu", "l"], ["göz", "yaş"], ["bahç", "ede</w>"], ["kal", "dık</w>"], ["c", "o"], ["ba", "vu"], ["an", "lıyor</w>"], ["ca", "ktı</w>"], ["korku", "tu"], ["sav", "un"], ["izle", "mek</w>"], ["al", "mam</w>"], ["hay", "van</w>"], ["ülke", "de</w>"], ["kıya", "f"], ["baba", "mın</w>"], ["araba", "ya</w>"], ["miy", "di</w>"], ["n", "iş"], ["kar", "ı</w>"], ["kal", "madı</w>"], ["serbes", "t</w>"], ["olmalı", "yım</w>"], ["hazır", "ım</w>"], ["yıl", "lardır</w>"], ["ban", "ka</w>"], ["ğ", "ını</w>"], ["ister", "sen</w>"], ["di", "ş</w>"], ["döne", "cek</w>"], ["yan", "ına</w>"], ["ba", "har</w>"], ["konuşa", "n</w>"], ["di", "kten</w>"], ["gülümse", "di</w>"], ["ku", "tu</w>"], ["ev", "lene"], ["be", "ş"], ["ola", "sı</w>"], ["neh", "ir</w>"], ["o", "dan"], ["kitap", "lar</w>"], ["pa", "sa"], ["gitme", "den</w>"], ["ede", "lim</w>"], ["pencer", "eden</w>"], ["görünü", "şe</w>"], ["sen", "in"], ["k", "um</w>"], ["mi", "dir</w>"], ["part", "isine</w>"], ["kale", "m</w>"], ["aşa", "ğı</w>"], ["şüphe", "li</w>"], ["ren", "k</w>"], ["al", "madı</w>"], ["çalışı", "yorsun</w>"], ["pa", "sta</w>"], ["tekli", "f"], ["bural", "arda</w>"], ["hal", "e</w>"], ["du", "ğum</w>"], ["öğren", "meye</w>"], ["ya", "kta</w>"], ["baş", "a</w>"], ["çalışı", "yoruz</w>"], ["ayr", "ıntı"], ["şiş", "man</w>"], ["krava", "t</w>"], ["da", "ğı"], ["ote", "l</w>"], ["bir", "lik"], ["d", "ını</w>"], ["götü", "rü"], ["lı", "yorsun</w>"], ["i", "a"], ["büyükan", "ne"], ["poli", "tika"], ["bugün", "kü</w>"], ["da", "h"], ["kan", "ep"], ["i̇ş", "e</w>"], ["gel", "miyor</w>"], ["neden", "ini</w>"], ["yapa", "maz</w>"], ["ge", "mi"], ["i", "ğren"], ["hat", "alı"], ["kat", "ta</w>"], ["şaşır", "tıcı</w>"], ["son", "suz"], ["esperan", "to</w>"], ["utan", "ga"], ["git", "tikçe</w>"], ["mücade", "le</w>"], ["ci", "var"], ["hır", "sız"], ["can", "lı</w>"], ["baş", "ken"], ["nü", "fu"], ["gide", "bilir</w>"], ["iç", "ine</w>"], ["sağ", "lık</w>"], ["tatoe", "ba"], ["te", "sa"], ["tesa", "dü"], ["yol", "unu</w>"], ["kendi", "sine</w>"], ["taş", "ındı</w>"], ["ta", "le"], ["yor", "muş</w>"], ["b", "re"], ["bağ", "lan"], ["çabu", "cak</w>"], ["e-", "posta</w>"], ["ilg", "isi</w>"], ["isti", "fa</w>"], ["i̇", "h"], ["arı", "yla</w>"], ["kre", "di</w>"], ["sev", "diği</w>"], ["erk", "ekler</w>"], ["duyu", "yor</w>"], ["ala", "y</w>"], ["sı", "ğ"], ["lar", "ca</w>"], ["zaman", "ın</w>"], ["fikr", "in</w>"], ["sessiz", "ce</w>"], ["çığ", "lık</w>"], ["orta", "k</w>"], ["ettiğ", "imi</w>"], ["gerekir", "di</w>"], ["iş", "in</w>"], ["eğiti", "mi</w>"], ["eğ", "ili"], ["ara", "mak</w>"], ["aile", "m</w>"], ["ila", "ç</w>"], ["yaptığ", "ına</w>"], ["me", "de</w>"], ["a", "yakta</w>"], ["ın", "tı</w>"], ["ş", "işe</w>"], ["e", "h"], ["öldür", "mek</w>"], ["k", "in"], ["par", "lak</w>"], ["yemeğ", "ine</w>"], ["yaşı", "yordu</w>"], ["patr", "on"], ["yüz", "meyi</w>"], ["rapor", "u</w>"], ["du", "a</w>"], ["ayağ", "a</w>"], ["v", "et"], ["gele", "bilir</w>"], ["kork", "muş</w>"], ["karan", "lık</w>"], ["kullanı", "yor</w>"], ["dol", "ar"], ["katıl", "mak</w>"], ["3", "'te</w>"], ["ilgilen", "iyor</w>"], ["ş", "i</w>"], ["iç", "er</w>"], ["kalı", "r</w>"], ["h", "ede"], ["karşılaş", "tım</w>"], ["ü", "şü"], ["kö", "y"], ["yar", "ına</w>"], ["bre", "zil"], ["düş", "man"], ["kağı", "t</w>"], ["yaz", "dım</w>"], ["genel", "de</w>"], ["du", "ş</w>"], ["ley", "ici</w>"], ["yapmalı", "yız</w>"], ["kitab", "ın</w>"], ["poli", "si</w>"], ["söyle", "dik"], ["r", "lar</w>"], ["pasa", "por"], ["kay", "dı</w>"], ["televiz", "yon"], ["haf", "if"], ["oğ", "lu"], ["yapa", "cağız</w>"], ["ren", "k"], ["yata", "ğa</w>"], ["i", "t</w>"], ["fa", "kir</w>"], ["hayv", "ana"], ["hayvana", "t</w>"], ["malı", "ydım</w>"], ["a", "ta"], ["yıl", "ın</w>"], ["olmaya", "bilir</w>"], ["değiş", "ti</w>"], ["açık", "ladı</w>"], ["kim", "inle</w>"], ["iş", "leri</w>"], ["ayakka", "bı</w>"], ["yap", "mış</w>"], ["la", "s"], ["imkan", "sız</w>"], ["gör", "dük</w>"], ["iki", "miz</w>"], ["japon", "ya</w>"], ["mev", "cu"], ["son", "una</w>"], ["mil", "yon</w>"], ["değiştir", "mek</w>"], ["ru", "h"], ["a", "şk"], ["utanga", "ç</w>"], ["v", "ara"], ["gerektiğ", "i</w>"], ["yüz", "ünde</w>"], ["ü", "mü</w>"], ["s", "ol</w>"], ["m", "ını</w>"], ["öy", "ley"], ["ara", "sı</w>"], ["ge", "c"], ["korku", "t"], ["kil", "o"], ["mağ", "az"], ["yürüyü", "ş</w>"], ["bozu", "k</w>"], ["kala", "cağız</w>"], ["i̇h", "tiya"], ["çal", "ıyor</w>"], ["şüph", "e</w>"], ["or", "ta</w>"], ["baş", "ara"], ["yı", "kı"], ["öğretme", "ni</w>"], ["zor", "du</w>"], ["b", "r"], ["iş", "aret</w>"], ["fazla", "sını</w>"], ["h", "uz"], ["gün", "lerde</w>"], ["plan", "lıyorum</w>"], ["cüz", "dan"], ["bin", "di</w>"], ["gör", "düğünü</w>"], ["eh", "liy"], ["şüphe", "liyim</w>"], ["telefon", "da</w>"], ["ver", "ildi</w>"], ["ka", "lan"], ["on", "ay"], ["yı", "p</w>"], ["sı", "kıl"], ["i", "ler</w>"], ["di", "yor</w>"], ["rüz", "gar</w>"], ["kala", "balık</w>"], ["güven", "ilir</w>"], ["kırı", "k</w>"], ["luy", "um</w>"], ["çocuklar", "ını</w>"], ["mer", "ak"], ["dayan", "a"], ["tat", "il</w>"], ["so", "sya"], ["tes", "inden</w>"], ["res", "mini</w>"], ["ölü", "mü</w>"], ["uyku", "ya</w>"], ["yardım", "ına</w>"], ["ola", "ğ"], ["fırt", "ına</w>"], ["tanı", "mıyorum</w>"], ["bil", "mem</w>"], ["yıldı", "z"], ["bağ", "lı</w>"], ["iste", "mi"], ["fl", "ört</w>"], ["ya", "cak</w>"], ["gele", "ceğim</w>"], ["iler", "ini</w>"], ["etme", "ye"], ["koru", "mak</w>"], ["oturu", "yor</w>"], ["sö", "n"], ["don", "durma</w>"], ["ola", "y</w>"], ["sey", "r"], ["ya", "ş</w>"], ["lığ", "ın</w>"], ["çocu", "ğun</w>"], ["çözü", "m</w>"], ["göz", "den</w>"], ["cek", "et</w>"], ["b", "alar"], ["miş", "tir</w>"], ["i̇ste", "diğin</w>"], ["\"", "hayır</w>"], ["ad", "ında</w>"], ["insan", "ın</w>"], ["k", "ol</w>"], ["kat", "lana"], ["tu", "r</w>"], ["mu", "ha"], ["hazır", "lan"], ["kap", "ının</w>"], ["döne", "ceğim</w>"], ["yük", "sel"], ["me", "din</w>"], ["ka", "lan</w>"], ["h", "alı"], ["yağa", "cak</w>"], ["mary'", "yle</w>"], ["yaşa", "r</w>"], ["başla", "mak</w>"], ["ru", "h</w>"], ["c", "h"], ["i̇ngil", "tere"], ["moto", "sikle"], ["sü", "per"], ["kendi", "sini</w>"], ["te", "ki</w>"], ["birbir", "lerini</w>"], ["po", "sta"], ["sal", "onun"], ["a", "şı"], ["gel", "mez</w>"], ["heyecan", "lı</w>"], ["mutfa", "kta</w>"], ["in", "ize</w>"], ["bazı", "ları</w>"], ["şehir", "de</w>"], ["adam", "dır</w>"], ["y", "di</w>"], ["v", "en</w>"], ["olma", "dığımı</w>"], ["ci", "dir</w>"], ["ili", "ş"], ["ağ", "a"], ["d", "ini</w>"], ["memnun", "um</w>"], ["şaşır", "mış</w>"], ["iç", "iyor</w>"], ["i", "len</w>"], ["oğ", "lan</w>"], ["yardı", "mı"], ["basket", "bol</w>"], ["kah", "ra"], ["alış", "kan"], ["ımız", "a</w>"], ["söyle", "diğimi</w>"], ["düğ", "üne</w>"], ["ür", "et"], ["da", "yken</w>"], ["he", "m"], ["top", "u</w>"], ["davranı", "yor</w>"], ["laya", "cak</w>"], ["yor", "um"], ["şeh", "rin</w>"], ["kardeş", "in</w>"], ["bili", "m"], ["lezzet", "li</w>"], ["yapma", "na</w>"], ["kt", "ın</w>"], ["f", "iz"], ["la", "şa"], ["dey", "im</w>"], ["oda", "sını</w>"], ["ver", "meyi</w>"], ["baş", "kan"], ["ver", "meyecek</w>"], ["ya", "'ya</w>"], ["ede", "miyorum</w>"], ["çoğun", "lukla</w>"], ["çocuklar", "a</w>"], ["büyü", "ktür</w>"], ["dere", "cede</w>"], ["çalış", "tığ"], ["hangis", "ini</w>"], ["erk", "ek"], ["edi", "yorlar</w>"], ["şey", "dir</w>"], ["at", "ladı</w>"], ["w", "eb"], ["bet", "te</w>"], ["yaz", "ın</w>"], ["jan", "e</w>"], ["ğ", "una</w>"], ["g", "ara"], ["liğ", "ini</w>"], ["bekli", "yoruz</w>"], ["ora", "daki</w>"], ["esk", "isi</w>"], ["yü", "r"], ["büyü", "dü</w>"], ["iste", "yen</w>"], ["kapı", "ya</w>"], ["kafa", "sı</w>"], ["alış", "k"], ["v", "al"], ["t", "iniz</w>"], ["edi", "li"], ["fadıl", "'ın</w>"], ["ku", "su"], ["dı", "ra"], ["dü", "z</w>"], ["neh", "ir"], ["fransızca", "da</w>"], ["ede", "ceğiz</w>"], ["ka", "mera"], ["duru", "yor</w>"], ["söz", "ünü</w>"], ["to", "m"], ["yapa", "caksın</w>"], ["ga", "n</w>"], ["yapmaya", "cağım</w>"], ["söyleme", "m</w>"], ["al", "man</w>"], ["ağr", "ı</w>"], ["ara", "dım</w>"], ["ba", "ga"], ["ka", "lıyor</w>"], ["uy", "la</w>"], ["ak", "ra"], ["ç", "ir"], ["matema", "tik</w>"], ["gitme", "liyim</w>"], ["saç", "ı</w>"], ["ger", "iye</w>"], ["t", "lı</w>"], ["anlaş", "ma</w>"], ["amerika", "lı</w>"], ["ül", "ken"], ["söz", "leş"], ["anne", "sine</w>"], ["ar", "ken</w>"], ["geliş", "tir"], ["n", "ik</w>"], ["ça", "tı"], ["i̇ş", "i</w>"], ["le", "si</w>"], ["i", "ta"], ["r", "ar"], ["ça", "la"], ["so", "h"], ["müzi", "ği</w>"], ["ma", "ları</w>"], ["sev", "dim</w>"], ["baş", "kanı</w>"], ["uyu", "du</w>"], ["yaka", "lan"], ["bun", "lardan</w>"], ["sak", "lan"], ["ir", "ler</w>"], ["sonsuz", "a</w>"], ["b", "lo"], ["yapı", "yordu</w>"], ["otobü", "se</w>"], ["anla", "mıyor</w>"], ["panto", "l"], ["akı", "cı</w>"], ["p", "lak</w>"], ["numar", "asını</w>"], ["proble", "mi</w>"], ["kili", "s"], ["el", "bette</w>"], ["aff", "edersiniz</w>"], ["iy", "e"], ["yer", "el</w>"], ["egzer", "siz</w>"], ["uza", "ttı</w>"], ["dokto", "ra</w>"], ["oda", "dan</w>"], ["giy", "iyordu</w>"], ["al", "gın"], ["yapa", "maya"], ["ya", "s"], ["rü", "ya</w>"], ["kurş", "un</w>"], ["bo", "ğ"], ["i̇ki", "miz</w>"], ["etme", "z"], ["git", "tiler</w>"], ["kal", "maya</w>"], ["yapma", "ma</w>"], [":", "</w>"], ["diğ", "imiz</w>"], ["gel", "diği</w>"], ["tedav", "i</w>"], ["bilir", "dim</w>"], ["se", "fer"], ["baba", "n</w>"], ["yaz", "mayı</w>"], ["araba", "m</w>"], ["al", "t</w>"], ["üz", "ü"], ["yüz", "me</w>"], ["di", "s"], ["d", "anı"], ["gün", "dü</w>"], ["yaban", "cı"], ["bitir", "dim</w>"], ["fer", "an"], ["web", "</w>"], ["ay", "n"], ["mu", "ş"], ["kam", "p</w>"], ["birbir", "imize</w>"], ["konuş", "ması</w>"], ["cu", "ma</w>"], ["r", "ol</w>"], ["heye", "can</w>"], ["anla", "t</w>"], ["şüphelen", "iyorum</w>"], ["gör", "meyi</w>"], ["as", "</w>"], ["araba", "da</w>"], ["restoran", "da</w>"], ["pat", "la"], ["tem", "bel</w>"], ["çı", "plak</w>"], ["alış", "kın</w>"], ["mı", "dır</w>"], ["sev", "iyorsun</w>"], ["sar", "ı</w>"], ["ye", "min</w>"], ["i̇ş", "ler</w>"], ["düzen", "li</w>"], ["kazana", "cağını</w>"], ["hikay", "eyi</w>"], ["yapmaya", "cak</w>"], ["muh", "te"], ["sabah", "leyin</w>"], ["havaalan", "ına</w>"], ["otu", "ra"], ["bun", "ların</w>"], ["tutuk", "landı</w>"], ["kontr", "ol"], ["olur", "um</w>"], ["ok", "yan"], ["okyan", "u"], ["eli", "miz"], ["sey", "di</w>"], ["öl", "düğünü</w>"], ["mah", "v"], ["edi", "ci</w>"], ["ko", "va"], ["tu", "t</w>"], ["kır", "k</w>"], ["haya", "l"], ["gele", "cek"], ["ola", "bileceğ"], ["karma", "şık</w>"], ["tarih", "i</w>"], ["çi", "ğ"], ["inti", "har</w>"], ["geç", "e"], ["yapa", "biliriz</w>"], ["po", "z"], ["ver", "dik</w>"], ["ro", "ber"], ["ça", "sı</w>"], ["arkadaşlar", "ım</w>"], ["ay", "da</w>"], ["yapa", "bil"], ["vere", "mem</w>"], ["ta", "dı</w>"], ["te", "şv"], ["teşv", "ik</w>"], ["ma", "liy"], ["ba", "kalım</w>"], ["oyna", "dı</w>"], ["mar", "s"], ["meliy", "din</w>"], ["gidi", "yorsun</w>"], ["sür", "ücü</w>"], ["köpeğ", "ini</w>"], ["neden", "le</w>"], ["bırak", "mak</w>"], ["sen", "iz</w>"], ["di", "lerim</w>"], ["sami", "mi</w>"], ["ara", "da</w>"], ["davran", "ış"], ["'n", "un</w>"], ["etme", "liyiz</w>"], ["tren", "e</w>"], ["ra", "k</w>"], ["t", "ma</w>"], ["yapı", "yoruz</w>"], ["yapmalı", "sın</w>"], ["düğü", "mü</w>"], ["e", "f"], ["i̇n", "san</w>"], ["kız", "gın"], ["ver", "diler</w>"], ["düzel", "t"], ["ğ", "ü</w>"], ["ola", "caktır</w>"], ["görmü", "yorum</w>"], ["ın", "a"], ["koku", "yor</w>"], ["va", "tan"], ["di", "re"], ["gö", "l"], ["sö", "r"], ["hoş", "uma</w>"], ["altı", "da</w>"], ["yarar", "lı</w>"], ["otobüs", "le</w>"], ["ver", "meye</w>"], ["şarkı", "cı</w>"], ["çiç", "ekleri</w>"], ["saa", "ti</w>"], ["ara", "ya</w>"], ["ka", "ta</w>"], ["yaşa", "dım</w>"], ["konuştu", "k</w>"], ["yolcu", "luk</w>"], ["kutu", "yu</w>"], ["dı", "ktan</w>"], ["dey", "di</w>"], ["kar", "n"], ["saat", "te</w>"], ["hata", "lar</w>"], ["geze", "gen"], ["lı", "k"], ["dol", "ara</w>"], ["dığ", "ımda</w>"], ["7", "</w>"], ["bilir", "ler</w>"], ["m", "il</w>"], ["d", "inle</w>"], ["sosya", "l</w>"], ["tatoe", "ba</w>"], ["al", "ması</w>"], ["be", "cer"], ["zorunda", "ydım</w>"], ["yolcu", "lu"], ["söyle", "diğine</w>"], ["ku", "zen"], ["sı", "cak"], ["su", "ç</w>"], ["çıkı", "yor</w>"], ["sıra", "da</w>"], ["öldü", "re"], ["san", "ki</w>"], ["yorgun", "um</w>"], ["gerek", "ecek</w>"], ["gitme", "dim</w>"], ["göz", "ü"], ["ba", "ktım</w>"], ["gerekir", "se</w>"], ["p", "ren"], ["sa", "r</w>"], ["kullan", "dı</w>"], ["cı", "sı</w>"], ["ücret", "siz</w>"], ["y", "un"], ["bir", "inci</w>"], ["umu", "t</w>"], ["bilmi", "yoruz</w>"], ["tar", "ım</w>"], ["tarz", "ını</w>"], ["insan", "larla</w>"], ["ces", "aret</w>"], ["f", "ı"], ["yaka", "landı</w>"], ["ara", "banın</w>"], ["ya", "sal</w>"], ["süre", "ce</w>"], ["mı", "sır"], ["ler", "imiz</w>"], ["rü", "ya"], ["ınız", "a</w>"], ["tiğ", "i</w>"], ["laya", "cağım</w>"], ["değer", "li</w>"], ["duy", "madım</w>"], ["uyu", "şturu"], ["anla", "mak</w>"], ["e", "bilirim</w>"], ["kon", "ser</w>"], ["bi", "na</w>"], ["zen", "gin"], ["ede", "medi</w>"], ["gara", "j"], ["on", "da</w>"], ["f", "il</w>"], ["bula", "mıyorum</w>"], ["p", "al"], ["teh", "lik"], ["ş", "of"], ["pra", "tik</w>"], ["in", "dir"], ["ç", "ta</w>"], ["cesu", "r</w>"], ["a", "san"], ["alır", "ım</w>"], ["ceva", "b"], ["m", "ları</w>"], ["sö", "r</w>"], ["ga", "li"], ["hay", "ran"], ["oku", "maya</w>"], ["yüz", "üne</w>"], ["anla", "mı</w>"], ["maa", "le"], ["maale", "se"], ["maalese", "f</w>"], ["al", "ber"], ["üs", "tesinden</w>"], ["'", "un</w>"], ["umu", "yordum</w>"], ["kor", "ka"], ["hav", "uz"], ["rast", "ladım</w>"], ["bo", "m"], ["t", "ör"], ["el", "li</w>"], ["kar", "t"], ["porta", "kal</w>"], ["ço", "ra"], ["yardı", "mı</w>"], ["çevir", "di</w>"], ["ce", "se"], ["gru", "p</w>"], ["john'", "u</w>"], ["fa", "ce"], ["face", "bo"], ["ede", "bileceğini</w>"], ["pay", "laş"], ["laya", "bilir</w>"], ["bağ", "ış"], ["edil", "miş</w>"], ["mu", "yorsun</w>"], ["durdur", "du</w>"], ["s", "il"], ["ya", "v"], ["yağ", "dı</w>"], ["ıs", "rar</w>"], ["yan", "g"], ["iğren", "ç</w>"], ["su", "l"], ["po", "stan"], ["ler", "ken</w>"], ["i̇ç", "eri</w>"], ["ki", "bar"], ["balı", "ğı</w>"], ["gü", "cü"], ["es", "iz</w>"], ["çocuk", "lu"], ["ma", "kta</w>"], ["köpeğ", "im</w>"], ["masa", "ya</w>"], ["sev", "me"], ["gen", "iş</w>"], ["görün", "düğünü</w>"], ["ta", "bi"], ["uyan", "dır"], ["kar", "arı</w>"], ["gönül", "lü</w>"], ["leş", "ti</w>"], ["açık", "lama</w>"], ["li", "z"], ["ka", "te</w>"], ["oyna", "r</w>"], ["sabır", "lı</w>"], ["ban", "yo"], ["iy", "ilik</w>"], ["resto", "ran</w>"], ["ço", "ğunu</w>"], ["çal", "dığını</w>"], ["in", "ter"], ["c", "ım</w>"], ["sa", "la"], ["ödev", "imi</w>"], ["söz", "lük</w>"], ["öyley", "se</w>"], ["yüz", "de</w>"], ["kal", "p</w>"], ["ç", "ince</w>"], ["etme", "ni</w>"], ["john'", "a</w>"], ["ze", "hir"], ["şa", "ka"], ["kal", "ın</w>"], ["başarı", "sız"], ["uy", "ku</w>"], ["mez", "dim</w>"], ["gör", "ev</w>"], ["yapa", "cağına</w>"], ["ı", "yordu</w>"], ["öğren", "iyorum</w>"], ["tıra", "ş</w>"], ["kö", "r</w>"], ["birbir", "leriyle</w>"], ["ceza", "yir"], ["ön", "ceki</w>"], ["mu", "r"], ["is", "inin</w>"], ["hata", "sı</w>"], ["müz", "is"], ["dikkat", "lice</w>"], ["söylü", "yorlar</w>"], ["ann", "en</w>"], ["lanı", "yorum</w>"], ["konuş", "tun</w>"], ["sal", "dırı"], ["sahi", "bim</w>"], ["soh", "bet</w>"], ["şey", "imiz</w>"], ["kilis", "eye</w>"], ["adres", "ini</w>"], ["etme", "yeceğim</w>"], ["say", "gı"], ["haf", "if</w>"], ["muy", "um</w>"], ["in", "at"], ["yıl", "dan</w>"], ["ettiğ", "in</w>"], ["kur", "du</w>"], ["do", "ku"], ["ka", "lı</w>"], ["lüğ", "ünü</w>"], ["sız", "dır</w>"], ["anne", "sinin</w>"], ["doldu", "rdu</w>"], ["iler", "in</w>"], ["ha", "s"], ["yapabileceğ", "imi</w>"], ["ağr", "ıyor</w>"], ["par", "ma"], ["t", "le</w>"], ["ta", "li"], ["\"", "evet</w>"], ["in", "izin</w>"], ["yapa", "bilirsin</w>"], ["a", "h</w>"], ["izle", "dim</w>"], ["iler", "e</w>"], ["alı", "k</w>"], ["gibi", "dir</w>"], ["yay", "ın"], ["is", "ten"], ["yapı", "lacağını</w>"], ["yeme", "kten</w>"], ["yu", "m"], ["yapmalı", "yım</w>"], ["alışk", "ın"], ["ka", "le</w>"], ["olan", "lar</w>"], ["ta", "bl"], ["kütüphan", "ede</w>"], ["zayı", "f"], ["anla", "şı"], ["kullana", "bilir</w>"], ["lar", "ımız</w>"], ["in", "iz"], ["kar", "a</w>"], ["baba", "sına</w>"], ["da", "dır</w>"], ["sun", "a</w>"], ["yor", "u"], ["buz", "dolab"], ["le", "m"], ["iste", "yip</w>"], ["ve", "da</w>"], ["ola", "cağına</w>"], ["dinle", "mek</w>"], ["gerek", "tir"], ["ştu", "r</w>"], ["va", "s"], ["e", "ceğiz</w>"], ["s", "ol"], ["et", "in</w>"], ["bilmi", "yorsun</w>"], ["baş", "ardı</w>"], ["ti", "p"], ["konuş", "maktan</w>"], ["dük", "kan"], ["kar", "l</w>"], ["maya", "caksın</w>"], ["201", "3'te</w>"], ["zaman", "ki</w>"], ["piş", "man"], ["böyle", "sine</w>"], ["mü", "l"], ["edili", "r</w>"], ["çir", "kin</w>"], ["göre", "bilir</w>"], ["mektu", "p"], ["su", "ya</w>"], ["ta", "kıl"], ["a", "da</w>"], ["aşağı", "ya</w>"], ["il", "miş</w>"], ["is", "e</w>"], ["sak", "in"], ["pro", "fes"], ["profes", "yone"], ["ım", "la</w>"], ["uz", "man"], ["yeme", "dim</w>"], ["is", "idir</w>"], ["mer", "ye"], ["hatırlaya", "mıyorum</w>"], ["indey", "di</w>"], ["vide", "o</w>"], ["yer", "ini</w>"], ["kad", "arıyla</w>"], ["ağla", "maya</w>"], ["fark", "ında"], ["ver", "medim</w>"], ["niş", "an"], ["söyleye", "ceğini</w>"], ["düşün", "mediğini</w>"], ["hiss", "ettir"], ["bel", "ge"], ["konuş", "alım</w>"], ["pa", "ket"], ["sinir", "len"], ["siz", "ce</w>"], ["git", "miyor</w>"], ["hem", "şir"], ["o", "s</w>"], ["geçir", "dik</w>"], ["ş", "ikâ"], ["ağac", "ın</w>"], ["değil", "ler</w>"], ["cümle", "yi</w>"], ["baga", "j"], ["ünü", "z</w>"], ["-", "</w>"], ["mikt", "arda</w>"], ["ku", "y"], ["x", "</w>"], ["el", "de</w>"], ["öfke", "li</w>"], ["hoşlan", "madığını</w>"], ["de", "diğini</w>"], ["bah", "arda</w>"], ["pata", "tes</w>"], ["ver", "en"], ["parça", "sı</w>"], ["a", "sı"], ["yapı", "lacak</w>"], ["du", "yar"], ["şa", "n</w>"], ["b", "ro"], ["fiya", "tı</w>"], ["k", "ün"], ["dep", "re"], ["kız", "ım</w>"], ["şey", "le</w>"], ["gömle", "k</w>"], ["göre", "ceğim</w>"], ["ıs", "ından</w>"], ["p", "il"], ["kal", "dırdı</w>"], ["zaman", "ını</w>"], ["yapma", "n"], ["geç", "meden</w>"], ["şem", "siye</w>"], ["edi", "yordum</w>"], ["yer", "den</w>"], ["oku", "lu</w>"], ["olu", "ş"], ["arka", "sına</w>"], ["d", "ana</w>"], ["kasaba", "da</w>"], ["unu", "tu"], ["kon", "feran"], ["z", "ek"], ["ziy", "aret"], ["ev", "ime</w>"], ["korku", "yordu</w>"], ["i", "tti</w>"], ["dür", "dü</w>"], ["olağ", "an"], ["lan", "da"], ["öğren", "din</w>"], ["yürü", "mek</w>"], ["cı", "k</w>"], ["olan", "ı</w>"], ["olma", "dığından</w>"], ["ak", "l"], ["ke", "le"], ["haya", "tım</w>"], ["iste", "mez</w>"], ["iç", "ecek</w>"], ["istediğ", "imiz</w>"], ["par", "ka</w>"], ["su", "sa"], ["kyo", "to"], ["i̇s", "la"], ["siz", "den</w>"], ["hapis", "te</w>"], ["far", "kı</w>"], ["açık", "çası</w>"], ["mah", "ke"], ["iy", "iyim</w>"], ["etme", "liyim</w>"], ["yarı", "sı</w>"], ["uğra", "dı</w>"], ["re", "zer"], ["yanı", "t</w>"], ["yapar", "sın</w>"], ["da", "yım</w>"], ["y", "ana</w>"], ["er", "di</w>"], ["im", "ini</w>"], ["söyleye", "bilirim</w>"], ["me", "s"], ["ih", "an"], ["bil", "g"], ["masa", "da</w>"], ["çarp", "tı</w>"], ["insan", "lardan</w>"], ["kim", "dir</w>"], ["yapı", "ldı</w>"], ["kız", "ar"], ["dav", "a</w>"], ["saç", "ma</w>"], ["mal", "ze"], ["kaç", "ın"], ["alla", "h"], ["al", "ma</w>"], ["süper", "market"], ["taraf", "ında</w>"], ["elimiz", "den</w>"], ["çalış", "ma"], ["düşün", "dün</w>"], ["dol", "uydu</w>"], ["kamer", "a</w>"], ["j", "im</w>"], ["sev", "di</w>"], ["la", "u"], ["har", "var"], ["yanı", "mda</w>"], ["ka", "s</w>"], ["mevcu", "t</w>"], ["birli", "ği</w>"], ["fayda", "sı</w>"], ["evli", "lik</w>"], ["sorun", "um</w>"], ["tehlike", "de</w>"], ["ne", "si</w>"], ["alman", "ya'da</w>"], ["kim", "le</w>"], ["ma", "li</w>"], ["e", "m</w>"], ["is", "t"], ["olma", "nı</w>"], ["uyu", "maya</w>"], ["kal", "dır"], ["tu", "ris"], ["lan", "mış</w>"], ["yaz", "mak</w>"], ["al", "erj"], ["kuy", "ru"], ["gen", "el</w>"], ["al", "ın</w>"], ["çocuklar", "ına</w>"], ["kullan", "mak</w>"], ["0", "0"], ["ga", "bri"], ["t", "ınız</w>"], ["rad", "yo"], ["suç", "ladı</w>"], ["yapa", "mayacağını</w>"], ["söyleme", "yeceğim</w>"], ["ede", "mez</w>"], ["gitme", "mi</w>"], ["kala", "cağını</w>"], ["i̇ngiliz", "ceyi</w>"], ["uyuşturu", "cu</w>"], ["ğ", "ına</w>"], ["çek", "iyor</w>"], ["ek", "i"], ["korktu", "ğunu</w>"], ["yar", "ı</w>"], ["yeme", "z</w>"], ["me", "ne</w>"], ["e", "leştir"], ["ağ", "acı</w>"], ["jack", "son"], ["be", "le"], ["anla", "madım</w>"], ["te", "or"], ["düşündüğü", "m</w>"], ["z", "i</w>"], ["amca", "m</w>"], ["ba", "tı"], ["şı", "r</w>"], ["ayakkabı", "larını</w>"], ["uyu", "mak</w>"], ["hükü", "met</w>"], ["ışı", "ğı</w>"], ["ara", "maya</w>"], ["kız", "ın</w>"], ["git", "miş</w>"], ["vatan", "da"], ["re", "h"], ["bar", "ış</w>"], ["sa", "ç</w>"], ["isti", "yorlar</w>"], ["gör", "ür"], ["geç", "er"], ["ara", "p"], ["gabri", "el</w>"], ["tar", "ih</w>"], ["düşünme", "miştim</w>"], ["kam", "yon</w>"], ["endişe", "liyim</w>"], ["kıskan", "ç</w>"], ["iz", "li"], ["ba", "n</w>"], ["söyleme", "ye"], ["dı", "klarını</w>"], ["ebeveyn", "leri</w>"], ["bo", "b</w>"], ["tiya", "tr"], ["mağaz", "a</w>"], ["beb", "eği</w>"], ["la", "t</w>"], ["kah", "ir"], ["iş", "ine</w>"], ["oyun", "cak</w>"], ["pir", "inç</w>"], ["el", "inde</w>"], ["linda", "'nın</w>"], ["bağır", "dı</w>"], ["yapa", "bileceğim</w>"], ["ver", "ir"], ["sin", "ca"], ["göster", "mek</w>"], ["hoşlan", "maz</w>"], ["o", "h</w>"], ["kapı", "da</w>"], ["yıldı", "z</w>"], ["gü", "cü</w>"], ["dair", "e</w>"], ["m", "li</w>"], ["dünya", "yı</w>"], ["yapa", "cağ"], ["sü", "p"], ["olmalı", "yız</w>"], ["c", "ın</w>"], ["malı", "ydı</w>"], ["dikkat", "le</w>"], ["â", "şık</w>"], ["ik", "tir"], ["niy", "et</w>"], ["iy", "im"], ["bah", "se</w>"], ["mi", "t"], ["den", "ir</w>"], ["iş", "ler</w>"], ["ay", "ın</w>"], ["rober", "t</w>"], ["in", "kar</w>"], ["yağ", "maya</w>"], ["kı", "sa"], ["kuz", "ey</w>"], ["yol", "unda</w>"], ["baş", "ında</w>"], ["pa", "u"], ["lu", "dur</w>"], ["sev", "diğimi</w>"], ["dil", "ini</w>"], ["sık", "ış"], ["ada", "ma</w>"], ["ley", "en</w>"], ["karde", "ş</w>"], ["ör", "nek</w>"], ["ulu", "s"], ["kapa", "t</w>"], ["hata", "yı</w>"], ["deney", "im"], ["uğra", "mış</w>"], ["y", "eyi</w>"], ["f", "f"], ["i", "ca"], ["la", "ttı</w>"], ["tes", "ti</w>"], ["iste", "miyoruz</w>"], ["d", "ör"], ["ile", "tiş"], ["is", "im"], ["japonya", "'ya</w>"], ["fiya", "t</w>"], ["sava", "şı</w>"], ["çiz", "gi</w>"], ["a", "st"], ["alber", "to</w>"], ["çikola", "ta</w>"], ["kah", "veren"], ["ka", "ça"], ["ko", "ya"], ["i̇ngiliz", "ce"], ["kr", "al</w>"], ["mız", "ın</w>"], ["lene", "cek</w>"], ["yürü", "yerek</w>"], ["j", "u"], ["çı", "k</w>"], ["çek", "in"], ["düşün", "düğü</w>"], ["söz", "cü"], ["imiz", "den</w>"], ["kt", "ur</w>"], ["çıkar", "ı"], ["yeten", "eğ"], ["yü", "</w>"], ["yaşa", "mayı</w>"], ["bula", "madı</w>"], ["göz", "le</w>"], ["u", "laşa"], ["rad", "yo</w>"], ["diğer", "leri</w>"], ["kural", "ları</w>"], ["ya", "ktı</w>"], ["yapma", "ması</w>"], ["muhte", "şe"], ["muhteşe", "m</w>"], ["tes", "t</w>"], ["mo", "bil"], ["şi", "f"], ["arkadaş", "ının</w>"], ["bele", "diye</w>"], ["çalışır", "ım</w>"], ["kend", "inden</w>"], ["pa", "halı"], ["d", "o</w>"], ["ka", "li"], ["tabi", "i</w>"], ["tan", "ın</w>"], ["m", "ola</w>"], ["tela", "ff"], ["olma", "saydı</w>"], ["şaşır", "ttı</w>"], ["şı", "yor</w>"], ["der", "si</w>"], ["lin", "da</w>"], ["can", "ı</w>"], ["cek", "etini</w>"], ["hede", "f"], ["miy", "din</w>"], ["avru", "pa</w>"], ["mo", "der"], ["kaza", "sında</w>"], ["gö", "tür</w>"], ["korku", "yorum</w>"], ["o", "t</w>"], ["san", "at</w>"], ["ür", "ün"], ["profesyone", "l</w>"], ["iç", "e"], ["kala", "balı"], ["mü", "hen"], ["bil", "l</w>"], ["giz", "lice</w>"], ["geli", "yorum</w>"], ["takı", "yor</w>"], ["ilgilen", "dir"], ["ka", "'da</w>"], ["kom", "ş"], ["bi", "ne"], ["i̇sla", "m'"], ["seçen", "ek</w>"], ["planlı", "yorsun</w>"], ["bıça", "k</w>"], ["konuşu", "rken</w>"], ["i", "ma</w>"], ["nası", "ldı</w>"], ["pa", "sta"], ["iste", "din</w>"], ["yürü", "ye"], ["1", "00</w>"], ["g", "ay"], ["kış", "ın</w>"], ["key", "if</w>"], ["kal", "masını</w>"], ["ma", "mış</w>"], ["meliy", "di</w>"], ["otur", "ma</w>"], ["or", "du"], ["değil", "siniz</w>"], ["n", "is"], ["y", "umu"], ["yumu", "şa"], ["zorunda", "ydı</w>"], ["yan", "ni</w>"], ["gir", "iş</w>"], ["dı", "rıl"], ["iti", "bar"], ["dövü", "ş"], ["yay", "gın</w>"], ["in", "dir</w>"], ["fa", "t</w>"], ["et", "miş</w>"], ["moder", "n</w>"], ["gide", "ceğiz</w>"], ["er", "tele"], ["bosto", "n"], ["sınav", "</w>"], ["ala", "cağını</w>"], ["borç", "lu</w>"], ["te", "st"], ["üz", "ül"], ["unut", "mayacağım</w>"], ["yıl", "lar</w>"], ["köpeğ", "in</w>"], ["fatu", "ra"], ["amerika", "'da</w>"], ["bil", "dir</w>"], ["oldu", "k</w>"], ["hoşlan", "dığını</w>"], ["dan", "ış"], ["hayvan", "lar</w>"], ["olduğun", "uzu</w>"], ["ab", "d"], ["ek", "me"], ["orta", "sında</w>"], ["kardeş", "ine</w>"], ["g", "r"], ["o", "ya</w>"], ["gir", "mek</w>"], ["ol", "saydım</w>"], ["kıyaf", "et"], ["yu", "karı</w>"], ["umu", "yordu</w>"], ["düşünü", "yorsunuz</w>"], ["sal", "ladı</w>"], ["yap", "mıyor</w>"], ["ta", "yı</w>"], ["za", "h"], ["lar", "ıyla</w>"], ["ö", "v"], ["hiz", "met</w>"], ["yağ", "ı</w>"], ["dönü", "ş"], ["kal", "dığını</w>"], ["koşu", "l"], ["ben", "de</w>"], ["görü", "şü"], ["yaşa", "maya</w>"], ["al", "dığı</w>"], ["oku", "ma</w>"], ["bi", "l</w>"], ["ris", "k"], ["ya", "sa</w>"], ["diğ", "imden</w>"], ["hayat", "ının</w>"], ["ayrı", "ca</w>"], ["teme", "l</w>"], ["meşgul", "dü</w>"], ["düş", "man</w>"], ["mı", "yordum</w>"], ["ğun", "dan</w>"], ["tü", "rü</w>"], ["bahs", "etti</w>"], ["bor", "ç</w>"], ["gün", "ünde</w>"], ["çiç", "ek"], ["uy", "um</w>"], ["fa", "n</w>"], ["vere", "ceğini</w>"], ["ulaş", "tı</w>"], ["re", "ka"], ["ma", "y"], ["ı", "sır"], ["duydu", "ğu"], ["ca", "klarını</w>"], ["üniversite", "de</w>"], ["bo", "d"], ["çal", "mayı</w>"], ["öğrenc", "isi</w>"], ["olduğumu", "z</w>"], ["man", "z"], ["ç", "en"], ["iste", "miyorsun</w>"], ["sür", "ecek</w>"], ["soka", "kta</w>"], ["do", "kuz"], ["düş", "ü"], ["nehir", "de</w>"], ["tr", "e</w>"], ["i̇", "ster"], ["yapıl", "mış</w>"], ["ki", "ler</w>"], ["kiş", "iyi</w>"], ["aç", "lıktan</w>"], ["al", "dığım</w>"], ["al", "ındı</w>"], ["redde", "t"], ["klar", "ından</w>"], ["tehlike", "lidir</w>"], ["ımız", "da</w>"], ["mah", "cu"], ["da", "ydım</w>"], ["bira", "z"], ["düşünmü", "ş"], ["adı", "mı</w>"], ["is", "im</w>"], ["ola", "cağından</w>"], ["plan", "ın</w>"], ["kurtar", "dı</w>"], ["e", "ceksin</w>"], ["seç", "im</w>"], ["ver", "en</w>"], ["yap", "tılar</w>"], ["hiss", "etmiyorum</w>"], ["top", "la"], ["öde", "di</w>"], ["hap", "se</w>"], ["şans", "lı"], ["konuşu", "yorsun</w>"], ["yak", "laş"], ["nası", "l"], ["öner", "irim</w>"], ["otur", "mak</w>"], ["a", "kt"], ["sandal", "ye"], ["ma", "r</w>"], ["kulü", "b"], ["is", "te</w>"], ["çöz", "e"], ["ıs", "mar"], ["sor", "gu"], ["yür", "ür"], ["gör", "ev"], ["gele", "ceği</w>"], ["kovu", "l"], ["m", "or"], ["pazar", "tes"], ["eş", "lik</w>"], ["cak", "sınız</w>"], ["merkez", "ine</w>"], ["örü", "m"], ["tan", "ı</w>"], ["görü", "le"], ["tavu", "k</w>"], ["bil", "seydim</w>"], ["iş", "imi</w>"], ["bisikle", "ti</w>"], ["yeme", "di</w>"], ["ti", "kten</w>"], ["gel", "diniz</w>"], ["h", "uy"], ["ç", "ları</w>"], ["le", "dim</w>"], ["ta", "ş</w>"], ["dür", "en</w>"], ["k", "ral"], ["ye", "dik</w>"], ["doğru", "dan</w>"], ["elektr", "ik"], ["söyleye", "bilirsin</w>"], ["ik", "en</w>"], ["'n", "de</w>"], ["hiz", "met"], ["yan", "lar</w>"], ["kahir", "e"], ["ken", "ar"], ["poz", "is"], ["sorun", "umuz</w>"], ["güven", "lik</w>"], ["pro", "fe"], ["olduğun", "un</w>"], ["an", "lar</w>"], ["yazı", "yor</w>"], ["vakt", "i</w>"], ["üzer", "inden</w>"], ["bekle", "miyordum</w>"], ["ı", "l</w>"], ["bekli", "yordu</w>"], ["arkadaşlar", "ından</w>"], ["tokyo", "'ya</w>"], ["düşündüğü", "n</w>"], ["yıl", "dı</w>"], ["etme", "n</w>"], ["to", "p</w>"], ["kay", "de"], ["kuş", "lar</w>"], ["do", "muz</w>"], ["kam", "yon"], ["ı", "zı</w>"], ["ver", "diğini</w>"], ["dede", "k"], ["ya", "'nın</w>"], ["oğ", "lan"], ["jan", "os</w>"], ["yaşı", "yoruz</w>"], ["doğru", "dur</w>"], ["aç", "tım</w>"], ["yük", "sek"], ["or", "i"], ["iletiş", "im</w>"], ["yapı", "p</w>"], ["öldü", "rü"], ["telefon", "unu</w>"], ["bileceğ", "imizi</w>"], ["ris", "ke</w>"], ["sey", "din</w>"], ["ağ", "ladı</w>"], ["kalı", "r"], ["hakk", "ındaki</w>"], ["yapma", "mızı</w>"], ["da", "yanı"], ["ma", "dığımı</w>"], ["d", "olu"], ["harvar", "d"], ["güzel", "dir</w>"], ["yen", "in</w>"], ["baş", "lıyorum</w>"], ["sık", "lıkta</w>"], ["ülken", "in</w>"], ["\"", "ben</w>"], ["lar", "ınızı</w>"], ["siz", "dir</w>"], ["cin", "sel</w>"], ["endişelen", "me</w>"], ["u", "yor</w>"], ["çalışır", "ken</w>"], ["konuşa", "cak</w>"], ["mutlu", "luk</w>"], ["yap", "ra"], ["fut", "bol"], ["kal", "mış</w>"], ["li", "der"], ["anlaya", "mıyorum</w>"], ["ay", "dır</w>"], ["gel", "mesi</w>"], ["z", "ir"], ["bi", "ne</w>"], ["tat", "min</w>"], ["silah", "ı</w>"], ["cid", "diye</w>"], ["kı", "zla</w>"], ["lar", "ımızı</w>"], ["a", "cak</w>"], ["ameri", "kalı"], ["saat", "tir</w>"], ["sandal", "ye</w>"], ["p", "l"], ["olma", "mız</w>"], ["gün", "ey</w>"], ["ya", "lı</w>"], ["ola", "bilirdi</w>"], ["mek", "le</w>"], ["sever", "sin</w>"], ["dev", "let</w>"], ["anahtar", "larını</w>"], ["kö", "ş"], ["hapishan", "ede</w>"], ["ney", "se</w>"], ["depre", "m</w>"], ["doldu", "r"], ["gün", "ler</w>"], ["bun", "da</w>"], ["düğü", "n</w>"], ["kahveren", "gi</w>"], ["göz", "lük"], ["kaza", "k</w>"], ["yapar", "dı</w>"], ["bakı", "yordu</w>"], ["konuş", "maz</w>"], ["üc", "ret</w>"], ["laya", "n</w>"], ["ala", "n</w>"], ["olu", "m"], ["sık", "lıkla</w>"], ["ger", "ide</w>"], ["yardı", "mın</w>"], ["den", "ize</w>"], ["da", "ldı</w>"], ["bekle", "dim</w>"], ["sı", "ydı</w>"], ["me", "miş</w>"], ["ceğ", "in</w>"], ["gel", "meden</w>"], ["yar", "ışı</w>"], ["m", "lar</w>"], ["ara", "ç</w>"], ["e", "fen"], ["b", "ede"], ["gördüğü", "mde</w>"], ["al", "kol</w>"], ["öl", "mek</w>"], ["devlet", "ler"], ["bü", "t"], ["tasar", "ru"], ["uz", "andı</w>"], ["yanlış", "lıkla</w>"], ["kasa", "ba</w>"], ["sık", "ıntı"], ["o", "sa"], ["s", "üz</w>"], ["konuş", "madı</w>"], ["in", "c"], ["görü", "şe"], ["kardeş", "ini</w>"], ["göre", "lim</w>"], ["in", "ceye</w>"], ["küçü", "m"], ["polis", "ler</w>"], ["dürü", "st"], ["va", "liz"], ["bıra", "kıl"], ["mak", "tır</w>"], ["tu", "z</w>"], ["bilgisayar", "ı</w>"], ["dal", "ga</w>"], ["koy", "un</w>"], ["yapı", "lır</w>"], ["bas", "kı</w>"], ["huz", "ur"], ["yaz", "ar"], ["umur", "unda</w>"], ["yapar", "san</w>"], ["ku", "l</w>"], ["rezer", "vas"], ["sev", "mem</w>"], ["ol", "muştu</w>"], ["sır", "rı</w>"], ["ştu", "r"], ["h", "or"], ["eder", "iz</w>"], ["iç", "meye</w>"], ["kal", "kar</w>"], ["kendin", "izi</w>"], ["çık", "ma</w>"], ["bir", "iktir"], ["mı", "sır</w>"], ["or", "gan"], ["dev", "r"], ["pa", "s"], ["bir", "den</w>"], ["ihtiyac", "ınız</w>"], ["yavaş", "ça</w>"], ["konuşu", "yorum</w>"], ["boy", "u</w>"], ["ta", "ze</w>"], ["ma", "lar</w>"], ["bileceğ", "inden</w>"], ["say", "fa"], ["olma", "dığına</w>"], ["bırak", "ın</w>"], ["sek", "ret"], ["a", "li"], ["tu", "tar</w>"], ["sa", "ttı</w>"], ["t", "tım</w>"], ["koy", "u</w>"], ["zar", "ar"], ["koca", "sı</w>"], ["oldu", "lar</w>"], ["ağla", "dığını</w>"], ["sağ", "lığı</w>"], ["si", "yon"], ["y", "im</w>"], ["anne", "min</w>"], ["mek", "tir</w>"], ["göster", "ir</w>"], ["borç", "luyum</w>"], ["hoşlan", "mıyor</w>"], ["yeme", "ye</w>"], ["ter", "s</w>"], ["ek", "sik</w>"], ["kes", "tir"], ["le", "m</w>"], ["düşünmüş", "tüm</w>"], ["cinay", "et</w>"], ["değişik", "lik</w>"], ["kullanı", "r</w>"], ["c", "k</w>"], ["o", "per"], ["izle", "meyi</w>"], ["ay", "rı</w>"], ["i̇", "sa"], ["ar", "d"], ["dün", "üz</w>"], ["gö", "ğ"], ["mutfa", "k</w>"], ["tep", "ki</w>"], ["ba", "yı</w>"], ["hoşlan", "mam</w>"], ["din", "ledi</w>"], ["dil", "dir</w>"], ["ölç", "ü"], ["bir", "iydi</w>"], ["ara", "banı</w>"], ["ler", "inizi</w>"], ["g", "o</w>"], ["m", "inin</w>"], ["çek", "me"], ["o", "ğu"], ["ta", "ktı</w>"], ["meye", "ceğiz</w>"], ["kes", "kin</w>"], ["ihti", "mal"], ["bat", "tan"], ["ti", "dir</w>"], ["kol", "unu</w>"], ["ham", "ile</w>"], ["düşün", "düren</w>"], ["bo", "z"], ["ihan", "et</w>"], ["inat", "çı</w>"], ["lar", "arası</w>"], ["götür", "mek</w>"], ["olmaz", "dı</w>"], ["ğ", "umuz</w>"], ["ca", "klar"], ["mari", "a</w>"], ["gördüğü", "mü</w>"], ["bal", "arı</w>"], ["şa", "h"], ["haf", "tadır</w>"], ["numara", "sı</w>"], ["seb", "ze</w>"], ["oku", "lu"], ["oku", "yorum</w>"], ["yan", "ı</w>"], ["söyleme", "lisin</w>"], ["ver", "mez</w>"], ["baş", "ım</w>"], ["bu", "çu"], ["sürü", "yor</w>"], ["el", "diven"], ["birlik", "tey"], ["tanış", "tı</w>"], ["kitab", "ını</w>"], ["çalış", "an</w>"], ["t", "v"], ["par", "mağ"], ["sak", "ladı</w>"], ["engel", "ledi</w>"], ["h", "ur"], ["a", "le"], ["di", "p"], ["hava", "ya</w>"], ["ra", "por</w>"], ["sev", "gili"], ["köpeğ", "e</w>"], ["kal", "bi</w>"], ["gelecek", "te</w>"], ["af", "ri"], ["ma", "halle"], ["5", "0</w>"], ["ün", "deki</w>"], ["ister", "se</w>"], ["in", "a</w>"], ["ma", "çı</w>"], ["telef", "onun"], ["lı", "sı</w>"], ["ge", "or"], ["siya", "s"], ["mahcu", "p</w>"], ["lise", "de</w>"], ["ma", "malısın</w>"], ["vakt", "im</w>"], ["part", "isi</w>"], ["en", "erj"], ["k", "lık</w>"], ["etme", "miz</w>"], ["tek", "rar"], ["hoşlanı", "yorum</w>"], ["lı", "ca</w>"], ["ken", "ara</w>"], ["güç", "lük"], ["zor", "luk</w>"], ["duygu", "larını</w>"], ["yaptığ", "ından</w>"], ["ol", "dun</w>"], ["uzak", "laş"], ["söyleme", "mi</w>"], ["geç", "iyor</w>"], ["getir", "dim</w>"], ["kork", "u</w>"], ["benim", "k"], ["bavu", "l"], ["amerika", "'ya</w>"], ["takı", "mı"], ["un", "cu</w>"], ["yapma", "masını</w>"], ["yazı", "lmış</w>"], ["le", "ye"], ["sebe", "bini</w>"], ["oku", "dun</w>"], ["g", "en</w>"], ["katı", "la"], ["tema", "s</w>"], ["as", "ker</w>"], ["özlü", "yorum</w>"], ["ran", "de"], ["rande", "vu"], ["ar", "sa</w>"], ["hep", "imizin</w>"], ["kur", "u</w>"], ["silah", "ını</w>"], ["istasyon", "da</w>"], ["görü", "r</w>"], ["olmalı", "ydı</w>"], ["maya", "cağız</w>"], ["ber", "ber"], ["ola", "cağımı</w>"], ["iy", "isin</w>"], ["adam", "la</w>"], ["şikay", "et"], ["ebeveyn", "lerim</w>"], ["ver", "meyin</w>"], ["fırsa", "t</w>"], ["gel", "meyi</w>"], ["iz", "in"], ["kanep", "ede</w>"], ["et", "miyorsun</w>"], ["ulus", "lararası</w>"], ["bin", "lerce</w>"], ["se", "lam"], ["dö", "n</w>"], ["ara", "ma</w>"], ["plaj", "a</w>"], ["ko", "mi"], ["ma", "tik</w>"], ["cadde", "de</w>"], ["la", "dık</w>"], ["maz", "dım</w>"], ["yu", "karı"], ["şaşır", "dı</w>"], ["şek", "l"], ["yapı", "yorlar</w>"], ["koy", "dum</w>"], ["gerektiğ", "inden</w>"], ["va", "h"], ["tüğ", "ünü</w>"], ["dokto", "ru</w>"], ["def", "ter"], ["ha", "kar"], ["hır", "sız</w>"], ["tale", "p</w>"], ["çevir", "i</w>"], ["malı", "dır</w>"], ["yol", "cu</w>"], ["cen", "az"], ["mu", "ştur</w>"], ["çalış", "tığı</w>"], ["st", "res"], ["çor", "ba</w>"], ["durdur", "mak</w>"], ["kendi", "lerini</w>"], ["proble", "m</w>"], ["gitme", "kten</w>"], ["iy", "isi</w>"], ["yol", "un</w>"], ["ne", "şe"], ["iz", "len"], ["d", "de</w>"], ["zaman", "kinden</w>"], ["geç", "miş</w>"], ["par", "çal"], ["ola", "y"], ["gönder", "dim</w>"], ["orta", "dan</w>"], ["ş", "unu</w>"], ["di", "lim</w>"], ["bahç", "esine</w>"], ["sürü", "cü"], ["et", "tiniz</w>"], ["yo", "lu"], ["ke", "dim</w>"], ["odan", "ın</w>"], ["geçir", "iyor</w>"], ["bü", "ro"], ["ge", "ceyi</w>"], ["ku", "v"], ["tat", "ile</w>"], ["değiştir", "e"], ["öğren", "iyor</w>"], ["sonuç", "ları</w>"], ["kusu", "r"], ["n", "u"], ["li", "lik</w>"], ["süre", "ceğini</w>"], ["şan", "sı"], ["ede", "ki</w>"], ["mi", "ke</w>"], ["bırak", "ma</w>"], ["kardeşim", "in</w>"], ["peyn", "ir</w>"], ["devletler", "i"], ["tanı", "dık</w>"], ["ofis", "inde</w>"], ["liğ", "e</w>"], ["gel", "meyecek</w>"], ["konu", "ş</w>"], ["ede", "mezsin</w>"], ["edi", "p</w>"], ["asker", "ler</w>"], ["i̇", "z"], ["oğl", "unu</w>"], ["ateş", "i</w>"], ["kurabi", "ye"], ["masa", "yı</w>"], ["ay", "na"], ["arkadaş", "ını</w>"], ["şeh", "ri</w>"], ["di", "liyorum</w>"], ["çi", "ler</w>"], ["sa", "f</w>"], ["ti", "tr"], ["mü", "sün</w>"], ["ho", "k"], ["dığ", "ımız</w>"], ["paris", "'e</w>"], ["unut", "tu"], ["baş", "arı</w>"], ["pu", "l</w>"], ["kurtar", "mak</w>"], ["çama", "şır</w>"], ["ica", "t</w>"], ["i", "lan</w>"], ["ül", "kes"], ["üzer", "ey"], ["yı", "r"], ["sebe", "bi</w>"], ["mı", "ydın</w>"], ["ö", "k"], ["progra", "m"], ["ül", "k"], ["götüre", "ceğim</w>"], ["yumuşa", "k</w>"], ["ında", "dır</w>"], ["sat", "mak</w>"], ["tı", "p</w>"], ["iç", "i</w>"], ["kaçır", "dı</w>"], ["mesa", "f"], ["sen", "de</w>"], ["yap", "ın</w>"], ["güzel", "di</w>"], ["ın", "la</w>"], ["s", "eri</w>"], ["ala", "bilirim</w>"], ["ç", "öp"], ["umut", "suz</w>"], ["sev", "iyordu</w>"], ["anne", "sini</w>"], ["çeşi", "tli</w>"], ["oyuncu", "su</w>"], ["yor", "sanız</w>"], ["katı", "lıyorum</w>"], ["ev", "cil</w>"], ["fen", "a</w>"], ["tür", "lü</w>"], ["ta", "dını</w>"], ["hoşlanı", "rım</w>"], ["ste", "fan</w>"], ["ya", "cağını</w>"], ["kapı", "sını</w>"], ["iste", "yeceğini</w>"], ["i̇k", "inci</w>"], ["çocuklar", "la</w>"], ["tren", "le</w>"], ["lana", "cak</w>"], ["maya", "n</w>"], ["temiz", "ledi</w>"], ["uy", "gun"], ["yan", "i</w>"], ["y", "iyorum</w>"], ["tut", "mak</w>"], ["bul", "du"], ["ameli", "yat</w>"], ["kazanı", "r</w>"], ["yapabileceğ", "imiz</w>"], ["baba", "sını</w>"], ["kır", "mız"], ["li", "ye</w>"], ["yer", "li</w>"], ["dah", "il</w>"], ["şirket", "i</w>"], ["dene", "di</w>"], ["ter", "cü"], ["hal", "ine</w>"], ["sarı", "l"], ["ara", "dığını</w>"], ["ma", "dığı</w>"], ["yol", "dan</w>"], ["ifa", "de"], ["tokyo", "</w>"], ["ma", "mın</w>"], ["etme", "den</w>"], ["ke", "diler</w>"], ["patr", "on</w>"], ["30", "0</w>"], ["kiş", "isin</w>"], ["ola", "bilirsin</w>"], ["neh", "ri</w>"], ["elektr", "ik</w>"], ["z", "i"], ["şaşk", "ın</w>"], ["j", "ik</w>"], ["ma", "kul</w>"], ["tere", "d"], ["tered", "dü"], ["dönü", "yor</w>"], ["yaptı", "ra"], ["sınav", "da</w>"], ["sır", "t"], ["ora", "daydı</w>"], ["televizyon", "da</w>"], ["dip", "lo"], ["ri", "p</w>"], ["fırsa", "tı</w>"], ["siz", "di</w>"], ["ofis", "e</w>"], ["imiz", "de</w>"], ["otu", "z"], ["hal", "inde</w>"], ["konuşa", "cağım</w>"], ["dene", "dim</w>"], ["ö", "ne</w>"], ["john'", "la</w>"], ["duvar", "a</w>"], ["ma", "dığım</w>"], ["ye", "di"], ["p", "lanı"], ["banka", "ya</w>"], ["y", "eyim</w>"], ["tığ", "ında</w>"], ["dön", "düm</w>"], ["etme", "sine</w>"], ["edey", "im</w>"], ["söyleme", "z"], ["isti", "yorsunuz</w>"], ["yaşa", "dığı</w>"], ["sami", "'yi</w>"], ["gitme", "ni</w>"], ["mü", "th"], ["em", "il"], ["ister", "siniz</w>"], ["vuru", "ldu</w>"], ["ley", "le</w>"], ["otobü", "ste</w>"], ["hal", "i</w>"], ["yanı", "l"], ["suç", "u</w>"], ["planla", "madığını</w>"], ["göz", "lük</w>"], ["doğ", "dum</w>"], ["be", "kar</w>"], ["çö", "p</w>"], ["hu", "ku"], ["te", "lik"], ["iş", "ç"], ["gel", "dik</w>"], ["doku", "z</w>"], ["bil", "gisi</w>"], ["i̇n", "ter"], ["şikâ", "yet</w>"], ["top", "ladı</w>"], ["ka", "la</w>"], ["haya", "tın</w>"], ["çal", "ındı</w>"], ["kur", "tara"], ["e", "c"], ["m", "lı</w>"], ["köp", "ekler</w>"], ["ya", "zı</w>"], ["soğu", "ktu</w>"], ["yaşı", "yorsun</w>"], ["er", "ken"], ["öğrenciler", "in</w>"], ["gerek", "eni</w>"], ["ta", "sı</w>"], ["kazana", "cak</w>"], ["yük", "se"], ["arap", "ça</w>"], ["hayatı", "mı</w>"], ["in", "ç"], ["ila", "cı</w>"], ["güçlük", "le</w>"], ["a", "tı</w>"], ["ebeveyn", "ler"], ["kal", "bi"], ["ödü", "l</w>"], ["hayatı", "mda</w>"], ["okul", "un</w>"], ["çık", "maya</w>"], ["do", "sya"], ["etraf", "ına</w>"], ["söyleme", "sini</w>"], ["yapma", "lı</w>"], ["görün", "düğümü</w>"], ["şey", "lerin</w>"], ["ke", "l"], ["dola", "ş"], ["kad", "ının</w>"], ["der", "se</w>"], ["le", "meyi</w>"], ["ayrıl", "dığını</w>"], ["çocu", "ğa</w>"], ["bek", "leyin</w>"], ["de", "dim</w>"], ["gı", "da</w>"], ["is", "mi</w>"], ["gök", "yüzü</w>"], ["mesaj", "ı</w>"], ["er", "tesi</w>"], ["keli", "meyi</w>"], ["ç", "ür"], ["kurabi", "ye</w>"], ["is", "inden</w>"], ["yap", "tırdı</w>"], ["gö", "st"], ["göst", "eri</w>"], ["kötü", "dür</w>"], ["bekle", "yeceğim</w>"], ["eğ", "ildi</w>"], ["cek", "et"], ["görü", "l"], ["hediye", "si</w>"], ["ö", "rü</w>"], ["saat", "ten</w>"], ["no", "el"], ["li", "se</w>"], ["anla", "dım</w>"], ["h", "ol"], ["gir", "mesine</w>"], ["mü", "r</w>"], ["de", "ste"], ["bulu", "t"], ["em", "r"], ["içer", "ide</w>"], ["kapı", "dan</w>"], ["lan", "dım</w>"], ["inan", "mıyor</w>"], ["da", "ha"], ["olmaya", "cağım</w>"], ["kara", "kt"], ["er", "te"], ["çanta", "sını</w>"], ["çık", "ara"], ["sorun", "la</w>"], ["kala", "bilir</w>"], ["ler", "di</w>"], ["otobüs", "ü</w>"], ["a", "ta</w>"], ["boy", "n"], ["anla", "maya</w>"], ["sora", "bilir</w>"], ["bulu", "yorum</w>"], ["ca", "ya</w>"], ["sever", "di</w>"], ["ımız", "dan</w>"], ["yen", "ile"], ["maya", "lım</w>"], ["si", "yon</w>"], ["s", "im"], ["sahi", "biz</w>"], ["olağan", "üstü</w>"], ["be", "bek"], ["iç", "me"], ["ceğ", "ime</w>"], ["tartış", "mak</w>"], ["özgü", "r</w>"], ["kan", "ser"], ["burada", "ydı</w>"], ["m", "dır</w>"], ["hemşir", "e</w>"], ["gitme", "lisin</w>"], ["ayrı", "la"], ["ge", "r</w>"], ["gir", "erim</w>"], ["ti", "f"], ["den", "iz"], ["oda", "daki</w>"], ["köp", "rü</w>"], ["geldiğ", "ince</w>"], ["dik", "leri</w>"], ["yaşı", "yorlar</w>"], ["dağ", "</w>"], ["ai", "len"], ["yalan", "cı</w>"], ["söylü", "yorum</w>"], ["hak", "kı</w>"], ["yap", "arak</w>"], ["çalışa", "cak</w>"], ["serv", "is</w>"], ["yum", "ru"], ["pencer", "e</w>"], ["içer", "iye</w>"], ["yakın", "ında</w>"], ["yun", "an"], ["hastalı", "k</w>"], ["cinay", "et"], ["dur", "mak</w>"], ["ye", "me</w>"], ["gerek", "mediğini</w>"], ["k", "le</w>"], ["ev", "lat</w>"], ["ca", "m</w>"], ["uz", "man</w>"], ["etme", "diğini</w>"], ["telaff", "uz</w>"], ["hükü", "me"], ["boston'", "daki</w>"], ["cüz", "danı"], ["liste", "de</w>"], ["lanı", "r</w>"], ["cadde", "yi</w>"], ["ağa", "ca</w>"], ["ma", "maya</w>"], ["en", "er"], ["sız", "dı</w>"], ["miz", "in</w>"], ["pro", "te"], ["ç", "ek</w>"], ["bir", "inden</w>"], ["hak", "lısın</w>"], ["gele", "ne</w>"], ["benz", "in</w>"], ["sahip", "ti</w>"], ["umu", "yoruz</w>"], ["zor", "lu"], ["ha", "tam</w>"], ["konuşu", "rum</w>"], ["yaptığ", "ımız</w>"], ["söyleme", "ni</w>"], ["bil", "mesini</w>"], ["ın", "ca</w>"], ["maa", "ş</w>"], ["sem", "pa"], ["ia", "de</w>"], ["sanat", "çı</w>"], ["otu", "r</w>"], ["tut", "un</w>"], ["oyun", "cu</w>"], ["a", "lice</w>"], ["30", "'dan</w>"], ["edi", "liyor</w>"], ["la", "dılar</w>"], ["arkadaşlar", "ıyla</w>"], ["oku", "r</w>"], ["ri", "ma"], ["i̇ster", "sen</w>"], ["ris", "k</w>"], ["la", "yın</w>"], ["baş", "ından</w>"], ["tek", "n"], ["şemsiy", "esini</w>"], ["gör", "düğünde</w>"], ["gide", "ceğimi</w>"], ["karar", "ını</w>"], ["sen", "siz</w>"], ["ede", "ceğimi</w>"], ["sorun", "lar</w>"], ["tren", "de</w>"], ["pantol", "on</w>"], ["öldür", "meye</w>"], ["uyar", "dı</w>"], ["bela", "ya</w>"], ["dikkat", "ini</w>"], ["hoşlan", "a"], ["çıkar", "mak</w>"], ["satı", "yor</w>"], ["hava", "da</w>"], ["itibar", "en</w>"], ["karı", "sını</w>"], ["git", "miyorsun</w>"], ["anlaya", "biliyorum</w>"], ["b", "anı"], ["lu", "r</w>"], ["hatırla", "tıyor</w>"], ["ast", "r"], ["makin", "esi</w>"], ["burada", "yız</w>"], ["ü", "s</w>"], ["bak", "ma</w>"], ["mese", "le"], ["da", "m</w>"], ["söyle", "yin</w>"], ["ez", "ber"], ["sız", "lık</w>"], ["konuşu", "r"], ["koltu", "k</w>"], ["olduğ", "u"], ["sah", "ilde</w>"], ["so", "ya"], ["di", "li"], ["anla", "y"], ["me", "ler</w>"], ["tu", "za"], ["sabırsız", "lanıyorum</w>"], ["gömle", "ğ"], ["sor", "um</w>"], ["iş", "imiz</w>"], ["balı", "k"], ["suç", "lu"], ["tavsiy", "esini</w>"], ["z", "iri</w>"], ["tartış", "ma</w>"], ["yüz", "ebilir</w>"], ["diş", "lerini</w>"], ["e", "dir</w>"], ["ener", "ji</w>"], ["ceğ", "imizi</w>"], ["sağ", "lığ"], ["sa", "çı"], ["uğra", "ş"], ["çalış", "maktan</w>"], ["seç", "ti</w>"], ["yapma", "da</w>"], ["mü", "n</w>"], ["lı", "lar</w>"], ["kili", "tli</w>"], ["avu", "kat"], ["gömle", "ği</w>"], ["olma", "sa</w>"], ["avustral", "ya</w>"], ["liğ", "inden</w>"], ["açı", "l"], ["al", "dınız</w>"], ["z", "sin</w>"], ["me", "leri</w>"], ["çıl", "gın"], ["duy", "duğunu</w>"], ["c", "y</w>"], ["bugün", "lerde</w>"], ["proble", "m"], ["seçen", "eği</w>"], ["suç", "landı</w>"], ["li", "a"], ["neh", "rin</w>"], ["is", "tan"], ["aş", "çı</w>"], ["ola", "cağı</w>"], ["ce", "bin"], ["gerek", "lidir</w>"], ["erken", "den</w>"], ["ya", "bilir</w>"], ["karşı", "sında</w>"], ["isti", "yordum</w>"], ["par", "mak</w>"], ["üz", "ücü</w>"], ["uyu", "dum</w>"], ["kla", "sik</w>"], ["te", "ki"], ["bırak", "masını</w>"], ["kayb", "ı</w>"], ["aça", "r</w>"], ["k", "le"], ["ak", "tif</w>"], ["ma", "masını</w>"], ["tokyo", "'da</w>"], ["ayrı", "lı"], ["şirket", "in</w>"], ["yiye", "cek"], ["mez", "ler</w>"], ["düşünü", "r"], ["fa", "kir"], ["lik", "ler</w>"], ["ofis", "te</w>"], ["liğ", "in</w>"], ["neredey", "din</w>"], ["mo", "ti"], ["ke", "l</w>"], ["yur", "t"], ["ma", "kale"], ["şimdi", "den</w>"], ["kor", "kar</w>"], ["ver", "gi</w>"], ["le", "k</w>"], ["kal", "ma</w>"], ["şeh", "r"], ["incit", "mek</w>"], ["di", "ye"], ["gitme", "liyiz</w>"], ["bitir", "e"], ["bul", "duk</w>"], ["çağır", "dı</w>"], ["def", "alar"], ["defalar", "ca</w>"], ["çı", "ktım</w>"], ["ve", "ç"], ["söz", "lüğ"], ["çalışı", "yordum</w>"], ["vere", "lim</w>"], ["m", "dı</w>"], ["r", "eti</w>"], ["aile", "sini</w>"], ["si", "v"], ["'", "yu</w>"], ["hiç", "birini</w>"], ["mo", "s"], ["merdiven", "lerden</w>"], ["karış", "tır"], ["hikaye", "si</w>"], ["sabırsız", "lıkla</w>"], ["kal", "dılar</w>"], ["c", "il"], ["kal", "ması</w>"], ["beğen", "iyorum</w>"], ["9", "</w>"], ["sür", "meyi</w>"], ["kütüphan", "eye</w>"], ["ma", "mak</w>"], ["sin", "ir</w>"], ["p", "is"], ["karış", "mış</w>"], ["malı", "sınız</w>"], ["kur", "al</w>"], ["u", "cu"], ["gitme", "yecek</w>"], ["uza", "y"], ["öğren", "e"], ["ğ", "umu"], ["tı", "ldı</w>"], ["bozu", "ldu</w>"], ["seç", "im"], ["ren", "gi</w>"], ["gez", "i</w>"], ["söz", "ü</w>"], ["ta", "bilir</w>"], ["gerç", "eğ"], ["hayatı", "mın</w>"], ["ye", "diğini</w>"], ["pencer", "eleri</w>"], ["ce", "hen"], ["cehen", "ne"], ["maliy", "eti</w>"], ["uğra", "dım</w>"], ["yıl", "larca</w>"], ["ya", "kı"], ["kardeş", "inin</w>"], ["zaman", "ıdır</w>"], ["sefer", "e</w>"], ["g", "eyi</w>"], ["oluş", "ur</w>"], ["sak", "landı</w>"], ["i̇ste", "diğim</w>"], ["dav", "et"], ["si", "te"], ["w", "il"], ["duru", "yordu</w>"], ["şimdi", "lik</w>"], ["b", "ölüm"], ["tak", "siye</w>"], ["çocuklar", "ım</w>"], ["ate", "şe</w>"], ["dı", "rıldı</w>"], ["de", "mo"], ["ir", "ti"], ["por", "teki"], ["konuş", "muyor</w>"], ["il", "mez</w>"], ["kuv", "vet"], ["ne", "s"], ["ilg", "inç"], ["saa", "timi</w>"], ["e", "mir"], ["kar", "tı</w>"], ["yapar", "dım</w>"], ["hatırla", "mıyor</w>"], ["saç", "malı"], ["öğretmen", "im</w>"], ["p", "lar</w>"], ["yürü", "meye</w>"], ["ak", "lında</w>"], ["tan", "ın"], ["çocuklar", "ının</w>"], ["gitme", "yeceğim</w>"], ["kendi", "sinin</w>"], ["me", "r</w>"], ["tutu", "yor</w>"], ["sorun", "a</w>"], ["yardım", "ını</w>"], ["para", "mı</w>"], ["tes", "inde</w>"], ["yön", "te"], ["harek", "et"], ["lı", "klar</w>"], ["mu", "ru</w>"], ["bul", "ma"], ["gördüğü", "me</w>"], ["yapar", "ız</w>"], ["yapma", "kla</w>"], ["bas", "tı</w>"], ["gel", "meye"], ["ka", "fa</w>"], ["bu", "lan"], ["kaza", "dan</w>"], ["öldür", "düğünü</w>"], ["fa", "bri"], ["adam", "dı</w>"], ["ka", "ça</w>"], ["tır", "na"], ["per", "de"], ["men", "iz</w>"], ["li", "kte</w>"], ["a", "r</w>"], ["de", "sin</w>"], ["kar", "ışık</w>"], ["öner", "iyorum</w>"], ["maz", "lar</w>"], ["seçeneğ", "im</w>"], ["ha", "m</w>"], ["bırakı", "ldı</w>"], ["ça", "p"], ["şemsiy", "emi</w>"], ["aklı", "ma</w>"], ["baş", "ta</w>"], ["açık", "lamak</w>"], ["köp", "rü"], ["çıl", "gın</w>"], ["cağ", "ıma</w>"], ["ce", "v"], ["a", "part"], ["insan", "ı</w>"], ["çalış", "arak</w>"], ["zor", "la</w>"], ["ağrı", "sı</w>"], ["karış", "tı</w>"], ["kazanı", "yor</w>"], ["si", "ler</w>"], ["isteme", "diğimi</w>"], ["bekle", "miyordu</w>"], ["uzun", "dur</w>"], ["do", "ma"], ["yapa", "madı</w>"], ["tü", "ken"], ["eder", "ler</w>"], ["şi", "ir</w>"], ["i̇s", "lam</w>"], ["iç", "tim</w>"], ["li", "kten</w>"], ["olma", "dım</w>"], ["naz", "ik"], ["çek", "mek</w>"], ["oğu", "l"], ["konuş", "madım</w>"], ["gör", "düğüne</w>"], ["oğl", "unun</w>"], ["mese", "le</w>"], ["m", "on"], ["döne", "ceğini</w>"], ["ilgilen", "miyorum</w>"], ["iy", "iy"], ["ğu", "r"], ["bil", "dim</w>"], ["cı", "lık</w>"], ["öğretmen", "imiz</w>"], ["konuşma", "mız</w>"], ["l", "di</w>"], ["a", "ca"], ["başla", "dılar</w>"], ["tuva", "le"], ["seb", "ze"], ["kon", "san"], ["m", "un"], ["döne", "r</w>"], ["takı", "mı</w>"], ["bulun", "madı</w>"], ["öğretme", "nin</w>"], ["arkadaşlar", "ının</w>"], ["l", "da"], ["gitme", "me</w>"], ["pe", "kala</w>"], ["za", "m</w>"], ["yaş", "ından</w>"], ["karan", "lıkta</w>"], ["ad", "ının</w>"], ["iste", "diğinden</w>"], ["la", "madı</w>"], ["al", "masını</w>"], ["l", "muş</w>"], ["yar", "ısından</w>"], ["herkes", "ten</w>"], ["çalışı", "yorlar</w>"], ["gitme", "li</w>"], ["yara", "maz</w>"], ["etme", "yeceğini</w>"], ["boston'", "un</w>"], ["üniversite", "den</w>"], ["kat", "kı"], ["fabri", "ka"], ["anahtar", "ını</w>"], ["yar", "alı</w>"], ["çek", "ildi</w>"], ["in", "dedir</w>"], ["geor", "ge</w>"], ["dep", "res"], ["kar", "ın</w>"], ["pazartes", "iye</w>"], ["fe", "la"], ["t", "ının</w>"], ["söyle", "miyorsun</w>"], ["kiş", "iyim</w>"], ["t", "il"], ["arı", "yordu</w>"], ["ya", "cağım</w>"], ["bela", "da</w>"], ["kız", "a</w>"], ["saç", "ları</w>"], ["tartı", "şı"], ["ınız", "da</w>"], ["gide", "mem</w>"], ["20", "0"], ["ver", "mezdi</w>"], ["iyim", "ser</w>"], ["giy", "er</w>"], ["malı", "ydın</w>"], ["ç", "ay"], ["kilo", "metre</w>"], ["mi", "mi</w>"], ["vi", "c"], ["tanı", "m"], ["açı", "ktı</w>"], ["so", "yu"], ["ca", "dılar</w>"], ["v", "o"], ["ler", "imizi</w>"], ["çalış", "tık</w>"], ["bro", "w"], ["yedi", "de</w>"], ["kanı", "t</w>"], ["i̇", "la"], ["kadın", "la</w>"], ["kı", "lı"], ["da", "ima</w>"], ["fayda", "lı</w>"], ["kop", "ya"], ["kap", "alı"], ["soru", "ya</w>"], ["i̇ngiliz", "cede</w>"], ["gel", "meyeceğini</w>"], ["f", "eli"], ["c", "ö"], ["cö", "mer"], ["üzer", "eydi</w>"], ["sah", "te</w>"], ["sey", "ir"], ["bağlan", "tı</w>"], ["fiz", "ik"], ["kili", "se</w>"], ["al", "i</w>"], ["çık", "ış</w>"], ["sev", "diğiniz</w>"], ["ülke", "dir</w>"], ["kop", "ya</w>"], ["beklen", "iyor</w>"], ["ev", "imin</w>"], ["tanı", "dığını</w>"], ["kaçır", "dım</w>"], ["bekle", "diğini</w>"], ["ban", "kta</w>"], ["dolu", "dur</w>"], ["oyn", "ar"], ["beyz", "bol"], ["söyleme", "li</w>"], ["yapma", "mıza</w>"], ["boğu", "ldu</w>"], ["seç", "ildi</w>"], ["öp", "mek</w>"], ["an", "ta"], ["sonu", "ç</w>"], ["gün", "ünü</w>"], ["gece", "si</w>"], ["elektrik", "li</w>"], ["bisiklet", "ini</w>"], ["ic", "iydi</w>"], ["şeh", "re</w>"], ["daha", "ki</w>"], ["cesar", "eti</w>"], ["k", "o</w>"], ["olo", "ji</w>"], ["tak", "li"], ["ma", "sız</w>"], ["hiç", "bir"], ["mi", "de"], ["yak", "ından</w>"], ["göster", "eceğim</w>"], ["liy", "din</w>"], ["inan", "mak</w>"], ["kedi", "si</w>"], ["j", "in"], ["li", "ler</w>"], ["sır", "t</w>"], ["etme", "li</w>"], ["cüzdan", "ını</w>"], ["z", "ih"], ["dile", "mek</w>"], ["arkadaş", "ların</w>"], ["cı", "lar</w>"], ["ko", "t</w>"], ["p", "es</w>"], ["g", "u</w>"], ["ra", "f</w>"], ["ay", "d"], ["ayd", "ın"], ["bileceğ", "in</w>"], ["alar", "ını</w>"], ["hep", "sinin</w>"], ["kendi", "mizi</w>"], ["ver", "diğin</w>"], ["müth", "iş</w>"], ["uza", "y</w>"], ["ön", "üne</w>"], ["hap", "is</w>"], ["söy", "lerim</w>"], ["başla", "yalım</w>"], ["anla", "dın</w>"], ["su", "dur</w>"], ["cu", "m"], ["cum", "hur"], ["dük", "kâ"], ["19", "9"], ["tali", "ma"], ["kaza", "da</w>"], ["f", "ir"], ["yeten", "eği</w>"], ["fa", "k</w>"], ["müzis", "yen</w>"], ["ru", "s</w>"], ["ha", "vu"], ["ver", "mem</w>"], ["rüz", "gar"], ["yapabileceğ", "i</w>"], ["araba", "sına</w>"], ["git", "miyorum</w>"], ["fil", "min</w>"], ["say", "dın</w>"], ["etme", "din</w>"], ["sonuç", "lar</w>"], ["bisiklet", "le</w>"], ["al", "malıyım</w>"], ["klar", "ına</w>"], ["des", "tek</w>"], ["eğlence", "liydi</w>"], ["pişir", "di</w>"], ["öpü", "ş"], ["fır", "sat"], ["da", "va"], ["maz", "er"], ["al", "mış</w>"], ["i̇stas", "yona</w>"], ["imiz", "le</w>"], ["etk", "ili</w>"], ["c", "im"], ["hakar", "et</w>"], ["bahs", "et</w>"], ["tesadü", "fen</w>"], ["liğ", "ine</w>"], ["yol", "o"], ["ma", "ç</w>"], ["hat", "ta</w>"], ["iy", "et"], ["benim", "ki</w>"], ["dö", "ktü</w>"], ["hari", "kaydı</w>"], ["yı", "lan"], ["mü", "yor</w>"], ["mo", "de"], ["yaptır", "mak</w>"], ["facebo", "ok"], ["na", "kit</w>"], ["yara", "tıcı</w>"], ["dağ", "ın</w>"], ["bil", "diğimi</w>"], ["kız", "dı</w>"], ["kalk", "mak</w>"], ["pik", "ni"], ["ak", "lı</w>"], ["kaç", "ını"], ["git", "ar"], ["sev", "iyoruz</w>"], ["ceza", "y"], ["cezay", "ir</w>"], ["bir", "li</w>"], ["t", "arı"], ["an", "o"], ["de", "h"], ["c", "ük</w>"], ["la", "dın</w>"], ["müslü", "man"], ["to", "bi"], ["kra", "li"], ["öf", "kes"], ["değil", "din</w>"], ["al", "kol"], ["y", "iz</w>"], ["ca", "mı</w>"], ["se", "lam</w>"], ["ara", "mızda</w>"], ["ya", "hu"], ["utan", "ç</w>"], ["çev", "res"], ["kah", "ka"], ["üc", "ük</w>"], ["dey", "iz</w>"], ["sonu", "cu</w>"], ["rahat", "la"], ["kı", "rıl"], ["mey", "dana</w>"], ["misaf", "ir"], ["yaz", "maya</w>"], ["saçı", "mı</w>"], ["tartış", "maya</w>"], ["konser", "e</w>"], ["ı", "ydı</w>"], ["anne", "me</w>"], ["yo", "ğun"], ["kitab", "ım</w>"], ["sever", "ler</w>"], ["al", "malısın</w>"], ["tekli", "fi</w>"], ["hay", "di</w>"], ["nüfu", "su</w>"], ["olma", "nın</w>"], ["düş", "ün</w>"], ["davran", "ışı</w>"], ["şans", "ım</w>"], ["sakla", "dığını</w>"], ["iste", "mem</w>"], ["baş", "tan</w>"], ["mutluy", "du</w>"], ["ziy", "ar"], ["o", "muz"], ["ve", "fat</w>"], ["ita", "at</w>"], ["kül", "tür"], ["kar", "nın</w>"], ["indey", "im</w>"], ["öl", "müş</w>"], ["yaptığ", "ımızı</w>"], ["gitme", "n</w>"], ["gir", "iş"], ["di", "yet"], ["nor", "mal"], ["c", "ını</w>"], ["londra", "'ya</w>"], ["bil", "dire"], ["arkadaşı", "mı</w>"], ["yapma", "dan</w>"], ["ölü", "mden</w>"], ["ç", "ile"], ["kı", "r</w>"], ["kahra", "man</w>"], ["ağz", "ını</w>"], ["gör", "me</w>"], ["s", "mit"], ["smit", "h</w>"], ["yapman", "ız</w>"], ["bulun", "dum</w>"], ["merkez", "inde</w>"], ["astr", "ono"], ["çanta", "sı</w>"], ["yap", "mıyorum</w>"], ["tü", "rü"], ["lı", "yız</w>"], ["ödü", "l"], ["gel", "me</w>"], ["harcı", "yor</w>"], ["vaz", "geçti</w>"], ["çal", "ı"], ["yara", "ttı</w>"], ["göre", "miyorum</w>"], ["s", "ih"], ["hastalı", "ğı</w>"], ["başlaya", "cak</w>"], ["lu", "kas</w>"], ["yazı", "yorum</w>"], ["n", "an"], ["uçu", "ş</w>"], ["mil", "yon"], ["b", "ran"], ["şah", "sen</w>"], ["kal", "dın</w>"], ["soru", "ları</w>"], ["benim", "kinden</w>"], ["mar", "s</w>"], ["izle", "meye</w>"], ["böyle", "ce</w>"], ["hal", "de</w>"], ["çek", "il"], ["düşün", "düğünden</w>"], ["yazı", "l"], ["yara", "tı"], ["dil", "leri</w>"], ["baba", "mı</w>"], ["konuşa", "mam</w>"], ["yata", "ğ"], ["par", "anın</w>"], ["kar", "ışı"], ["çocu", "ğum</w>"], ["ş", "ö"], ["ke", "man</w>"], ["emil", "y</w>"], ["ace", "leyle</w>"], ["ayakkabı", "lar</w>"], ["v", "ey</w>"], ["o", "dur</w>"], ["ala", "bilirsin</w>"], ["i̇tal", "yan"], ["istek", "siz</w>"], ["var", "dım</w>"], ["bula", "cağım</w>"], ["edile", "bilir</w>"], ["he", "sab"], ["mak", "ine</w>"], ["düşün", "medi</w>"], ["la", "maz</w>"], ["konuşu", "yordu</w>"], ["de", "ne</w>"], ["s", "ola</w>"], ["tom'", "da</w>"], ["al", "kış"], ["aç", "mak</w>"], ["birbir", "ine</w>"], ["bıça", "ğı</w>"], ["rus", "ça</w>"], ["ver", "diğim</w>"], ["soka", "k</w>"], ["sa", "bı"], ["yata", "ktan</w>"], ["görüş", "mek</w>"], ["uyan", "dı</w>"], ["sayı", "sı</w>"], ["saat", "lerce</w>"], ["ma", "mızı</w>"], ["gitme", "z</w>"], ["ev", "imi</w>"], ["anah", "tar</w>"], ["göster", "iyor</w>"], ["hav", "anın</w>"], ["söyleme", "kten</w>"], ["fiyat", "lar</w>"], ["gerçek", "leş"], ["kad", "ına</w>"], ["durdur", "maya</w>"], ["merak", "lı</w>"], ["lu", "sun</w>"], ["bil", "meyi</w>"], ["tat", "ili</w>"], ["ev", "ren"], ["de", "m"], ["ala", "madı</w>"], ["koku", "su</w>"], ["d", "unu</w>"], ["bekli", "yordum</w>"], ["t", "et"], ["kün", "dür</w>"], ["görünü", "yorlar</w>"], ["dene", "meye</w>"], ["tereddü", "t</w>"], ["görme", "dik</w>"], ["bu", "l</w>"], ["kar", "t</w>"], ["luy", "du</w>"], ["iliş", "ki</w>"], ["bil", "diği</w>"], ["lü", "yor</w>"], ["çalış", "madı</w>"], ["tanı", "mıyor</w>"], ["meye", "ceksin</w>"], ["ama", "cı</w>"], ["şaşır", "mıştı</w>"], ["şi", "iri</w>"], ["ayakkabı", "ları</w>"], ["an", "tren"], ["göz", "ler"], ["ede", "biliriz</w>"], ["şey", "di</w>"], ["çal", "maya</w>"], ["s", "tik</w>"], ["giz", "em"], ["la", "l</w>"], ["haya", "let</w>"], ["tı", "b"], ["sağ", "a</w>"], ["bisikle", "timi</w>"], ["f", "el"], ["anla", "dı</w>"], ["te", "c"], ["sa", "s</w>"], ["fu", "ji</w>"], ["gel", "in</w>"], ["yüz", "mek</w>"], ["hazır", "ladı</w>"], ["ölçü", "de</w>"], ["hin", "di"], ["fark", "lıdır</w>"], ["söyle", "diğinde</w>"], ["al", "madan</w>"], ["a", "bilir</w>"], ["gül", "ün"], ["iş", "it"], ["i̇tal", "yan</w>"], ["araştır", "ma</w>"], ["me", "meye</w>"], ["toplantı", "yı</w>"], ["la", "yı"], ["üzer", "indeki</w>"], ["elbi", "s"], ["gazet", "e"], ["gürültü", "lü</w>"], ["progra", "mı</w>"], ["şir", "in</w>"], ["yıl", "lık</w>"], ["gerektir", "ir</w>"], ["üye", "si</w>"], ["bit", "medi</w>"], ["y", "i"], ["p", "ila"], ["yapa", "cağımızı</w>"], ["gön", "der</w>"], ["se", "z"], ["kazana", "bileceğini</w>"], ["jac", "k</w>"], ["kayb", "etmek</w>"], ["o", "s"], ["d", "inin</w>"], ["hatal", "arı</w>"], ["masa", "sında</w>"], ["is", "mini</w>"], ["ar", "e</w>"], ["ke", "mer"], ["parti", "den</w>"], ["karı", "sının</w>"], ["um", "duğunu</w>"], ["bak", "ın</w>"], ["lu", "ğunu</w>"], ["müz", "e</w>"], ["karış", "tırı"], ["haf", "ı"], ["p", "ol"], ["karn", "ınız</w>"], ["ok", "u</w>"], ["fırt", "ına"], ["şe", "f"], ["açık", "tır</w>"], ["vah", "şi</w>"], ["z", "il</w>"], ["sıra", "dan</w>"], ["am", "bulan"], ["tom", "’"], ["sık", "ıntı</w>"], ["sal", "ı</w>"], ["gibi", "ydi</w>"], ["hoş", "ça</w>"], ["an", "dan</w>"], ["yeten", "ek"], ["ayn", "ı"], ["görün", "ce</w>"], ["ceza", "sı</w>"], ["söyle", "diklerini</w>"], ["yüz", "lerce</w>"], ["bisikle", "te</w>"], ["kalan", "ını</w>"], ["a", "dın</w>"], ["ı", "k</w>"], ["anı", "yor</w>"], ["fikr", "imi</w>"], ["fikir", "leri</w>"], ["ara", "p</w>"], ["ili", "ği</w>"], ["yü", "m</w>"], ["kullan", "mayı</w>"], ["yer", "dir</w>"], ["bin", "anın</w>"], ["klar", "ın</w>"], ["roman", "tik</w>"], ["tal", "ı</w>"], ["f", "ı</w>"], ["c", "hi"], ["his", "</w>"], ["karar", "lı</w>"], ["mü", "dür</w>"], ["pik", "nik</w>"], ["du", "ran</w>"], ["ka", "der"], ["arkadaşlar", "ına</w>"], ["mi", "t</w>"], ["özle", "yeceğim</w>"], ["görünü", "ş"], ["cadde", "nin</w>"], ["gele", "nin</w>"], ["haber", "im</w>"], ["söz", "cük</w>"], ["oğl", "una</w>"], ["ağ", "lıyor</w>"], ["r", "sın</w>"], ["boğ", "az"], ["wil", "lia"], ["proj", "e</w>"], ["üç", "te</w>"], ["ders", "leri</w>"], ["suy", "un</w>"], ["me", "mek</w>"], ["gör", "müş</w>"], ["zor", "ladı</w>"], ["hangis", "idir</w>"], ["çalış", "kan</w>"], ["lo", "bi"], ["so", "ğ"], ["avrupa", "'da</w>"], ["ede", "ceksin</w>"], ["saa", "tim</w>"], ["oku", "maktan</w>"], ["anla", "madı</w>"], ["bağ", "lıdır</w>"], ["kan", "dır"], ["res", "m"], ["sah", "ile</w>"], ["kor", "e</w>"], ["londra", "'da</w>"], ["tek", "ne</w>"], ["gali", "ba</w>"], ["gi", "din</w>"], ["ü", "vey</w>"], ["sarı", "ldı</w>"], ["etkilen", "dim</w>"], ["siste", "mi</w>"], ["yaşa", "mıyor</w>"], ["sa", "f"], ["r", "ol"], ["kal", "ktım</w>"], ["yüksel", "di</w>"], ["korkutu", "cu</w>"], ["köp", "ekleri</w>"], ["g", "ındı</w>"], ["mantı", "k"], ["tanı", "yorsun</w>"], ["ak", "san"], ["getir", "ir</w>"], ["söyleme", "si</w>"], ["dinle", "meyi</w>"], ["p", "em"], ["r", "y</w>"], ["k", "ladı</w>"], ["etme", "n"], ["york", "'ta</w>"], ["düşün", "ce</w>"], ["pet", "rol</w>"], ["özle", "dim</w>"], ["gide", "bilirsin</w>"], ["dedek", "tif</w>"], ["ç", "lar</w>"], ["u", "mal"], ["umal", "ım</w>"], ["rü", "m</w>"], ["geç", "ici</w>"], ["iniz", "den</w>"], ["tal", "ar"], ["niyet", "im</w>"], ["anla", "m</w>"], ["araba", "sının</w>"], ["sınıf", "a</w>"], ["kayı", "t</w>"], ["dik", "kate</w>"], ["mü", "dürü"], ["ş", "allah</w>"], ["u", "sandım</w>"], ["es", "inin</w>"], ["cüzdanı", "mı</w>"], ["inan", "madı</w>"], ["ro", "ma"], ["j", "i"], ["giy", "siler</w>"], ["demo", "kra"], ["du", "da"], ["part", "isinde</w>"], ["iz", "le</w>"], ["bo", "ya</w>"], ["muy", "dunuz</w>"], ["haya", "ta</w>"], ["pat", "lak</w>"], ["durum", "un</w>"], ["arkadaşlar", "ımdan</w>"], ["ça", "labilir</w>"], ["ala", "mam</w>"], ["izle", "mekten</w>"], ["ba", "sı</w>"], ["bi", "yolo"], ["cesar", "et"], ["iler", "leme</w>"], ["japonya", "'nın</w>"], ["dokuz", "da</w>"], ["al", "dılar</w>"], ["hal", "k</w>"], ["başken", "tidir</w>"], ["kahv", "eyi</w>"], ["kullan", "arak</w>"], ["i̇sa", "bel"], ["hayvan", "ları</w>"], ["mik", "ro"], ["kilit", "ledi</w>"], ["tasarru", "f</w>"], ["hay", "ran</w>"], ["201", "3</w>"], ["ol", "san</w>"], ["yer", "in</w>"], ["yer", "ler</w>"], ["ti", "kte</w>"], ["yaşında", "yım</w>"], ["muz", "dar"], ["yav", "ru"], ["deh", "ş"], ["kı", "rıldı</w>"], ["kendi", "miz</w>"], ["olma", "mı</w>"], ["düşünü", "yoruz</w>"], ["di", "le</w>"], ["çevir", "mek</w>"], ["kale", "m"], ["vere", "meyiz</w>"], ["kaza", "sı</w>"], ["ınca", "ya</w>"], ["konuş", "malıyım</w>"], ["yağ", "arsa</w>"], ["çalış", "mam</w>"], ["dığ", "ımdan</w>"], ["geç", "erken</w>"], ["vakt", "inde</w>"], ["a", "ya</w>"], ["r", "ana</w>"], ["çı", "kalım</w>"], ["bileceğ", "i</w>"], ["konuş", "masını</w>"], ["yon", "un</w>"], ["mo", "da</w>"], ["gü", "ç</w>"], ["göz", "ükü"], ["etk", "isi</w>"], ["bil", "mez</w>"], ["po", "st"], ["pau", "l</w>"], ["suz", "du</w>"], ["numar", "a</w>"], ["yol", "uyla</w>"], ["atı", "yorum</w>"], ["sanı", "yorum</w>"], ["sek", "izde</w>"], ["r", "en</w>"], ["kim", "di</w>"], ["kazan", "dığını</w>"], ["hak", "lı"], ["ey", "lem"], ["at", "tım</w>"], ["özgür", "lük</w>"], ["eşi", "t</w>"], ["be", "yaz"], ["ha", "sar</w>"], ["atı", "yor</w>"], ["yı", "lan</w>"], ["sun", "un</w>"], ["çöz", "mek</w>"], ["ağr", "ım</w>"], ["dan", "i"], ["ma", "ç"], ["porteki", "z"], ["eder", "di</w>"], ["söyleme", "liyim</w>"], ["tı", "rıl"], ["görünü", "yordun</w>"], ["konsan", "tre</w>"], ["yağ", "</w>"], ["öne", "mi</w>"], ["cezalan", "dırıl"], ["iste", "mek</w>"], ["aç", "ım</w>"], ["1", "5</w>"], ["cid", "di"], ["gör", "mekten</w>"], ["iç", "me</w>"], ["edi", "len</w>"], ["eder", "sen</w>"], ["pa", "ket</w>"], ["tehlik", "e</w>"], ["öde", "ye"], ["yapabileceğ", "imizi</w>"], ["lü", "ydü</w>"], ["sev", "eceğini</w>"], ["yetiş", "kin</w>"], ["gör", "mem</w>"], ["iç", "k"], ["şidde", "tle</w>"], ["mar", "t"], ["de", "tay"], ["çan", "ta</w>"], ["kardeşim", "le</w>"], ["ğ", "im</w>"], ["düşür", "dü</w>"], ["karşılaş", "tığ"], ["s", "ildi</w>"], ["di", "ki"], ["fatura", "yı</w>"], ["yar", "a</w>"], ["bı", "k"], ["ba", "kan</w>"], ["ver", "melisin</w>"], ["y", "um</w>"], ["ekono", "mik</w>"], ["köy", "de</w>"], ["olan", "ları</w>"], ["buluşa", "cağım</w>"], ["uyu", "yordu</w>"], ["zaman", "lı</w>"], ["f", "ıs"], ["c", "lau"], ["çağr", "ı"], ["bekle", "me</w>"], ["tan", "rım</w>"], ["benz", "iyorsun</w>"], ["i̇ş", "ten</w>"], ["seçeneğ", "imiz</w>"], ["yok", "sul"], ["h", "ız</w>"], ["d", "önem"], ["var", "ır</w>"], ["tuva", "let</w>"], ["ir", "sin</w>"], ["şeker", "leme</w>"], ["isteme", "diğinden</w>"], ["hafif", "çe</w>"], ["mühen", "di"], ["ünü", "z"], ["at", "la"], ["merye", "m'"], ["kü", "f"], ["öde", "dim</w>"], ["erte", "lendi</w>"], ["bayra", "mı</w>"], ["bahç", "esinde</w>"], ["kız", "dırdı</w>"], ["ilgilen", "iyorum</w>"], ["ayrıntı", "lı</w>"], ["yapma", "dık</w>"], ["sabah", "ı</w>"], ["ori", "jin"], ["yak", "laştı</w>"], ["bağ", "ladı</w>"], ["te", "cek</w>"], ["dol", "ma</w>"], ["bir", "e</w>"], ["yaş", "ta</w>"], ["tela", "fi</w>"], ["iz", "ler</w>"], ["l", "um</w>"], ["gerek", "miyordu</w>"], ["düşündüğü", "mden</w>"], ["oldu", "ktan</w>"], ["yı", "lı</w>"], ["araba", "lar</w>"], ["iş", "aret"], ["inanı", "r</w>"], ["uzak", "laştı</w>"], ["eğlen", "iyor</w>"], ["bul", "duğunu</w>"], ["sal", "dırdı</w>"], ["gü", "ver"], ["pasapor", "t"], ["kal", "kı"], ["bil", "diğinden</w>"], ["s", "is</w>"], ["ver", "miyor</w>"], ["kan", "ada</w>"], ["radyo", "yu</w>"], ["et", "ar"], ["ö", "den"], ["da", "ğa</w>"], ["der", "gi</w>"], ["kö", "r"], ["da", "yız</w>"], ["çocu", "ktu</w>"], ["savaş", "ta</w>"], ["mü", "da"], ["durdura", "maz</w>"], ["yapıl", "mıştır</w>"], ["i̇ç", "er"], ["pil", "ot</w>"], ["gel", "diler</w>"], ["kız", "ını</w>"], ["söz", "lerini</w>"], ["ya", "ya</w>"], ["şapka", "sını</w>"], ["çen", "eni</w>"], ["kim", "sey"], ["paris", "'te</w>"], ["kedi", "yi</w>"], ["ağ", "zı</w>"], ["saat", "ini</w>"], ["gün", "üne</w>"], ["akı", "l</w>"], ["i", "yorsa</w>"], ["fı", "k"], ["adam", "ları</w>"], ["planlı", "yoruz</w>"], ["televiz", "yonu</w>"], ["olası", "lıkla</w>"], ["güç", "lüdür</w>"], ["a", "zar"], ["di", "ven</w>"], ["yaş", "ın</w>"], ["bar", "da</w>"], ["tü", "ket"], ["para", "mız</w>"], ["gönder", "ildi</w>"], ["ola", "mazsın</w>"], ["ver", "miyorsun</w>"], ["adam", "lar</w>"], ["tobi", "as</w>"], ["müş", "tü</w>"], ["g", "ey"], ["sorun", "dur</w>"], ["te", "l"], ["la", "ka</w>"], ["oda", "mı</w>"], ["i̇n", "şallah</w>"], ["yemeğ", "inde</w>"], ["rü", "şv"], ["gar", "an"], ["bula", "madım</w>"], ["ekme", "ği</w>"], ["me", "zar"], ["becer", "ik"], ["gün", "e</w>"], ["gide", "bilirim</w>"], ["tiğ", "im</w>"], ["takı", "mın</w>"], ["kale", "mi</w>"], ["lar", "ınız</w>"], ["çık", "mayı</w>"], ["k", "ler</w>"], ["elbise", "lerini</w>"], ["prote", "sto"], ["bit", "kin</w>"], ["arka", "sından</w>"], ["katkı", "da</w>"], ["gitme", "miz</w>"], ["düş", "manı</w>"], ["koca", "m</w>"], ["yan", "ındaki</w>"], ["bu", "r</w>"], ["bilgi", "yi</w>"], ["ek", "sik"], ["clau", "di"], ["lu", "ktan</w>"], ["des", "tekli"], ["ve", "j"], ["büyükanne", "m</w>"], ["c", "</w>"], ["kullanı", "lır</w>"], ["tı", "rıldı</w>"], ["tutuk", "lan"], ["laya", "cağını</w>"], ["oturu", "p</w>"], ["diğ", "imizi</w>"], ["öğret", "iyor</w>"], ["gü", "l</w>"], ["ça", "dır"], ["kal", "mıştı</w>"], ["yok", "ken</w>"], ["hazır", "ız</w>"], ["ev", "inden</w>"], ["etraf", "ta</w>"], ["yiye", "ceğ"], ["sa", "dık</w>"], ["ro", "manı</w>"], ["gö", "l</w>"], ["es", "inden</w>"], ["av", "anta"], ["ka", "ba"], ["önem", "se"], ["mey", "dan</w>"], ["iler", "ine</w>"], ["oda", "k"], ["mu", "yoruz</w>"], ["mah", "kum</w>"], ["bekle", "mesini</w>"], ["ayrıl", "dım</w>"], ["do", "s"], ["hesa", "bı</w>"], ["ede", "bilirsin</w>"], ["takli", "t</w>"], ["gitme", "ne</w>"], ["cümle", "nin</w>"], ["kat", "il</w>"], ["ç", "e"], ["küçüm", "se"], ["boya", "dı</w>"], ["kiş", "ilik</w>"], ["lise", "den</w>"], ["edile", "mez</w>"], ["in", "cin"], ["gider", "iz</w>"], ["h", "ev"], ["l", "ması</w>"], ["son", "unu</w>"], ["arkadaşı", "z</w>"], ["tav", "şan"], ["öp", "ücük</w>"], ["çalış", "ması</w>"], ["gör", "evi</w>"], ["yapa", "mazsın</w>"], ["duyduğu", "ma</w>"], ["le", "ceğini</w>"], ["mağaza", "da</w>"], ["ta", "yım</w>"], ["guru", "r"], ["kad", "ını</w>"], ["a", "yar"], ["hatal", "ar"], ["ül", "dü</w>"], ["h", "i</w>"], ["sev", "gi</w>"], ["din", "liyor</w>"], ["ora", "dan</w>"], ["gör", "mediğini</w>"], ["aş", "çı"], ["ün", "lüdür</w>"], ["ola", "lım</w>"], ["haf", "t"], ["ödü", "lü</w>"], ["başken", "ti</w>"], ["gitme", "ye"], ["uyu", "r</w>"], ["iş", "inden</w>"], ["pat", "ladı</w>"], ["tut", "ku"], ["tey", "z"], ["oyna", "maya</w>"], ["bile", "ti</w>"], ["toplan", "tının</w>"], ["alışkın", "ım</w>"], ["kap", "a</w>"], ["ta", "ya</w>"], ["suy", "la</w>"], ["yapa", "bilecek</w>"], ["köpeğ", "imi</w>"], ["bak", "ış</w>"], ["büyük", "babam</w>"], ["alman", "ya</w>"], ["gör", "dünüz</w>"], ["de", "din</w>"], ["ö", "te"], ["in", "izde</w>"], ["yapmaz", "dı</w>"], ["ba", "banın</w>"], ["kr", "izi</w>"], ["zorunda", "dır</w>"], ["al", "bü"], ["yapma", "kta</w>"], ["hastan", "e</w>"], ["halle", "de"], ["ara", "yın</w>"], ["ko", "lek"], ["alan", "da</w>"], ["su", "l</w>"], ["dol", "an"], ["resim", "leri</w>"], ["minnet", "tarım</w>"], ["as", "tı</w>"], ["oto", "ri"], ["acı", "ktı</w>"], ["far", "e</w>"], ["eder", "ken</w>"], ["öpü", "cü"], ["ış", "lı</w>"], ["güven", "miyorum</w>"], ["miz", "de</w>"], ["farkında", "yım</w>"], ["çalış", "mıyorum</w>"], ["ti", "c"], ["hindi", "stan"], ["ka", "'ya</w>"], ["ye", "ğ"], ["kovu", "ldu</w>"], ["başlangı", "çta</w>"], ["ede", "medim</w>"], ["gir", "dim</w>"], ["ında", "ydı</w>"], ["dil", "di</w>"], ["bit", "k"], ["doktor", "lar</w>"], ["gerektiğ", "ine</w>"], ["şey", "de</w>"], ["araba", "dan</w>"], ["yapa", "cağından</w>"], ["benz", "er"], ["geç", "mek</w>"], ["berber", "ice</w>"], ["um", "un</w>"], ["gel", "meni</w>"], ["cümle", "leri</w>"], ["söz", "lüğü</w>"], ["şansı", "mız</w>"], ["konuş", "muyorum</w>"], ["diğ", "ime</w>"], ["ka", "şı"], ["türk", "iye"], ["ma", "kale</w>"], ["ede", "bilecek</w>"], ["gerçek", "leştir"], ["hata", "ydı</w>"], ["bölge", "de</w>"], ["senin", "ki</w>"], ["aile", "sine</w>"], ["yaptı", "klarını</w>"], ["bitir", "din</w>"], ["çağr", "ı</w>"], ["ka", "ş"], ["çür", "ü"], ["telef", "ona</w>"], ["para", "n</w>"], ["ceva", "pla"], ["sahi", "bi"], ["ti", "miz</w>"], ["me", "d"], ["konuşa", "mıyorum</w>"], ["sih", "ir"], ["ba", "kar</w>"], ["fık", "ra</w>"], ["mi", "yorlar</w>"], ["gru", "p"], ["r", "dı</w>"], ["edile", "cek</w>"], ["söz", "leri</w>"], ["korka", "k</w>"], ["em", "niyet</w>"], ["as", "gar"], ["asgar", "i</w>"], ["yal", "vardı</w>"], ["oyun", "ları</w>"], ["siz", "lik</w>"], ["mut", "laka</w>"], ["ulu", "sal</w>"], ["me", "muru</w>"], ["davranı", "yorsun</w>"], ["le", "cek</w>"], ["ğ", "ine</w>"], ["konuşa", "maz</w>"], ["hasta", "ydı</w>"], ["kız", "ları</w>"], ["düğ", "ün"], ["adam", "ım</w>"], ["man", "ız</w>"], ["ote", "le</w>"], ["im", "dir</w>"], ["kav", "ga"], ["kâ", "r</w>"], ["ad", "ına</w>"], ["çalış", "alım</w>"], ["za", "h</w>"], ["ıs", "lak</w>"], ["göre", "biliyorum</w>"], ["maya", "cağımı</w>"], ["elbis", "eyi</w>"], ["muş", "tum</w>"], ["len", "dirdi</w>"], ["ze", "m</w>"], ["sınıf", "taki</w>"], ["yemek", "lerini</w>"], ["dığ", "ınız</w>"], ["ma", "dılar</w>"], ["harca", "dı</w>"], ["sev", "ip</w>"], ["can", "ını</w>"], ["ağaç", "ları</w>"], ["ş", "tan</w>"], ["yan", "ağ"], ["leyla", "'dan</w>"], ["ga", "z</w>"], ["ör", "ne"], ["bulu", "r"], ["pay", "laşı"], ["kız", "dır"], ["ti", "yor</w>"], ["tra", "fi"], ["t", "ler</w>"], ["chi", "ca"], ["endişe", "liydi</w>"], ["ayı", "ra"], ["randev", "u</w>"], ["ar", "ttı</w>"], ["gök", "yüzünde</w>"], ["tartış", "mayı</w>"], ["sek", "s</w>"], ["men", "izi</w>"], ["bun", "alı"], ["z", "an"], ["eli", "mde</w>"], ["ab", "d</w>"], ["acı", "k"], ["bili", "yorduk</w>"], ["düşündüğü", "mü</w>"], ["arkadaş", "ına</w>"], ["inanı", "yordu</w>"], ["olma", "ması</w>"], ["düşün", "me</w>"], ["ep", "ey"], ["e", "d"], ["ili", "yor</w>"], ["serv", "et</w>"], ["bi", "tiş"], ["yoru", "l"], ["jan", "e"], ["öğren", "ecek</w>"], ["el", "leri</w>"], ["c", "anı"], ["olma", "malı</w>"], ["bekle", "diğim</w>"], ["sami", "'ye</w>"], ["ala", "lım</w>"], ["güven", "iyorum</w>"], ["saa", "tin</w>"], ["ta", "cak</w>"], ["or", "an"], ["nef", "es"], ["konu", "su</w>"], ["kola", "ydı</w>"], ["c", "ana"], ["adam", "sın</w>"], ["baba", "sıyla</w>"], ["en", "f"], ["yapı", "lan</w>"], ["er", "ke"], ["köpeğ", "ine</w>"], ["itira", "z</w>"], ["teklif", "ini</w>"], ["gelen", "ek"], ["piyan", "oyu</w>"], ["ya", "sak"], ["v", "ir"], ["minnet", "tar</w>"], ["ede", "meyiz</w>"], ["korkt", "um</w>"], ["vej", "etar"], ["ver", "mesini</w>"], ["dakika", "da</w>"], ["olduğun", "ca</w>"], ["al", "mamız</w>"], ["t", "tü</w>"], ["unut", "tun</w>"], ["r", "ız</w>"], ["ebeveyn", "lerinin</w>"], ["lanı", "yordu</w>"], ["göz", "de</w>"], ["uyar", "ı"], ["ya", "sal"], ["ki", "birli</w>"], ["k", "ının</w>"], ["göz", "lüğ"], ["aile", "sinin</w>"], ["bekle", "t"], ["ını", "yor</w>"], ["söyle", "yeyim</w>"], ["çıkar", "ın</w>"], ["çiğ", "</w>"], ["kedi", "leri</w>"], ["ön", "eri</w>"], ["çin", "'de</w>"], ["nasıl", "sın</w>"], ["k", "û"], ["u", "ğr"], ["sü", "tü</w>"], ["te", "z"], ["i", "cidir</w>"], ["aça", "bilir</w>"], ["da", "lar</w>"], ["siya", "si</w>"], ["tıb", "bi</w>"], ["yata", "ğın</w>"], ["bes", "le"], ["ziyar", "ete</w>"], ["pl", "ana</w>"], ["el", "mayı</w>"], ["ilgilene", "ceğim</w>"], ["at", "mak</w>"], ["per", "for"], ["perfor", "man"], ["neh", "re</w>"], ["ara", "mayı</w>"], ["sinca", "p</w>"], ["le", "h"], ["gü", "c"], ["s", "olu"], ["doğ", "u</w>"], ["kap", "lıydı</w>"], ["g", "al"], ["aç", "ın</w>"], ["deney", "imi</w>"], ["tar", "zı</w>"], ["gel", "meye</w>"], ["ta", "p"], ["r", "ını</w>"], ["şim", "e</w>"], ["diğ", "imde</w>"], ["linda", "'yı</w>"], ["fizik", "sel</w>"], ["boston", "lu</w>"], ["açıklaya", "bilir</w>"], ["oda", "mda</w>"], ["k", "lu</w>"], ["ma", "aş"], ["çeşi", "t</w>"], ["m", "unu</w>"], ["dağ", "ını"], ["tu", "z"], ["süre", "bilir</w>"], ["ti", "ka</w>"], ["zir", "v"], ["iste", "meye"], ["i̇ş", "imi</w>"], ["ekono", "mis"], ["olur", "dum</w>"], ["yorgun", "du</w>"], ["çift", "likte</w>"], ["tor", "un"], ["v", "a</w>"], ["konferan", "s</w>"], ["kenar", "ında</w>"], ["yapa", "madım</w>"], ["ayır", "t</w>"], ["yapa", "bilip</w>"], ["moti", "ve</w>"], ["müda", "hale</w>"], ["sür", "mek</w>"], ["etme", "mizi</w>"], ["otur", "dum</w>"], ["willia", "m</w>"], ["diz", "üstü</w>"], ["tırman", "dı</w>"], ["zaman", "ımı</w>"], ["ali", "ce"], ["t", "larını</w>"], ["ka", "sı</w>"], ["kullana", "bilirsin</w>"], ["dan", "sa</w>"], ["değ", "mez</w>"], ["karşı", "ya</w>"], ["ba", "caklar"], ["acı", "yor</w>"], ["yapı", "yorsunuz</w>"], ["1", "8</w>"], ["veril", "mez</w>"], ["bağım", "sız</w>"], ["kasaba", "ya</w>"], ["sür", "mesine</w>"], ["kork", "muyorum</w>"], ["karakt", "er"], ["​", "​"], ["be", "den</w>"], ["düz", "gün</w>"], ["i̇s", "v"], ["i̇sv", "iç"], ["dığ", "ımızı</w>"], ["i̇ş", "ini</w>"], ["üni", "for"], ["kıs", "kanı"], ["i", "ği</w>"], ["v", "an"], ["sora", "cağım</w>"], ["1", "3</w>"], ["sev", "en</w>"], ["ön", "de</w>"], ["ebeveyn", "lerine</w>"], ["eğili", "m"], ["mutfa", "ğa</w>"], ["gece", "leri</w>"], ["şiş", "man"], ["temizle", "mek</w>"], ["eder", "dim</w>"], ["bilet", "ler</w>"], ["yüz", "ük</w>"], ["di", "yorum</w>"], ["kim", "se"], ["alı", "p</w>"], ["na", "dir</w>"], ["dikkat", "siz</w>"], ["plan", "ları</w>"], ["mu", "s"], ["ba", "yı"], ["ofis", "ine</w>"], ["bo", "ştu</w>"], ["yakala", "mak</w>"], ["kur", "mak</w>"], ["tut", "tum</w>"], ["ho", "bi"], ["ko", "ku</w>"], ["başla", "dık</w>"], ["ver", "meden</w>"], ["kayb", "edecek</w>"], ["ısır", "dı</w>"], ["ol", "muştur</w>"], ["özlü", "yor</w>"], ["tal", "arı</w>"], ["alan", "dı</w>"], ["ih", "mal</w>"], ["kır", "dım</w>"], ["gar", "son</w>"], ["git", "sem</w>"], ["i", "yorsunuz</w>"], ["sı", "caktı</w>"], ["ard", "ından</w>"], ["içer", "ir</w>"], ["mi", "de</w>"], ["y", "öne"], ["etme", "me</w>"], ["elma", "s</w>"], ["sabah", "tan</w>"], ["hesa", "p</w>"], ["randev", "um</w>"], ["u", "cu</w>"], ["düşünü", "r</w>"], ["re", "ç"], ["va", "k"], ["ben", "dim</w>"], ["de", "t</w>"], ["anahtar", "larımı</w>"], ["te", "br"], ["sahip", "sin</w>"], ["u", "fak</w>"], ["gör", "düğü</w>"], ["veril", "miyor</w>"], ["bey", "in</w>"], ["o", "g"], ["gec", "ik"], ["ler", "ek</w>"], ["yang", "ını</w>"], ["belir", "t"], ["başka", "larının</w>"], ["saat", "lerde</w>"], ["ben", "cil</w>"], ["bilim", "sel</w>"], ["mektu", "bunu</w>"], ["iş", "inde</w>"], ["giyin", "mişti</w>"], ["eğ", "lene"], ["iste", "diğine</w>"], ["karşılaş", "tı</w>"], ["klar", "a</w>"], ["söyleme", "n</w>"], ["ver", "meye"], ["bula", "cak</w>"], ["saat", "ler</w>"], ["in", "dirdi</w>"], ["ada", "y</w>"], ["du", "rağ"], ["tığ", "ın</w>"], ["aile", "siyle</w>"], ["civar", "da</w>"], ["ik", "isini</w>"], ["vaz", "geç</w>"], ["dırı", "yor</w>"], ["çalış", "ın</w>"], ["ca", "da</w>"], ["ko", "ç"], ["birbir", "imizle</w>"], ["feli", "x</w>"], ["arı", "yoruz</w>"], ["profe", "sör</w>"], ["ma", "cer"], ["a", "k</w>"], ["yapma", "mam</w>"], ["yiye", "lim</w>"], ["gö", "ç"], ["haya", "let"], ["de", "li"], ["sev", "medim</w>"], ["der", "tte</w>"], ["gözükü", "yor</w>"], ["du", "yar</w>"], ["bilin", "ir</w>"], ["kutu", "da</w>"], ["z", "da</w>"], ["orta", "lama</w>"], ["ka", "sı"], ["söyleme", "yecek</w>"], ["kızgın", "ım</w>"], ["mode", "l</w>"], ["pan", "ik</w>"], ["bil", "diğin</w>"], ["gü", "ven</w>"], ["ba", "tı</w>"], ["ola", "mam</w>"], ["civar", "ında</w>"], ["bom", "ba</w>"], ["sanat", "çı"], ["tut", "tu"], ["beş", "te</w>"], ["aşk", "ın</w>"], ["ceza", "sına</w>"], ["klar", "la</w>"], ["başka", "larına</w>"], ["tah", "liye</w>"], ["otu", "ran</w>"], ["araba", "n</w>"], ["balı", "ğa</w>"], ["ken", "t</w>"], ["gerek", "iyorsa</w>"], ["olmalı", "dır</w>"], ["gazet", "eyi</w>"], ["ir", "iz</w>"], ["bağlan", "tı"], ["bö", "cek"], ["sağ", "ır</w>"], ["tanıştığ", "ım</w>"], ["k", "li"], ["mak", "ya"], ["z", "ı"], ["ç", "la</w>"], ["ilgilendir", "mez</w>"], ["olma", "n"], ["ace", "lesi</w>"], ["ev", "imde</w>"], ["me", "lidir</w>"], ["söyle", "diğinden</w>"], ["ka", "lıyorum</w>"], ["müşter", "i</w>"], ["bar", "ış"], ["ba", "kar"], ["çö", "ktü</w>"], ["yağa", "r</w>"], ["ko", "ca</w>"], ["şey", "lerden</w>"], ["bit", "tiğini</w>"], ["ku", "şa"], ["şara", "bı</w>"], ["poli", "sin</w>"], ["ku", "şu</w>"], ["pasta", "yı</w>"], ["kurtu", "ldu</w>"], ["lobi", "de</w>"], ["hev", "es"], ["yiye", "ceğim</w>"], ["yatı", "rım</w>"], ["iste", "diklerini</w>"], ["hoş", "una</w>"], ["hok", "ka"], ["dığ", "ıma</w>"], ["çıkar", "dım</w>"], ["top", "ra"], ["bulu", "şu"], ["iç", "indir</w>"], ["nü", "kle"], ["şam", "pi"], ["kıs", "men</w>"], ["pa", "pa"], ["karşı", "lık</w>"], ["o", "lim"], ["duydu", "ğum</w>"], ["kulü", "bü"], ["efen", "di</w>"], ["uyan", "dım</w>"], ["var", "dık</w>"], ["salonun", "da</w>"], ["alerj", "isi</w>"], ["z", "dan</w>"], ["alt", "ından</w>"], ["ülk", "eyi</w>"], ["bula", "bilirim</w>"], ["ma", "ması</w>"], ["dı", "ş</w>"], ["al", "mamı</w>"], ["fikir", "deyim</w>"], ["i̇", "m"], ["dan", "'ın</w>"], ["bahs", "etmedi</w>"], ["dönü", "ş</w>"], ["mü", "cev"], ["öde", "meyi</w>"], ["tı", "p"], ["gun", "ter</w>"], ["göz", "lüğünü</w>"], ["pem", "be</w>"], ["turis", "t</w>"], ["uza", "ktan</w>"], ["harvard", "'a</w>"], ["izle", "ye"], ["pahalı", "dır</w>"], ["man", "ızı</w>"], ["say", "fa</w>"], ["hal", "let"], ["olabileceğ", "i</w>"], ["kuş", "ku"], ["hayat", "ında</w>"], ["a", "'nın</w>"], ["konuşa", "biliyor</w>"], ["ta", "bağ"], ["güneş", "in</w>"], ["dil", "inde</w>"], ["oda", "m</w>"], ["geç", "en"], ["anla", "dığını</w>"], ["bırak", "maya</w>"], ["edi", "yorsunuz</w>"], ["koşa", "r</w>"], ["buzdolab", "ında</w>"], ["ya", "tı</w>"], ["ai", "len</w>"], ["kağı", "dı</w>"], ["öğrenc", "ileri</w>"], ["mü", "l</w>"], ["konu", "ya</w>"], ["i̇nsan", "ları</w>"], ["kal", "mam</w>"], ["ister", "dim</w>"], ["yetiş", "kin"], ["dön", "medi</w>"], ["hak", "sız</w>"], ["kal", "manı</w>"], ["geçmiş", "i</w>"], ["gider", "dim</w>"], ["koş", "maya</w>"], ["ter", "e</w>"], ["yaş", "ı</w>"], ["cese", "di</w>"], ["veril", "medi</w>"], ["oku", "yarak</w>"], ["ton", "y</w>"], ["kal", "dığı</w>"], ["la", "ması</w>"], ["yapma", "dın</w>"], ["claudi", "o</w>"], ["geçir", "din</w>"], ["çora", "p"], ["ta", "ham"], ["ne", "za"], ["süp", "ür"], ["lan", "mak</w>"], ["şidde", "t</w>"], ["başlangı", "ç</w>"], ["'", "u</w>"], ["inci", "tti</w>"], ["paket", "i</w>"], ["du", "man</w>"], ["p", "ek"], ["tır", "mak</w>"], ["gün", "lüğ"], ["hafta", "ya</w>"], ["bilir", "din</w>"], ["ma", "yı"], ["ma", "den"], ["bil", "diğine</w>"], ["sor", "ma</w>"], ["ışı", "kları</w>"], ["git", "sen</w>"], ["uça", "ğı</w>"], ["koş", "tum</w>"], ["sa", "ye"], ["salonun", "a</w>"], ["z", "ü"], ["hır", "s"], ["akıl", "lıca</w>"], ["ara", "z"], ["ai", "ttir</w>"], ["tek", "er"], ["kimsey", "le</w>"], ["isteme", "diği</w>"], ["y", "du</w>"], ["çar", "esiz</w>"], ["huku", "k</w>"], ["çap", "ında</w>"], ["ilişk", "isi</w>"], ["ran", "ın</w>"], ["ti", "z</w>"], ["seç", "imi</w>"], ["id", "are</w>"], ["pla", "stik</w>"], ["g", "ili</w>"], ["küçü", "k"], ["mah", "kû"], ["da", "ğı</w>"], ["cümle", "ler</w>"], ["plan", "ını</w>"], ["sıcak", "lık</w>"], ["taşı", "dı</w>"], ["t", "y</w>"], ["tanış", "tın</w>"], ["çöp", "ü</w>"], ["söyle", "miş</w>"], ["de", "pr"], ["ta", "yız</w>"], ["bırakı", "r</w>"], ["gör", "evli"], ["ola", "cağ"], ["key", "if"], ["ala", "madım</w>"], ["yan", "dı</w>"], ["e", "mem</w>"], ["hiss", "ediyorsun</w>"], ["buçu", "k</w>"], ["olma", "mış</w>"], ["kendi", "siyle</w>"], ["c", "ana</w>"], ["geç", "tim</w>"], ["patron", "um</w>"], ["giy", "mek</w>"], ["konuş", "malısın</w>"], ["s", "ika</w>"], ["muha", "fa"], ["olma", "yın</w>"], ["yürü", "meyi</w>"], ["bilet", "leri</w>"], ["kork", "muyor</w>"], ["a", "tın</w>"], ["nükle", "er</w>"], ["kural", "lara</w>"], ["düzen", "le"], ["ğu", "mdan</w>"], ["m", "lü</w>"], ["ihtimal", "le</w>"], ["cim", "ri</w>"], ["e", "j"], ["ne", "lerdir</w>"], ["i̇l", "k"], ["sıra", "sı</w>"], ["arkadaşlar", "ımla</w>"], ["üç", "ü</w>"], ["irti", "bat</w>"], ["bil", "dirdi</w>"], ["geçer", "li</w>"], ["sempa", "tik</w>"], ["ca", "dde</w>"], ["kayb", "ettik</w>"], ["bekli", "yorsun</w>"], ["ge", "v"], ["mi", "ra"], ["ma", "mıştı</w>"], ["kadın", "ları</w>"], ["gerçek", "leri</w>"], ["esperan", "to"], ["cenaz", "e</w>"], ["düşün", "meye</w>"], ["bi", "f"], ["kı", "v"], ["sözleş", "meyi</w>"], ["olma", "ma"], ["ek", "le</w>"], ["matema", "tikte</w>"], ["sessiz", "lik</w>"], ["yaşa", "m"], ["sava", "şa</w>"], ["ça", "lan</w>"], ["al", "dığın</w>"], ["of", "is</w>"], ["üz", "ün"], ["brow", "n</w>"], ["i", "ra"], ["gün", "den</w>"], ["içer", "isinde</w>"], ["bil", "mesi</w>"], ["resto", "rana</w>"], ["'", "yla</w>"], ["iler", "den</w>"], ["den", "ge"], ["güven", "iyor</w>"], ["arkadaş", "larını</w>"], ["götürü", "r</w>"], ["bekle", "me"], ["kan", "ın</w>"], ["li", "yordu</w>"], ["ka", "vu"], ["kazan", "dım</w>"], ["ra", "ki"], ["anı", "r</w>"], ["lik", "leri</w>"], ["ala", "cağız</w>"], ["i̇ngiltere", "'de</w>"], ["kıskan", "ç"], ["de", "lir"], ["yap", "ış"], ["kar", "iy"], ["ara", "masını</w>"], ["saldır", "gan</w>"], ["ta", "lar</w>"], ["ta", "ban"], ["taham", "mül</w>"], ["pal", "to"], ["kı", "za"], ["mem", "le"], ["k", "taki</w>"], ["arkadaşı", "mın</w>"], ["hari", "ta</w>"], ["ev", "rak</w>"], ["konuşa", "madığını</w>"], ["baba", "sından</w>"], ["öğret", "en</w>"], ["anahtar", "ları</w>"], ["ta", "ydı</w>"], ["oldu", "kları</w>"], ["bı", "mı</w>"], ["uza", "ğa</w>"], ["ara", "dığın</w>"], ["yaşa", "dığım</w>"], ["kız", "gındı</w>"], ["saye", "sinde</w>"], ["oyna", "maktan</w>"], ["söylediğ", "inin</w>"], ["ma", "t</w>"], ["plan", "ım</w>"], ["bahç", "esi</w>"], ["iş", "lerini</w>"], ["kal", "dıra"], ["'", "ten</w>"], ["di", "yorsun</w>"], ["son", "baharda</w>"], ["yapa", "mayız</w>"], ["bu", "s"], ["gec", "enin</w>"], ["battan", "iye</w>"], ["iş", "siz</w>"], ["çıka", "cak</w>"], ["du", "ğumu</w>"], ["m", "um</w>"], ["lı", "lık</w>"], ["lı", "ktır</w>"], ["i̇k", "iniz</w>"], ["c", "in</w>"], ["genç", "sin</w>"], ["t", "ho"], ["çık", "tığını</w>"], ["suç", "laya"], ["yaşında", "ydı</w>"], ["yaş", "lıyım</w>"], ["ulaş", "mak</w>"], ["rüşv", "et</w>"], ["iste", "diler</w>"], ["he", "li"], ["heli", "kop"], ["kazana", "mayacağını</w>"], ["göz", "lüğü</w>"], ["öğrenc", "is"], ["fazla", "sı</w>"], ["istasyon", "una</w>"], ["uça", "kla</w>"], ["çalış", "malısın</w>"], ["var", "dığımda</w>"], ["per", "şem"], ["mek", "sika</w>"], ["oku", "madım</w>"], ["yemeğ", "e</w>"], ["ye", "l"], ["naz", "i"], ["gel", "mediğini</w>"], ["yapa", "madığını</w>"], ["bir", "isini</w>"], ["gör", "mesini</w>"], ["parti", "yi</w>"], ["bu", "günün</w>"], ["ner", "ede"], ["reka", "bet"], ["ol", "muyor</w>"], ["kıs", "mı</w>"], ["konuşa", "cağını</w>"], ["müzi", "kten</w>"], ["içer", "im</w>"], ["me", "melisin</w>"], ["ka", "to"], ["ça", "yı</w>"], ["oyna", "yalım</w>"], ["sev", "gi"], ["di", "ya"], ["n", "in"], ["ha", "w"], ["görüş", "mesi</w>"], ["lar", "ıma</w>"], ["edil", "medi</w>"], ["devlet", "leri</w>"], ["banka", "da</w>"], ["iç", "mekten</w>"], ["baş", "vu"], ["iş", "birliği</w>"], ["karan", "lıktan</w>"], ["niy", "eti</w>"], ["eder", "ek</w>"], ["bir", "iyim</w>"], ["sandv", "iç"], ["kes", "ildi</w>"], ["geliştir", "mek</w>"], ["iz", "n"], ["getir", "eceğim</w>"], ["yok", "sul</w>"], ["ih", "lal</w>"], ["öğretmen", "ler</w>"], ["diş", "ç"], ["hiçbir", "imiz</w>"], ["i̇", "sa</w>"], ["dı", "şı"], ["gün", "ce"], ["iyile", "şe"], ["tec", "rü"], ["tü", "s"], ["merye", "m</w>"], ["şaşk", "ın"], ["patla", "mış</w>"], ["söyleme", "liydim</w>"], ["k", "eri</w>"], ["gel", "inceye</w>"], ["gide", "ceksin</w>"], ["6", "'da</w>"], ["barda", "ğı</w>"], ["sağ", "ladı</w>"], ["kyoto", "'da</w>"], ["gitme", "mizi</w>"], ["ambulan", "s</w>"], ["tartı", "şa"], ["tü", "f"], ["burada", "sın</w>"], ["sağ", "lık"], ["burn", "unu</w>"], ["iç", "mez</w>"], ["de", "mir"], ["har", "f"], ["ter", "fi</w>"], ["hazır", "lanıyor</w>"], ["yaş", "lıdır</w>"], ["havaalan", "ında</w>"], ["ken", "t"], ["en", "se</w>"], ["pa", "ten"], ["bıça", "kla</w>"], ["york", "'a</w>"], ["harca", "mak</w>"], ["kan", "ser</w>"], ["dünya", "ya</w>"], ["etme", "k"], ["tı", "yorsun</w>"], ["söyleye", "ceğimi</w>"], ["din", "ler</w>"], ["ilgilene", "cek</w>"], ["beklen", "medik</w>"], ["al", "ter"], ["alter", "na"], ["kardeş", "inden</w>"], ["olim", "pi"], ["i̇talyan", "ca</w>"], ["ne", "de</w>"], ["pişman", "ım</w>"], ["fransa", "'da</w>"], ["pata", "tes"], ["değiştir", "dim</w>"], ["aile", "nin</w>"], ["yapa", "mayacak</w>"], ["or", "man</w>"], ["t", "maya</w>"], ["soy", "gun"], ["bor", "c"], ["uça", "kta</w>"], ["b", "ölümü</w>"], ["can", "ın</w>"], ["hafif", "e</w>"], ["büyü", "düm</w>"], ["lı", "ktı</w>"], ["dola", "bı</w>"], ["gönder", "eceğim</w>"], ["dinle", "ne"], ["ir", "di</w>"], ["eli", "mi</w>"], ["ö", "mür</w>"], ["bilme", "diğimi</w>"], ["kı", "yı"], ["olu", "yorum</w>"], ["ile", "cek</w>"], ["dan", "s"], ["inter", "net</w>"], ["iç", "mem</w>"], ["gücü", "m</w>"], ["kütüphan", "e</w>"], ["kazan", "masını</w>"], ["atı", "ldı</w>"], ["mi", "yet"], ["göz", "lerimi</w>"], ["der", "i</w>"], ["yönet", "ic"], ["söz", "ler</w>"], ["par", "anı</w>"], ["yaza", "cağım</w>"], ["anlat", "tım</w>"], ["geçen", "lerde</w>"], ["göz", "ü</w>"], ["tesadü", "f</w>"], ["etki", "lendi</w>"], ["konuştu", "ğu</w>"], ["umursa", "mıyor</w>"], ["oyn", "arım</w>"], ["peyn", "ir"], ["ca", "yı</w>"], ["e", "di</w>"], ["eğlence", "lidir</w>"], ["ik", "iye</w>"], ["ala", "maz</w>"], ["doma", "tes</w>"], ["dir", "ler</w>"], ["is", "tan</w>"], ["is", "raf</w>"], ["söz", "ümü</w>"], ["yakala", "dım</w>"], ["öl", "düğü</w>"], ["bekleye", "bilir</w>"], ["tat", "ilde</w>"], ["anlat", "mak</w>"], ["y", "arar</w>"], ["mi", "zah</w>"], ["der", "im</w>"], ["ha", "tan</w>"], ["mar", "uz</w>"], ["ba", "han"], ["çal", "ın"], ["mu", "c"], ["alt", "mış</w>"], ["haber", "leri</w>"], ["saldırı", "ya</w>"], ["getir", "din</w>"], ["yapmaz", "dım</w>"], ["olduğ", "uma</w>"], ["ya", "yıldı</w>"], ["ge", "ci"], ["anlata", "cağım</w>"], ["dir", "ek"], ["a", "bar"], ["yatı", "yordu</w>"], ["yapa", "bilirdi</w>"], ["aç", "göz"], ["ha", "sına</w>"], ["ci", "ğ"], ["hay", "li</w>"], ["bekle", "diğimden</w>"], ["sıkıl", "mış</w>"], ["keli", "menin</w>"], ["t", "ran"], ["akra", "ba</w>"], ["çal", "dığında</w>"], ["amerikalı", "lar</w>"], ["ile", "ti"], ["dil", "de</w>"], ["yap", "mıyorsun</w>"], ["liğ", "inde</w>"], ["ren", "g"], ["pren", "ses</w>"], ["c", "ol"], ["memnun", "du</w>"], ["gömle", "ğini</w>"], ["yağa", "cağını</w>"], ["ka", "te"], ["süp", "er</w>"], ["hafı", "za"], ["yakın", "dır</w>"], ["of", "isi</w>"], ["tırı", "yor</w>"], ["yeme", "diğini</w>"], ["bah", "ara"], ["eğili", "min"], ["ola", "caklar</w>"], ["duydu", "ğunda</w>"], ["gece", "ler</w>"], ["ede", "bi"], ["ça", "ba</w>"], ["gece", "leyin</w>"], ["cer", "ra"], ["s", "ara"], ["al", "malıyız</w>"], ["1", "8"], ["e", "ya"], ["dırı", "cı</w>"], ["bekleye", "lim</w>"], ["kurtu", "la"], ["iç", "indeydi</w>"], ["arkadaşı", "ma</w>"], ["d", "r</w>"], ["ağa", "bey"], ["merkez", "i</w>"], ["den", "izde</w>"], ["kahvaltı", "dan</w>"], ["eğ", "it"], ["aile", "mle</w>"], ["ya", "tıyor</w>"], ["h", "üc"], ["al", "maz</w>"], ["değer", "lendir"], ["yer", "iz</w>"], ["ehliy", "et"], ["sev", "iy"], ["cebin", "den</w>"], ["mar", "an"], ["maran", "go"], ["döne", "m</w>"], ["çarp", "ı"], ["fotoğraf", "ı</w>"], ["plaj", "da</w>"], ["pikni", "ğe</w>"], ["konuşa", "bilirim</w>"], ["getir", "mek</w>"], ["gel", "ince</w>"], ["bek", "ler</w>"], ["bina", "da</w>"], ["yor", "ken</w>"], ["kam", "p"], ["kapı", "sı</w>"], ["ettiğ", "inde</w>"], ["key", "f"], ["baş", "vuru"], ["köpeğ", "inin</w>"], ["iş", "ken"], ["kayb", "ettin</w>"], ["herkes", "le</w>"], ["al", "dır"], ["restoran", "ı</w>"], ["gider", "di</w>"], ["cek", "lerini</w>"], ["i̇", "r"], ["so", "k"], ["duru", "r</w>"], ["alış", "a"], ["j", "ı</w>"], ["bul", "mayı</w>"], ["pencer", "enin</w>"], ["yıldız", "lar</w>"], ["es", "pr"], ["ej", "der"], ["net", "te</w>"], ["sarhoş", "tu</w>"], ["yıka", "dı</w>"], ["tutuk", "ladı</w>"], ["çikola", "talı</w>"], ["p", "sik"], ["u", "ğur"], ["gü", "</w>"], ["etk", "in"], ["ah", "şa"], ["p", "i</w>"], ["ür", "ün</w>"], ["duy", "duk</w>"], ["sebe", "p"], ["gemi", "ye</w>"], ["duru", "ma</w>"], ["facebook", "'ta</w>"], ["mey", "ve"], ["artı", "yor</w>"], ["ti", "p</w>"], ["lı", "kları</w>"], ["ba", "ttı</w>"], ["cezalan", "dırı"], ["dinlen", "mek</w>"], ["es", "el</w>"], ["ti", "z"], ["var", "maz</w>"], ["yanıt", "ladı</w>"], ["i̇sabel", "la"], ["götürü", "yorum</w>"], ["meye", "ceğimi</w>"], ["tom'", "un"], ["po", "ker</w>"], ["baş", "ının</w>"], ["de", "di"], ["co", "o"], ["coo", "ki"], ["öde", "yecek</w>"], ["yiye", "ceği</w>"], ["tercü", "me</w>"], ["yarı", "sını</w>"], ["göster", "ebilir</w>"], ["m", "ünü</w>"], ["çev", "re</w>"], ["lığ", "ında</w>"], ["vere", "bilirim</w>"], ["kur", "tarı"], ["şehir", "dir</w>"], ["bi", "lerek</w>"], ["ku", "mar</w>"], ["gerçek", "leşti</w>"], ["mu", "dur</w>"], ["no", "tu</w>"], ["görünü", "yorum</w>"], ["dehş", "ete</w>"], ["soru", "ştur"], ["kaz", "ara</w>"], ["ara", "dığım</w>"], ["\"", "ne</w>"], ["ız", "a</w>"], ["tip", "ik</w>"], ["i̇s", "veç"], ["söylen", "ti</w>"], ["gö", "k</w>"], ["kt", "an"], ["ktan", "sa</w>"], ["haf", "tanın</w>"], ["za", "val"], ["kü", "l</w>"], ["yaşaya", "cak</w>"], ["gördüğü", "mden</w>"], ["ma", "dal"], ["sör", "f</w>"], ["biraz", "cık</w>"], ["çocu", "ktur</w>"], ["ödev", "inde</w>"], ["h", "il"], ["köş", "ede</w>"], ["y", "'nin</w>"], ["beğen", "iyor</w>"], ["leş", "iyor</w>"], ["ko", "yar</w>"], ["boston'", "dayken</w>"], ["bahç", "e</w>"], ["yapma", "maya</w>"], ["f", "ısı"], ["aç", "maya</w>"], ["görme", "din</w>"], ["l", "ine</w>"], ["ımız", "ın</w>"], ["yürü", "r</w>"], ["i̇s", "ti"], ["baş", "ımıza</w>"], ["geldiğ", "imde</w>"], ["ba", "cağını</w>"], ["ü", "tü"], ["ler", "ime</w>"], ["isten", "di</w>"], ["alışkın", "dır</w>"], ["tas", "arı"], ["ağaç", "lar</w>"], ["k", "leri</w>"], ["tığ", "ım</w>"], ["keşf", "etti</w>"], ["peş", "inde</w>"], ["avustralya", "lı</w>"], ["tanış", "a"], ["harca", "r</w>"], ["doktor", "un</w>"], ["kaza", "ya</w>"], ["facebo", "ok</w>"], ["görü", "ş</w>"], ["da", "vu"], ["oku", "rken</w>"], ["bulu", "yor</w>"], ["yağmur", "da</w>"], ["fa", "iye"], ["ral", "ım</w>"], ["işı", "k</w>"], ["bek", "leyen</w>"], ["ni", "telik"], ["sor", "madı</w>"], ["çılgın", "ca</w>"], ["ofis", "imde</w>"], ["kilit", "le"], ["niyet", "inde</w>"], ["şapka", "sı</w>"], ["r", "sa</w>"], ["y", "etmez</w>"], ["dere", "ce"], ["acı", "masız</w>"], ["olum", "lu</w>"], ["çıkı", "yorum</w>"], ["harca", "dım</w>"], ["f", "inan"], ["vo", "ley"], ["oynu", "yorlar</w>"], ["ölü", "yor</w>"], ["isteye", "bilirsin</w>"], ["ara", "balar"], ["bili", "yordun</w>"], ["s", "ir"], ["reh", "ber"], ["çalış", "tın</w>"], ["konuşa", "biliriz</w>"], ["ay", "lık</w>"], ["boş", "una</w>"], ["hapis", "ten</w>"], ["çu", "bu"], ["kula", "ğa</w>"], ["koru", "maya</w>"], ["yaz", "ım</w>"], ["in", "ek</w>"], ["resim", "ler</w>"], ["geç", "ecek</w>"], ["mars", "'ta</w>"], ["deney", "im</w>"], ["e", "bilirsin</w>"], ["da", "m"], ["yet", "er</w>"], ["söylen", "iyor</w>"], ["dan", "ia"], ["t", "ün"], ["satı", "ş</w>"], ["satran", "çta</w>"], ["kusur", "suz</w>"], ["çık", "maz</w>"], ["kal", "dığım</w>"], ["kaç", "masına</w>"], ["bin", "mek</w>"], ["yapma", "yın</w>"], ["kapa", "dı</w>"], ["ür", "per"], ["tör", "en"], ["olan", "lardan</w>"], ["bulun", "madım</w>"], ["gitme", "diğini</w>"], ["parti", "me</w>"], ["dokun", "ma</w>"], ["as", "keri</w>"], ["ce", "bine</w>"], ["yap", "tınız</w>"], ["ar", "t"], ["etme", "nin</w>"], ["bey", "efendi</w>"], ["ateş", "in</w>"], ["yen", "di</w>"], ["ahşa", "p</w>"], ["sınıf", "ın</w>"], ["kam", "yonu</w>"], ["t", "w"], ["bilgi", "ye</w>"], ["açı", "ldı</w>"], ["olduğu", "mdan</w>"], ["evlen", "diler</w>"], ["yer", "ime</w>"], ["avustralya", "'yı</w>"], ["ta", "kar</w>"], ["gö", "m"], ["oyna", "dık</w>"], ["alan", "ı</w>"], ["tabl", "o</w>"], ["dön", "düğünü</w>"], ["cek", "siniz</w>"], ["büt", "ünü"], ["bütünü", "yle</w>"], ["â", "r</w>"], ["kur", "bağ"], ["yiy", "ebilir</w>"], ["gen", "iş"], ["ku", "r</w>"], ["değiş", "ir</w>"], ["kafa", "sını</w>"], ["kitap", "ların</w>"], ["hiss", "etmeye</w>"], ["moto", "ru</w>"], ["kır", "p"], ["şirket", "te</w>"], ["değil", "se</w>"], ["kita", "ba</w>"], ["ler", "iz</w>"], ["bekle", "miyorum</w>"], ["yas", "tık</w>"], ["elma", "lar</w>"], ["de", "lik</w>"], ["krali", "çe</w>"], ["düşüne", "miyorum</w>"], ["ara", "madı</w>"], ["kend", "iniz</w>"], ["renk", "li</w>"], ["git", "miyoruz</w>"], ["mev", "s"], ["gitme", "z"], ["şa", "ir</w>"], ["as", "kı"], ["kitap", "larını</w>"], ["türk", "çe</w>"], ["evlen", "meyi</w>"], ["fır", "ça"], ["ko", "ç</w>"], ["zaval", "lı</w>"], ["pan", "ya</w>"], ["bi", "t</w>"], ["kazan", "maya</w>"], ["si", "tesi</w>"], ["borç", "lusun</w>"], ["kapa", "tın</w>"], ["le", "şe"], ["çar", "şam"], ["gülün", "ç</w>"], ["hazır", "la"], ["h", "anı"], ["muhafa", "za"], ["konuşma", "cı</w>"], ["lo", "kan"], ["cevab", "ını</w>"], ["ver", "mesi</w>"], ["il", "a</w>"], ["ölüm", "ünden</w>"], ["sığ", "ır</w>"], ["anlaya", "madım</w>"], ["li", "san"], ["gir", "er</w>"], ["iy", "et</w>"], ["müz", "de</w>"], ["lü", "r</w>"], ["kili", "se"], ["bor", "cu</w>"], ["öle", "cek</w>"], ["on", "ar"], ["öğret", "ir</w>"], ["i̇ş", "leri</w>"], ["gözyaş", "ları</w>"], ["üzerey", "dim</w>"], ["muy", "uz</w>"], ["çek", "tim</w>"], ["i̇", "stan"], ["his", "se"], ["kut", "sal</w>"], ["tanı", "mak</w>"], ["cü", "l</w>"], ["kafa", "m</w>"], ["ihti", "mal</w>"], ["bo", "n</w>"], ["de", "ler</w>"], ["bozu", "cu</w>"], ["ney", "den</w>"], ["yapar", "sa</w>"], ["kiş", "iler</w>"], ["arkadaşı", "yla</w>"], ["fes", "ti"], ["bul", "mamız</w>"], ["gel", "miş</w>"], ["ala", "yım</w>"], ["kullanı", "lmış</w>"], ["sig", "orta"], ["pla", "j</w>"], ["il", "mesi</w>"], ["mesele", "yi</w>"], ["gru", "bu"], ["lâ", "zım</w>"], ["manz", "ara</w>"], ["at", "maya</w>"], ["ik", "isinin</w>"], ["chica", "go"], ["taraf", "ta</w>"], ["sa", "yı</w>"], ["mahv", "etti</w>"], ["kapat", "tım</w>"], ["hal", "ka</w>"], ["ik", "ler</w>"], ["ma", "su"], ["liste", "sini</w>"], ["kasaba", "yı</w>"], ["benze", "miyor</w>"], ["yüz", "er</w>"], ["ınız", "ın</w>"], ["mahalle", "de</w>"], ["baş", "vur"], ["savaş", "ın</w>"], ["tema", "sa</w>"], ["imza", "ladı</w>"], ["tanı", "k</w>"], ["ev", "siz</w>"], ["len", "miş</w>"], ["ter", "bi"], ["kar", "da</w>"], ["i̇ngiliz", "c"], ["muz", "da</w>"], ["üz", "gündü</w>"], ["çalış", "an"], ["konuşa", "bilen</w>"], ["ler", "iniz</w>"], ["bak", "ış"], ["eşya", "larını</w>"], ["muhteme", "l</w>"], ["ist", "is"], ["düğü", "m</w>"], ["bili", "yorsunuz</w>"], ["yor", "k</w>"], ["göz", "et"], ["c", "eydi</w>"], ["sür", "erken</w>"], ["lu", "m"], ["uç", "tu</w>"], ["kahra", "man"], ["ayrı", "lıyor</w>"], ["g", "ri</w>"], ["protesto", "</w>"], ["duyu", "yoruz</w>"], ["bil", "men</w>"], ["hika", "yenin</w>"], ["söyleme", "z</w>"], ["ayrıl", "maya</w>"], ["e", "me</w>"], ["i", "d</w>"], ["ro", "ma</w>"], ["res", "me</w>"], ["ris", "ki</w>"], ["yaptığ", "ıma</w>"], ["yar", "ış</w>"], ["”", "</w>"], ["akşa", "mı</w>"], ["n", "ö"], ["ön", "lemek</w>"], ["ma", "t"], ["mi", "ye</w>"], ["gir", "diğini</w>"], ["var", "mış</w>"], ["ah", "la"], ["as", "lan</w>"], ["gelme", "mi</w>"], ["memle", "ket"], ["olma", "kla</w>"], ["v", "ı</w>"], ["es", "t</w>"], ["en", "gel</w>"], ["pen", "in</w>"], ["di", "yet</w>"], ["müz", "ü</w>"], ["yazı", "lı</w>"], ["hayvan", "dır</w>"], ["eş", "i</w>"], ["i̇ş", "in</w>"], ["bilgisayar", "ını</w>"], ["gidi", "ş"], ["iz", "liyorum</w>"], ["edil", "dim</w>"], ["al", "maktadır</w>"], ["ka", "mu</w>"], ["konuşma", "da</w>"], ["yüz", "e</w>"], ["uz", "laş"], ["tanış", "tık</w>"], ["kiş", "iye</w>"], ["tür", "k</w>"], ["sala", "ta</w>"], ["haw", "ai"], ["göl", "ge"], ["düş", "tüm</w>"], ["çalıştığ", "ım</w>"], ["kam", "pa</w>"], ["şa", "şı"], ["götüre", "cek</w>"], ["ru", "sya"], ["istemi", "yorsan</w>"], ["m", "p"], ["boy", "un</w>"], ["i", "ğ"], ["se", "p"], ["sessiz", "di</w>"], ["kira", "z</w>"], ["iste", "meyeceğini</w>"], ["dil", "ler</w>"], ["gir", "diğinde</w>"], ["düz", "ine</w>"], ["oku", "rum</w>"], ["vazgeç", "mek</w>"], ["tanı", "r</w>"], ["söz", "ünden</w>"], ["buluş", "alım</w>"], ["gerek", "ip</w>"], ["ara", "zi</w>"], ["gele", "ceğine</w>"], ["mahkû", "m</w>"], ["bes", "len"], ["i̇", "bran"], ["fatu", "ral"], ["umut", "suz"], ["ek", "st"], ["an", "t"], ["davran", "ma</w>"], ["gider", "ler</w>"], ["kar", "la</w>"], ["telefon", "la</w>"], ["lü", "kte</w>"], ["yu", "var"], ["at", "ları</w>"], ["ek", "le"], ["verme", "din</w>"], ["kardeşim", "e</w>"], ["dük", "kan</w>"], ["davranı", "yordu</w>"], ["yasa", "dışı</w>"], ["ır", "ım</w>"], ["insan", "dır</w>"], ["bulun", "dun</w>"], ["sar", "sı"], ["ko", "le"], ["tar", "if"], ["tav", "şan</w>"], ["olası", "lık</w>"], ["al", "fa"], ["for", "mu</w>"], ["zehir", "li</w>"], ["diğ", "eri</w>"], ["duy", "madı</w>"], ["sanı", "yorsun</w>"], ["yen", "e</w>"], ["tiyatr", "oya</w>"], ["mektup", "ları</w>"], ["kahire", "'de</w>"], ["mış", "ım</w>"], ["z", "emin</w>"], ["konuşu", "yorlar</w>"], ["klar", "ım</w>"], ["du", "var</w>"], ["es", "p"], ["ko", "k"], ["bekle", "mekten</w>"], ["yone", "r</w>"], ["tic", "aret</w>"], ["liy", "le</w>"], ["işken", "ce</w>"], ["to", "na</w>"], ["su", "da</w>"], ["ta", "d"], ["at", "lar</w>"], ["ka", "st"], ["yumru", "k</w>"], ["ver", "iyorsun</w>"], ["s", "is"], ["kazan", "ma</w>"], ["kal", "bim</w>"], ["sür", "dür"], ["ölüm", "cül</w>"], ["konuşu", "lur</w>"], ["pa", "hasına</w>"], ["avrupa", "'ya</w>"], ["silah", "lı</w>"], ["çevr", "ede</w>"], ["asan", "sör</w>"], ["geç", "er</w>"], ["şey", "lere</w>"], ["mu", "ay"], ["siv", "ris"], ["'", "tan</w>"], ["olmaya", "cağından</w>"], ["vücu", "t</w>"], ["su", "s"], ["ş", "o"], ["beklen", "t"], ["mağaza", "ya</w>"], ["sor", "maya</w>"], ["tır", "ma</w>"], ["makya", "j</w>"], ["at", "le"], ["politika", "cı</w>"], ["çek", "iyorum</w>"], ["takı", "yordu</w>"], ["takı", "ma</w>"], ["su", "dan</w>"], ["gönder", "mek</w>"], ["hayvan", "lardır</w>"], ["çıkar", "ıyor</w>"], ["19", "6"], ["iç", "tin</w>"], ["söyle", "miyor</w>"], ["getir", "ebilir</w>"], ["yet", "ecek</w>"], ["yağ", "ıyordu</w>"], ["tıp", "kı</w>"], ["getir", "in</w>"], ["top", "lum</w>"], ["hazır", "dı</w>"], ["o", "li"], ["ye", "dek</w>"], ["soğu", "k"], ["anne", "mi</w>"], ["koca", "man</w>"], ["izli", "yordu</w>"], ["kal", "mayacak</w>"], ["algın", "lığı</w>"], ["\"", "bu</w>"], ["pişir", "dim</w>"], ["oyun", "un</w>"], ["söyleme", "sine</w>"], ["giys", "ilerini</w>"], ["kap", "an"], ["saldır", "ı</w>"], ["sın", "ır</w>"], ["fiyat", "ları</w>"], ["istas", "yonu</w>"], ["başla", "madan</w>"], ["yapa", "yım</w>"], ["uygu", "lama</w>"], ["bit", "tiğ"], ["s", "pa"], ["sabır", "sız</w>"], ["buluş", "mak</w>"], ["olma", "ktır</w>"], ["düşünmü", "yordu</w>"], ["iş", "le</w>"], ["bıraka", "cağım</w>"], ["geli", "yorsun</w>"], ["ede", "ceğine</w>"], ["an", "i</w>"], ["isti", "k</w>"], ["fırt", "ın"], ["le", "ye</w>"], ["lı", "yoruz</w>"], ["ekono", "mi</w>"], ["taşı", "yordu</w>"], ["d", "y</w>"], ["öfkes", "ini</w>"], ["şaşır", "madım</w>"], ["bin", "dim</w>"], ["konuşa", "cağız</w>"], ["deney", "in</w>"], ["olma", "sından</w>"], ["haz", "i"], ["hazi", "ran</w>"], ["koy", "mak</w>"], ["kul", "lan</w>"], ["evlen", "me</w>"], ["ö", "bü"], ["bildire", "ceğim</w>"], ["duygu", "sal</w>"], ["kullanı", "l"], ["ya", "ttı</w>"], ["bar", "dağ"], ["üz", "gün"], ["neşe", "li</w>"], ["il", "k"], ["gör", "mez</w>"], ["sev", "im"], ["şapka", "yı</w>"], ["kut", "lu</w>"], ["kurtul", "mak</w>"], ["alı", "yorsun</w>"], ["i", "do"], ["kes", "mek</w>"], ["yat", "madan</w>"], ["bil", "meni</w>"], ["lü", "n</w>"], ["kazan", "masına</w>"], ["oda", "ma</w>"], ["ilginç", "ti</w>"], ["u", "tu"], ["korkut", "tu</w>"], ["çık", "madı</w>"], ["baka", "cağım</w>"], ["hep", "imizi</w>"], ["çin", "li</w>"], ["göre", "ceğiz</w>"], ["güven", "miyor</w>"], ["mü", "sa"], ["çek", "er</w>"], ["k", "çı</w>"], ["moto", "r</w>"], ["öğretmen", "dir</w>"], ["et", "miyordu</w>"], ["mobil", "ya</w>"], ["kala", "bilirsin</w>"], ["ne", "mli</w>"], ["su", "s</w>"], ["gönül", "lü"], ["dik", "ka"], ["gül", "mekten</w>"], ["kuzen", "im</w>"], ["baş", "ın</w>"], ["yapı", "yordum</w>"], ["joh", "n"], ["bitir", "medim</w>"], ["ala", "caksın</w>"], ["du", "ğun</w>"], ["ok", "un"], ["mı", "yla</w>"], ["ger", "gin"], ["tanış", "madım</w>"], ["avustralya", "'dan</w>"], ["plan", "lar</w>"], ["koru", "ya"], ["sürpr", "iz"], ["iş", "ar"], ["der", "gi"], ["hak", "im</w>"], ["i̇htiya", "cım</w>"], ["olmaz", "sa</w>"], ["geç", "tiğini</w>"], ["bitiş", "ik</w>"], ["kas", "ten</w>"], ["bu", "ydu</w>"], ["yol", "una</w>"], ["tay", "f"], ["i̇k", "isi</w>"], ["eğlen", "dik</w>"], ["at", "mos"], ["yemek", "leri</w>"], ["güven", "liği</w>"], ["imkan", "sızdır</w>"], ["bı", "yı"], ["yağmur", "dan</w>"], ["b", "al</w>"], ["tah", "min"], ["çalış", "manın</w>"], ["sağ", "lığın</w>"], ["bileceğ", "imden</w>"], ["der", "inden</w>"], ["şan", "sın</w>"], ["mez", "siniz</w>"], ["istediğ", "iniz</w>"], ["yaşa", "mı</w>"], ["değiş", "im</w>"], ["hedi", "yeyi</w>"], ["'", "deki</w>"], ["ör", "n"], ["yapar", "lar</w>"], ["üc", "reti</w>"], ["de", "me</w>"], ["çık", "madan</w>"], ["edil", "miştir</w>"], ["pişman", "lık</w>"], ["depr", "em"], ["ka", "ya</w>"], ["yürür", "ken</w>"], ["uyu", "duğunu</w>"], ["orijin", "al</w>"], ["kim", "den</w>"], ["p", "is</w>"], ["ki", "ra</w>"], ["söyleme", "diğini</w>"], ["ge", "ceki</w>"], ["perşem", "be</w>"], ["süpermarket", "te</w>"], ["el", "le</w>"], ["iste", "dik</w>"], ["ede", "meyeceğini</w>"], ["ihti", "mali</w>"], ["telefon", "umu</w>"], ["ra", "hi"], ["sır", "rını</w>"], ["t", "ten</w>"], ["izle", "din</w>"], ["uça", "ğa</w>"], ["saa", "te</w>"], ["yapmaya", "cağına</w>"], ["bitir", "dikten</w>"], ["iş", "tah"], ["at", "lat"], ["arkadaşı", "mla</w>"], ["k", "ana</w>"], ["ef", "endi"], ["saç", "larını</w>"], ["önem", "siz</w>"], ["ad", "ınızı</w>"], ["konuş", "arak</w>"], ["sık", "ışı"], ["sü", "s"], ["tu", "tar"], ["si", "den</w>"], ["yönet", "ici</w>"], ["1", "2</w>"], ["tı", "ktan</w>"], ["utan", "g"], ["cı", "sın</w>"], ["ölü", "r"], ["kav", "ra"], ["i̇s", "ra"], ["i", "dam</w>"], ["gelir", "im</w>"], ["ce", "za</w>"], ["der", "siniz</w>"], ["duvar", "ı</w>"], ["m", "ında</w>"], ["s", "ko"], ["göz", "lerim</w>"], ["yüzü", "yor</w>"], ["tır", "dım</w>"], ["bula", "cağını</w>"], ["bili", "yorlar</w>"], ["ğun", "un</w>"], ["s", "üz"], ["tanı", "dı</w>"], ["de", "mir</w>"], ["kork", "muştu</w>"], ["gözyaş", "larına</w>"], ["'", "ne</w>"], ["gerek", "siz</w>"], ["alda", "t"], ["hak", "lıydı</w>"], ["k", "orun"], ["i̇slam'", "a</w>"], ["iç", "erken</w>"], ["iste", "yeceğim</w>"], ["li", "mi</w>"], ["kır", "sal"], ["aca", "ba</w>"], ["gün", "düz</w>"], ["bildir", "in</w>"], ["köpek", "lerden</w>"], ["genç", "ler</w>"], ["gör", "ecek</w>"], ["ça", "mur"], ["ser", "in</w>"], ["göre", "bilirsin</w>"], ["kür", "esel</w>"], ["gittiğ", "i</w>"], ["aklı", "mda</w>"], ["lin", "col"], ["yu", "dum</w>"], ["bak", "tığını</w>"], ["bus", "h</w>"], ["ş", "er"], ["vejetar", "yen</w>"], ["f", "e</w>"], ["bahara", "tlı</w>"], ["geç", "imini</w>"], ["sev", "e"], ["geçir", "diler</w>"], ["ve", "ç</w>"], ["huz", "ur</w>"], ["bulu", "ştu"], ["etki", "ledi</w>"], ["h", "ikâ"], ["ettir", "di</w>"], ["kapat", "mayı</w>"], ["malı", "ydık</w>"], ["arkadaşı", "dır</w>"], ["ek", "ip"], ["i̇stas", "yon"], ["f", "an"], ["ola", "caktı</w>"], ["evlen", "dim</w>"], ["son", "uc"], ["telef", "onun</w>"], ["çı", "lık</w>"], ["klar", "da</w>"], ["lar", "ımın</w>"], ["kullanı", "yorum</w>"], ["gider", "se</w>"], ["pa", "yı</w>"], ["gel", "men</w>"], ["t", "tu</w>"], ["bulun", "ur</w>"], ["ğ", "ünü</w>"], ["dığ", "ınızı</w>"], ["a", "let"], ["öğr", "etmek</w>"], ["boş", "al"], ["r", "isti"], ["ası", "l</w>"], ["anlaya", "madı</w>"], ["ep", "ey</w>"], ["is", "iz</w>"], ["i̇ste", "diğiniz</w>"], ["ar", "lar</w>"], ["beğen", "miyorum</w>"], ["et", "ek</w>"], ["katıl", "mıyorum</w>"], ["kıyafet", "ler</w>"], ["yağa", "bilir</w>"], ["b", "un</w>"], ["göl", "de</w>"], ["haya", "li</w>"], ["giys", "ileri</w>"], ["geli", "yordu</w>"], ["ma", "hal"], ["kut", "unun</w>"], ["öp", "tüğünü</w>"], ["tartış", "tık</w>"], ["eki", "m'"], ["y", "eye</w>"], ["pu", "an</w>"], ["başlaya", "cağız</w>"], ["çal", "mak</w>"], ["aynı", "sını</w>"], ["baba", "ma</w>"], ["i̇ngil", "tere</w>"], ["fran", "sa</w>"], ["muzdar", "ip</w>"], ["nazi", "kti</w>"], ["no", "tlar</w>"], ["kaç", "mak</w>"], ["alan", "ında</w>"], ["tek", "nik</w>"], ["raf", "a</w>"], ["ola", "yı</w>"], ["yaz", "dığını</w>"], ["gördüğü", "n</w>"], ["öğren", "meyi</w>"], ["ma", "car"], ["al", "mıyor</w>"], ["bu", "ğ"], ["buğ", "da"], ["neza", "ket"], ["panto", "lon"], ["pazar", "te"], ["uçu", "ş"], ["dolar", "lık</w>"], ["oku", "yu"], ["milyon", "larca</w>"], ["ede", "bileceğimi</w>"], ["emr", "etti</w>"], ["yaş", "ındaki</w>"], ["c", "im</w>"], ["görün", "mek</w>"], ["par", "ç"], ["tar", "la"], ["muş", "um</w>"], ["dene", "me</w>"], ["bul", "mam</w>"], ["kadın", "ların</w>"], ["e", "'nin</w>"], ["fotoğraf", "ını</w>"], ["fil", "mden</w>"], ["hiss", "etmiyor</w>"], ["yazı", "sı</w>"], ["cese", "dini</w>"], ["top", "lam</w>"], ["çalış", "tılar</w>"], ["çık", "tık</w>"], ["iş", "çi</w>"], ["mu", "a"], ["doğ", "duğu</w>"], ["ar", "zu"], ["sak", "lıyor</w>"], ["odan", "ı</w>"], ["çöz", "meye</w>"], ["söyle", "miyorum</w>"], ["etki", "leyici</w>"], ["süpermarket", "e</w>"], ["kö", "le"], ["cinayet", "ten</w>"], ["yapabileceğ", "inden</w>"], ["şans", "sız</w>"], ["i̇", "y"], ["sem", "bol"], ["ya", "'dan</w>"], ["normal", "de</w>"], ["ma", "larını</w>"], ["kur", "t</w>"], ["se", "ç</w>"], ["dır", "mak</w>"], ["yüz", "ücü</w>"], ["bırak", "madı</w>"], ["dir", "mek</w>"], ["dede", "m</w>"], ["si", "'nde</w>"], ["bulun", "u"], ["linda", "'ya</w>"], ["yap", "mıyoruz</w>"], ["yüz", "ündeki</w>"], ["git", "arı</w>"], ["lığ", "ından</w>"], ["ko", "du</w>"], ["yaptı", "klar"], ["v", "is"], ["güvene", "bilirsin</w>"], ["ekst", "ra</w>"], ["apart", "man</w>"], ["c", "ının</w>"], ["ta", "k</w>"], ["fa", "br"], ["geçir", "meyi</w>"], ["şarkı", "lar</w>"], ["dur", "un</w>"], ["il", "dim</w>"], ["yapabileceğ", "in</w>"], ["ile", "bilir</w>"], ["yapıl", "dığını</w>"], ["s", "iydi</w>"], ["kil", "ol"], ["tanı", "dım</w>"], ["mik", "tar</w>"], ["bi", "yo"], ["takı", "mda</w>"], ["giz", "le"], ["im", "inde</w>"], ["yav", "ru</w>"], ["tar", "o</w>"], ["vatanda", "ş"], ["kur", "ban</w>"], ["ben", "siz</w>"], ["du", "ğunda</w>"], ["düşün", "en</w>"], ["yalnız", "dı</w>"], ["reka", "bet</w>"], ["kap", "lum"], ["kaplum", "bağ"], ["yürü", "yor</w>"], ["esk", "isinden</w>"], ["taşın", "mak</w>"], ["yapı", "la"], ["kardeş", "imi</w>"], ["sür", "meye</w>"], ["kasa", "banın</w>"], ["t", "in"], ["mü", "te"], ["çıkı", "p</w>"], ["film", "leri</w>"], ["şaşır", "t"], ["büyü", "leyici</w>"], ["açı", "sından</w>"], ["okuya", "bilir</w>"], ["yetiş", "mek</w>"], ["ofis", "ime</w>"], ["gire", "cek</w>"], ["öde", "yeceğim</w>"], ["no", "kta</w>"], ["ta", "da</w>"], ["alı", "yordu</w>"], ["geli", "yorlar</w>"], ["kapa", "tır</w>"], ["inan", "ma</w>"], ["pa", "ten</w>"], ["u", "laşı"], ["yargı", "lı</w>"], ["bilme", "diğim</w>"], ["kad", "ar"], ["miş", "tin</w>"], ["hapishan", "eden</w>"], ["hediye", "ler</w>"], ["ü", "mit</w>"], ["duydu", "ğumu</w>"], ["meşgul", "düm</w>"], ["karşı", "la"], ["gele", "cektir</w>"], ["mü", "rek"], ["mürek", "ke"], ["ola", "biliriz</w>"], ["cu", "dur</w>"], ["ann", "ene</w>"], ["fiz", "ik</w>"], ["g", "rip</w>"], ["bak", "maya</w>"], ["motosikle", "t</w>"], ["katlana", "mam</w>"], ["ucu", "z"], ["on", "suz</w>"], ["oyna", "dım</w>"], ["tah", "rip</w>"], ["me", "diği</w>"], ["güneş", "li</w>"], ["şar", "kının</w>"], ["edey", "ken</w>"], ["ana", "k</w>"], ["l", "mazdı</w>"], ["tak", "ma</w>"], ["üzü", "lü"], ["%", "</w>"], ["düşün", "dük</w>"], ["ja", "mal</w>"], ["kendin", "ize</w>"], ["has", "sas</w>"], ["m", "lu</w>"], ["sev", "miyorsun</w>"], ["hikaye", "ler</w>"], ["işı", "ğı</w>"], ["si", "yonu</w>"], ["p", "e</w>"], ["1", "1"], ["lan", "madı</w>"], ["kazana", "n</w>"], ["bit", "kiler</w>"], ["sor", "dun</w>"], ["ses", "ler</w>"], ["fransa", "'ya</w>"], ["anlam", "ını</w>"], ["olur", "sun</w>"], ["4", "0</w>"], ["cooki", "e</w>"], ["görmü", "yor</w>"], ["ba", "cağı</w>"], ["ölü", "me</w>"], ["el", "diven</w>"], ["5", "00</w>"], ["kale", "mini</w>"], ["şemsiy", "eni</w>"], ["b", "ek</w>"], ["sabı", "r</w>"], ["o", "dun</w>"], ["tatoeba", "'da</w>"], ["go", "og"], ["afri", "ka'da</w>"], ["ma", "s</w>"], ["tü", "k</w>"], ["dene", "din</w>"], ["alt", "ındaki</w>"], ["para", "yla</w>"], ["ta", "ti"], ["ver", "meyeceğini</w>"], ["ge", "ve"], ["dinle", "mekten</w>"], ["iz", "lerken</w>"], ["kadın", "dır</w>"], ["eğlen", "dim</w>"], ["geçir", "iyorum</w>"], ["me", "sinden</w>"], ["bulun", "an</w>"], ["kes", "i</w>"], ["sın", "dadır</w>"], ["mek", "si"], ["tur", "ta</w>"], ["indir", "im</w>"], ["olo", "j"], ["isteye", "bileceğini</w>"], ["kaç", "maya</w>"], ["göz", "ünü</w>"], ["karar", "dı</w>"], ["doğr", "uydu</w>"], ["şüphe", "ci</w>"], ["ştu", "rdu</w>"], ["n'", "ın</w>"], ["sağ", "lam</w>"], ["götüre", "bilir</w>"], ["ce", "p"], ["ı", "sın"], ["yara", "yacağını</w>"], ["duya", "biliyorum</w>"], ["konuştu", "lar</w>"], ["ala", "y"], ["lat", "ince</w>"], ["korkt", "u</w>"], ["unu", "t</w>"], ["buluş", "tum</w>"], ["din", "dar</w>"], ["yer", "ken</w>"], ["oyn", "arken</w>"], ["yo", "utu"], ["ko", "s"], ["tü", "kendi</w>"], ["kal", "dırı"], ["yapamaya", "cağımı</w>"], ["fiya", "ta</w>"], ["tik", "lerini</w>"], ["değil", "dik</w>"], ["kay", "gı"], ["karar", "madan</w>"], ["yürüyü", "ş"], ["bula", "caksın</w>"], ["il", "mek</w>"], ["lan", "da</w>"], ["ner", "eli</w>"], ["kötü", "ye</w>"], ["yıkı", "ldı</w>"], ["mo", "bil</w>"], ["es", "eri</w>"], ["kal", "mamı</w>"], ["çiz", "di</w>"], ["tr", "om"], ["ş", "iş</w>"], ["u", "yar</w>"], ["av", "</w>"], ["misaf", "ir</w>"], ["la", "va"], ["yazı", "ldı</w>"], ["so", "f"], ["muay", "ene</w>"], ["sabah", "ları</w>"], ["ayakkabı", "larımı</w>"], ["seçen", "ek"], ["ün", "ceye</w>"], ["san", "mıştım</w>"], ["fır", "ın</w>"], ["dağını", "k</w>"], ["i̇ste", "diğini</w>"], ["futbol", "u</w>"], ["ayır", "dı</w>"], ["doğu", "ştan</w>"], ["i̇l", "gi"], ["al", "manı</w>"], ["satı", "lık</w>"], ["kırmız", "ı"], ["li", "st"], ["gitme", "yeceğini</w>"], ["beş", "inci</w>"], ["öğretme", "ne</w>"], ["konuşu", "yoruz</w>"], ["al", "ça"], ["va", "y</w>"], ["başvu", "ru</w>"], ["sıkı", "cıydı</w>"], ["hiss", "ediyordu</w>"], ["baka", "cak</w>"], ["göğ", "s"], ["değiştir", "ebilir</w>"], ["j", "ür"], ["korkun", "ç"], ["ya", "sak</w>"], ["risk", "li</w>"], ["yeter", "siz</w>"], ["yürü", "yordu</w>"], ["w", "hi"], ["ti", "me</w>"], ["epey", "ce</w>"], ["kır", "sal</w>"], ["görün", "en</w>"], ["bel", "geyi</w>"], ["görünü", "r</w>"], ["î", "</w>"], ["akt", "ör</w>"], ["fer", "it"], ["ne", "z"], ["yanı", "yor</w>"], ["az", "alt"], ["ilgilen", "mek</w>"], ["atı", "l"], ["f", "et"], ["f", "o"], ["erkek", "lerden</w>"], ["gö", "mül"], ["hakkı", "mızda</w>"], ["gerçek", "te</w>"], ["unu", "ta"], ["kâ", "ğı"], ["git", "arını</w>"], ["mah", "ku"], ["yürü", "düm</w>"], ["akıl", "lıdır</w>"], ["redde", "de"], ["yapra", "klar</w>"], ["yorgun", "dum</w>"], ["kes", "tim</w>"], ["sorumlu", "lu"], ["ş", "öyle</w>"], ["bilgisayar", "ım</w>"], ["kö", "ken"], ["a", "man</w>"], ["dürü", "yor</w>"], ["yahu", "di</w>"]], "token_to_id": {"!": 0, "!</w>": 1, "\"": 2, "\"</w>": 3, "\"ben</w>": 4, "\"bu</w>": 5, "\"evet</w>": 6, "\"hayır</w>": 7, "\"ne</w>": 8, "#": 9, "$": 10, "%": 11, "%</w>": 12, "&": 13, "'": 14, "'a</w>": 15, "'da</w>": 16, "'daki</w>": 17, "'dan</w>": 18, "'de</w>": 19, "'deki</w>": 20, "'den</w>": 21, "'e</w>": 22, "'i</w>": 23, "'in</w>": 24, "'n": 25, "'nde</w>": 26, "'ne</w>": 27, "'nin</w>": 28, "'nun</w>": 29, "'nın</w>": 30, "'ta</w>": 31, "'tan</w>": 32, "'te</w>": 33, "'ten</w>": 34, "'u</w>": 35, "'un</w>": 36, "'ya</w>": 37, "'ye</w>": 38, "'yi</w>": 39, "'yla</w>": 40, "'yu</w>": 41, "'yı</w>": 42, "'ı</w>": 43, "'ın</w>": 44, "(": 45, ")": 46, "+": 47, ",": 48, ",</w>": 49, "-": 50, "-</w>": 51, ".": 52, ".</w>": 53, "/": 54, "0": 55, "00": 56, "000</w>": 57, "00</w>": 58, "0</w>": 59, "1": 60, "100</w>": 61, "10</w>": 62, "11": 63, "12</w>": 64, "13</w>": 65, "15</w>": 66, "18": 67, "18</w>": 68, "19": 69, "196": 70, "199": 71, "1</w>": 72, "2": 73, "20": 74, "200": 75, "201": 76, "2013'te</w>": 77, "2013</w>": 78, "20</w>": 79, "2</w>": 80, "3": 81, "3'te</w>": 82, "30": 83, "30'a</w>": 84, "30'da</w>": 85, "30'dan</w>": 86, "300</w>": 87, "30</w>": 88, "3</w>": 89, "4": 90, "40</w>": 91, "4</w>": 92, "5": 93, "500</w>": 94, "50</w>": 95, "5</w>": 96, "6": 97, "6'da</w>": 98, "6</w>": 99, "7": 100, "7</w>": 101, "8": 102, "8</w>": 103, "9": 104, "9</w>": 105, ":": 106, ":</w>": 107, ";</w>": 108, "</w>": 109, "<eos>": 110, "<pad>": 111, "<sos>": 112, "<unk>": 113, "=": 114, "?": 115, "?</w>": 116, "@": 117, "_": 118, "a": 119, "a'nın</w>": 120, "a</w>": 121, "ab": 122, "abar": 123, "abd": 124, "abd</w>": 125, "abilir</w>": 126, "ac": 127, "aca": 128, "acaba</w>": 129, "acak</w>": 130, "ace": 131, "acele</w>": 132, "acelesi</w>": 133, "aceleyle</w>": 134, "acil</w>": 135, "acı": 136, "acı</w>": 137, "acık": 138, "acıktı</w>": 139, "acımasız</w>": 140, "acıyor</w>": 141, "ad": 142, "ada": 143, "ada</w>": 144, "adam": 145, "adam</w>": 146, "adama</w>": 147, "adamdı</w>": 148, "adamdır</w>": 149, "adamla</w>": 150, "adamlar</w>": 151, "adamları</w>": 152, "adamsın</w>": 153, "adamı</w>": 154, "adamım</w>": 155, "adamın</w>": 156, "aday</w>": 157, "adil</w>": 158, "adres": 159, "adresini</w>": 160, "adı": 161, "adı</w>": 162, "adım</w>": 163, "adımı</w>": 164, "adın</w>": 165, "adına</w>": 166, "adında</w>": 167, "adını</w>": 168, "adının</w>": 169, "adınızı</w>": 170, "af": 171, "aff": 172, "affedersiniz</w>": 173, "afri": 174, "afrika'da</w>": 175, "ah": 176, "ah</w>": 177, "ahla": 178, "ahşa": 179, "ahşap</w>": 180, "ai": 181, "aile": 182, "aile</w>": 183, "ailem</w>": 184, "ailemle</w>": 185, "ailen": 186, "ailen</w>": 187, "ailenin</w>": 188, "ailesi</w>": 189, "ailesine</w>": 190, "ailesini</w>": 191, "ailesinin</w>": 192, "ailesiyle</w>": 193, "ait</w>": 194, "aittir</w>": 195, "ak": 196, "ak</w>": 197, "akl": 198, "aklı": 199, "aklı</w>": 200, "aklıma</w>": 201, "aklımda</w>": 202, "aklında</w>": 203, "akra": 204, "akraba</w>": 205, "aksan": 206, "akt": 207, "aktif</w>": 208, "aktör</w>": 209, "akı": 210, "akıcı</w>": 211, "akıl": 212, "akıl</w>": 213, "akıllı</w>": 214, "akıllıca</w>": 215, "akıllıdır</w>": 216, "akşa": 217, "akşam</w>": 218, "akşamı</w>": 219, "al": 220, "al</w>": 221, "ala": 222, "alabilir</w>": 223, "alabilirim</w>": 224, "alabilirsin</w>": 225, "alacak</w>": 226, "alacaksın</w>": 227, "alacağım</w>": 228, "alacağını</w>": 229, "alacağız</w>": 230, "alalım</w>": 231, "alamadı</w>": 232, "alamadım</w>": 233, "alamam</w>": 234, "alamaz</w>": 235, "alan": 236, "alan</w>": 237, "alanda</w>": 238, "alandı</w>": 239, "alanı</w>": 240, "alanında</w>": 241, "alar": 242, "aları</w>": 243, "alarını</w>": 244, "alay": 245, "alay</w>": 246, "alayım</w>": 247, "alber": 248, "alberto</w>": 249, "albü": 250, "alda": 251, "aldat": 252, "aldı</w>": 253, "aldık</w>": 254, "aldılar</w>": 255, "aldım</w>": 256, "aldın</w>": 257, "aldınız</w>": 258, "aldır": 259, "aldığı</w>": 260, "aldığım</w>": 261, "aldığın</w>": 262, "aldığını</w>": 263, "ale": 264, "alerj": 265, "alerjisi</w>": 266, "alet": 267, "alfa": 268, "algın": 269, "algınlığı</w>": 270, "ali": 271, "ali</w>": 272, "alice": 273, "alice</w>": 274, "alkol": 275, "alkol</w>": 276, "alkış": 277, "alla": 278, "allah": 279, "allah</w>": 280, "alma": 281, "alma</w>": 282, "almadan</w>": 283, "almadı</w>": 284, "almadım</w>": 285, "almak</w>": 286, "almaktadır</w>": 287, "almalısın</w>": 288, "almalıyım</w>": 289, "almalıyız</w>": 290, "almam</w>": 291, "almamı</w>": 292, "almamız</w>": 293, "alman": 294, "alman</w>": 295, "almanca</w>": 296, "almanya'da</w>": 297, "almanya</w>": 298, "almanı</w>": 299, "alması</w>": 300, "almasını</w>": 301, "almaya</w>": 302, "almayı</w>": 303, "almaz</w>": 304, "almıyor</w>": 305, "almış</w>": 306, "alt": 307, "alt</w>": 308, "alterna": 309, "altmış</w>": 310, "altı": 311, "altı</w>": 312, "altıda</w>": 313, "altın</w>": 314, "altına</w>": 315, "altında</w>": 316, "altındaki</w>": 317, "altından</w>": 318, "alça": 319, "alı": 320, "alı</w>": 321, "alık</w>": 322, "alım</w>": 323, "alın": 324, "alın</w>": 325, "alındı</w>": 326, "alıp</w>": 327, "alır": 328, "alır</w>": 329, "alırım</w>": 330, "alıyor</w>": 331, "alıyordu</w>": 332, "alıyorsun</w>": 333, "alıyorum</w>": 334, "alış": 335, "alışa": 336, "alışk": 337, "alışkan": 338, "alışkın": 339, "alışkın</w>": 340, "alışkındır</w>": 341, "alışkınım</w>": 342, "alışver": 343, "alışveriş</w>": 344, "alışverişe</w>": 345, "am": 346, "ama": 347, "ama</w>": 348, "amacı</w>": 349, "aman</w>": 350, "ambulan": 351, "ambulans</w>": 352, "amca": 353, "amcam</w>": 354, "ameli": 355, "ameliyat</w>": 356, "amer": 357, "ameri": 358, "amerika": 359, "amerika'da</w>": 360, "amerika'ya</w>": 361, "amerika</w>": 362, "amerikalı": 363, "amerikalı</w>": 364, "amerikalılar</w>": 365, "amerikan</w>": 366, "an": 367, "an</w>": 368, "ana": 369, "ana</w>": 370, "anah": 371, "anahtar": 372, "anahtar</w>": 373, "anahtarları</w>": 374, "anahtarlarımı</w>": 375, "anahtarlarını</w>": 376, "anahtarı</w>": 377, "anahtarını</w>": 378, "anak</w>": 379, "ancak</w>": 380, "anda</w>": 381, "andan</w>": 382, "andı</w>": 383, "ani</w>": 384, "aniden</w>": 385, "anla": 386, "anladı</w>": 387, "anladım</w>": 388, "anladın</w>": 389, "anladığını</w>": 390, "anlam": 391, "anlam</w>": 392, "anlama</w>": 393, "anlamadı</w>": 394, "anlamadım</w>": 395, "anlamak</w>": 396, "anlamaya</w>": 397, "anlamı</w>": 398, "anlamına</w>": 399, "anlamını</w>": 400, "anlamıyor</w>": 401, "anlamıyorum</w>": 402, "anlar</w>": 403, "anlat": 404, "anlat</w>": 405, "anlata": 406, "anlatacağım</w>": 407, "anlatmak</w>": 408, "anlattı</w>": 409, "anlattım</w>": 410, "anlay": 411, "anlaya": 412, "anlayabiliyorum</w>": 413, "anlayamadı</w>": 414, "anlayamadım</w>": 415, "anlayamıyorum</w>": 416, "anlaş": 417, "anlaşma</w>": 418, "anlaşı": 419, "anlıyor</w>": 420, "anlıyorum</w>": 421, "ann": 422, "anne": 423, "anne</w>": 424, "annem</w>": 425, "anneme</w>": 426, "annemi</w>": 427, "annemin</w>": 428, "annen</w>": 429, "annene</w>": 430, "annesi</w>": 431, "annesine</w>": 432, "annesini</w>": 433, "annesinin</w>": 434, "ano": 435, "ant": 436, "anta": 437, "antren": 438, "anı": 439, "anı</w>": 440, "anın</w>": 441, "anır</w>": 442, "anıyor</w>": 443, "ap": 444, "apart": 445, "apartman</w>": 446, "aptal": 447, "aptal</w>": 448, "aptalca</w>": 449, "ar": 450, "ar</w>": 451, "ara": 452, "ara</w>": 453, "araba": 454, "araba</w>": 455, "arabada</w>": 456, "arabadan</w>": 457, "arabalar": 458, "arabalar</w>": 459, "arabam</w>": 460, "arabamı</w>": 461, "araban</w>": 462, "arabanı</w>": 463, "arabanın</w>": 464, "arabası</w>": 465, "arabasına</w>": 466, "arabasını</w>": 467, "arabasının</w>": 468, "arabaya</w>": 469, "arabayla</w>": 470, "arabayı</w>": 471, "arada</w>": 472, "aradı</w>": 473, "aradım</w>": 474, "aradığım</w>": 475, "aradığın</w>": 476, "aradığını</w>": 477, "arak</w>": 478, "arama</w>": 479, "aramadı</w>": 480, "aramak</w>": 481, "aramasını</w>": 482, "aramaya</w>": 483, "aramayı</w>": 484, "aramızda</w>": 485, "arap": 486, "arap</w>": 487, "arapça</w>": 488, "arar</w>": 489, "arası</w>": 490, "arasında</w>": 491, "arasındaki</w>": 492, "araya": 493, "araya</w>": 494, "arayacağım</w>": 495, "arayın</w>": 496, "araz": 497, "arazi</w>": 498, "araç</w>": 499, "araş": 500, "araştır": 501, "araştırma</w>": 502, "ard": 503, "arda</w>": 504, "ardı</w>": 505, "ardından</w>": 506, "are</w>": 507, "aret": 508, "aret</w>": 509, "arka": 510, "arka</w>": 511, "arkadaş": 512, "arkadaş</w>": 513, "arkadaşlar": 514, "arkadaşlar</w>": 515, "arkadaşları</w>": 516, "arkadaşlarım</w>": 517, "arkadaşlarımdan</w>": 518, "arkadaşlarımla</w>": 519, "arkadaşların</w>": 520, "arkadaşlarına</w>": 521, "arkadaşlarından</w>": 522, "arkadaşlarını</w>": 523, "arkadaşlarının</w>": 524, "arkadaşlarıyla</w>": 525, "arkadaşı": 526, "arkadaşı</w>": 527, "arkadaşıdır</w>": 528, "arkadaşım</w>": 529, "arkadaşıma</w>": 530, "arkadaşımla</w>": 531, "arkadaşımı</w>": 532, "arkadaşımın</w>": 533, "arkadaşın</w>": 534, "arkadaşına</w>": 535, "arkadaşını</w>": 536, "arkadaşının</w>": 537, "arkadaşıyla</w>": 538, "arkadaşız</w>": 539, "arkasına</w>": 540, "arkasında</w>": 541, "arkasından</w>": 542, "arken</w>": 543, "arlar</w>": 544, "arsa</w>": 545, "art": 546, "arttı</w>": 547, "artı": 548, "artık</w>": 549, "artıyor</w>": 550, "arzu": 551, "arı": 552, "arı</w>": 553, "arım</w>": 554, "arını</w>": 555, "arıyla</w>": 556, "arıyor</w>": 557, "arıyordu</w>": 558, "arıyorum</w>": 559, "arıyoruz</w>": 560, "as": 561, "as</w>": 562, "asan": 563, "asansör</w>": 564, "asgari</w>": 565, "asker": 566, "asker</w>": 567, "askeri</w>": 568, "askerler</w>": 569, "askı": 570, "asla</w>": 571, "aslan</w>": 572, "aslında</w>": 573, "ast": 574, "astr": 575, "astrono": 576, "astı</w>": 577, "ası": 578, "asıl</w>": 579, "asını</w>": 580, "at": 581, "at</w>": 582, "ata": 583, "ata</w>": 584, "ate": 585, "ateş": 586, "ateş</w>": 587, "ateşe</w>": 588, "ateşi</w>": 589, "ateşin</w>": 590, "atla": 591, "atladı</w>": 592, "atlar</w>": 593, "atları</w>": 594, "atlat": 595, "atle": 596, "atmak</w>": 597, "atmaya</w>": 598, "atmos": 599, "attı</w>": 600, "attım</w>": 601, "atı": 602, "atı</w>": 603, "atıl": 604, "atıldı</w>": 605, "atın</w>": 606, "atıyor</w>": 607, "atıyorum</w>": 608, "av": 609, "av</w>": 610, "avanta": 611, "avru": 612, "avrupa": 613, "avrupa'da</w>": 614, "avrupa'ya</w>": 615, "avrupa</w>": 616, "avu": 617, "avukat": 618, "avukat</w>": 619, "avustralya": 620, "avustralya'da</w>": 621, "avustralya'dan</w>": 622, "avustralya'ya</w>": 623, "avustralya'yı</w>": 624, "avustralya</w>": 625, "avustralyalı</w>": 626, "ay": 627, "ay</w>": 628, "aya</w>": 629, "ayak": 630, "ayak</w>": 631, "ayakka": 632, "ayakkabı": 633, "ayakkabı</w>": 634, "ayakkabılar</w>": 635, "ayakkabıları</w>": 636, "ayakkabılarımı</w>": 637, "ayakkabılarını</w>": 638, "ayakta</w>": 639, "ayar": 640, "ayağ": 641, "ayağa</w>": 642, "ayda</w>": 643, "aydın": 644, "aydır</w>": 645, "aylık</w>": 646, "ayn": 647, "ayna": 648, "aynı": 649, "aynı</w>": 650, "aynısını</w>": 651, "ayr": 652, "ayrı": 653, "ayrı</w>": 654, "ayrıca</w>": 655, "ayrıl": 656, "ayrıla": 657, "ayrıldı</w>": 658, "ayrıldım</w>": 659, "ayrıldığını</w>": 660, "ayrılmak</w>": 661, "ayrılmaya</w>": 662, "ayrılı": 663, "ayrılıyor</w>": 664, "ayrıntı": 665, "ayrıntılı</w>": 666, "ayı": 667, "ayı</w>": 668, "ayın</w>": 669, "ayında</w>": 670, "ayır": 671, "ayıra": 672, "ayırdı</w>": 673, "ayırt</w>": 674, "az": 675, "az</w>": 676, "aza": 677, "azalt": 678, "azar": 679, "azından</w>": 680, "aç": 681, "aç</w>": 682, "aça": 683, "açabilir</w>": 684, "açar</w>": 685, "açgöz": 686, "açlıktan</w>": 687, "açmak</w>": 688, "açmaya</w>": 689, "açtı</w>": 690, "açtım</w>": 691, "açı": 692, "açık": 693, "açık</w>": 694, "açıkla": 695, "açıkladı</w>": 696, "açıklama</w>": 697, "açıklamak</w>": 698, "açıklaya": 699, "açıklayabilir</w>": 700, "açıktı</w>": 701, "açıktır</w>": 702, "açıkça</w>": 703, "açıkçası</w>": 704, "açıl": 705, "açıldı</w>": 706, "açım</w>": 707, "açın</w>": 708, "açısından</w>": 709, "ağ": 710, "ağa": 711, "ağabey": 712, "ağac": 713, "ağaca</w>": 714, "ağacı</w>": 715, "ağacın</w>": 716, "ağaç": 717, "ağaç</w>": 718, "ağaçlar</w>": 719, "ağaçları</w>": 720, "ağla": 721, "ağladı</w>": 722, "ağladığını</w>": 723, "ağlamaya</w>": 724, "ağlıyor</w>": 725, "ağr": 726, "ağrı": 727, "ağrı</w>": 728, "ağrım</w>": 729, "ağrısı</w>": 730, "ağrıyor</w>": 731, "ağz": 732, "ağzı</w>": 733, "ağzını</w>": 734, "ağır": 735, "ağır</w>": 736, "aş": 737, "aşa": 738, "aşağı": 739, "aşağı</w>": 740, "aşağıya</w>": 741, "aşk": 742, "aşk</w>": 743, "aşkın</w>": 744, "aşçı": 745, "aşçı</w>": 746, "aşı": 747, "aşık</w>": 748, "aşırı</w>": 749, "b": 750, "b</w>": 751, "ba": 752, "ba</w>": 753, "baba": 754, "baba</w>": 755, "babam</w>": 756, "babama</w>": 757, "babamı</w>": 758, "babamın</w>": 759, "baban</w>": 760, "babanın</w>": 761, "babası</w>": 762, "babasına</w>": 763, "babasından</w>": 764, "babasını</w>": 765, "babasının</w>": 766, "babasıyla</w>": 767, "bacaklar": 768, "bacağı</w>": 769, "bacağını</w>": 770, "baga": 771, "bagaj": 772, "bah": 773, "bahan": 774, "bahar</w>": 775, "bahara": 776, "baharatlı</w>": 777, "baharda</w>": 778, "bahs": 779, "bahse</w>": 780, "bahset</w>": 781, "bahsetmedi</w>": 782, "bahsetti</w>": 783, "bahç": 784, "bahçe</w>": 785, "bahçede</w>": 786, "bahçesi</w>": 787, "bahçesinde</w>": 788, "bahçesine</w>": 789, "bak": 790, "bak</w>": 791, "baka": 792, "bakacak</w>": 793, "bakacağım</w>": 794, "bakalım</w>": 795, "bakan</w>": 796, "bakar": 797, "bakar</w>": 798, "bakma</w>": 799, "bakmak</w>": 800, "bakmaya</w>": 801, "baktı</w>": 802, "baktım</w>": 803, "baktığını</w>": 804, "bakı": 805, "bakın</w>": 806, "bakıyor</w>": 807, "bakıyordu</w>": 808, "bakış": 809, "bakış</w>": 810, "bal": 811, "bal</w>": 812, "balar": 813, "baları</w>": 814, "balı": 815, "balık": 816, "balık</w>": 817, "balığa</w>": 818, "balığı</w>": 819, "ban": 820, "ban</w>": 821, "bana</w>": 822, "banka": 823, "banka</w>": 824, "bankada</w>": 825, "bankaya</w>": 826, "bankta</w>": 827, "banyo": 828, "banyo</w>": 829, "banı": 830, "banı</w>": 831, "banın</w>": 832, "bar": 833, "bar</w>": 834, "barda": 835, "barda</w>": 836, "bardak</w>": 837, "bardağ": 838, "bardağı</w>": 839, "barış": 840, "barış</w>": 841, "bas": 842, "basi": 843, "basit</w>": 844, "basket": 845, "basketbol</w>": 846, "baskı</w>": 847, "bastı</w>": 848, "bası</w>": 849, "bat": 850, "bat</w>": 851, "battan": 852, "battaniye</w>": 853, "battı</w>": 854, "batı": 855, "batı</w>": 856, "bavu": 857, "bavul": 858, "bay": 859, "bay</w>": 860, "bayan</w>": 861, "bayra": 862, "bayramı</w>": 863, "bayı": 864, "bayı</w>": 865, "baz": 866, "bazen</w>": 867, "bazı": 868, "bazı</w>": 869, "bazıları</w>": 870, "bağ": 871, "bağladı</w>": 872, "bağlan": 873, "bağlantı": 874, "bağlantı</w>": 875, "bağlı</w>": 876, "bağlıdır</w>": 877, "bağım": 878, "bağımsız</w>": 879, "bağır": 880, "bağırdı</w>": 881, "bağış": 882, "baş": 883, "baş</w>": 884, "başa</w>": 885, "başar": 886, "başara": 887, "başardı</w>": 888, "başarı": 889, "başarı</w>": 890, "başarılı</w>": 891, "başarısız": 892, "başarısız</w>": 893, "başka": 894, "başka</w>": 895, "başkalarına</w>": 896, "başkalarının</w>": 897, "başkan": 898, "başkan</w>": 899, "başkanı</w>": 900, "başken": 901, "başkenti</w>": 902,
[...]
